0000000b
0000001e
ffffffef
0000000b
0000001d
fffffff9
00000014
00000021
00000005
00000015
fffffff5
00000013
ffffffef
ffffffff
00000019
00000003
00000019
fffffff6
ffffffee
fffffffc
fffffff1
00000002
0000001a
ffffffff
0000000a
00000027
0000000e
0000000a
fffffff1
fffffff9
00000006
00000020
00000001
fffffffb
00000022
0000000d
00000016
00000000
00000008
fffffff3
00000021
00000000
fffffff1
fffffffe
ffffffee
00000007
0000000b
00000010
00000017
fffffff6
00000009
0000002d
00000010
00000020
00000003
ffffffec
fffffff3
fffffffc
00000000
0000000b
00000002
0000001b
00000037
0000000d
