fffffff3
fffffffc
fffffff3
fffffff0
00000008
00000016
00000015
fffffffd
00000021
00000001
0000000b
fffffffa
00000004
fffffffa
00000014
00000004
0000000c
00000002
00000019
0000000c
00000018
ffffffef
00000014
00000002
00000010
00000001
0000000a
0000001c
fffffff6
0000001c
00000019
0000000e
ffffffea
00000018
0000000b
00000003
00000004
00000014
fffffffd
00000001
00000016
00000011
0000000d
0000000f
ffffffe8
0000000c
00000016
00000017
ffffffed
0000000f
00000011
00000006
00000020
fffffff9
0000000b
00000014
fffffff9
00000006
00000001
ffffffff
00000027
00000026
fffffffc
ffffffff
