fe
ff
fc
fd
f2
f5
f8
f4
f8
fa
00
16
11
1b
10
12
14
0c
fe
f5
f1
f8
f8
fa
0e
0e
fe
03
05
fb
ff
fa
f3
f1
ff
f4
fa
0e
0f
05
14
0d
09
fe
0a
ff
f6
f3
03
e6
eb
f1
fa
0c
fa
05
01
fd
00
f3
f3
f4
f4
fb
ff
04
08
09
17
f8
07
f9
00
f6
fb
fb
0b
07
f5
ff
04
08
05
01
fd
fc
03
fa
00
02
fb
ed
07
f4
13
15
12
07
19
14
fd
06
f3
00
07
f7
f0
0b
fe
fb
fb
01
01
01
e7
f1
06
fa
f5
04
08
0f
1e
15
13
10
08
fe
03
f7
f6
f4
fb
f2
02
e8
12
0d
06
05
03
fb
03
06
0c
fd
02
0d
f8
05
0a
14
09
0b
17
05
0b
04
ff
fc
fa
f0
f9
04
08
11
ff
fe
ff
05
06
04
12
00
00
fe
08
15
0c
08
15
13
16
0d
fd
f3
fc
fd
f4
f4
f5
10
0c
f8
ff
0c
05
0c
f7
f7
19
12
0e
01
17
fd
05
05
09
11
14
1a
f7
f2
f4
f6
e9
f0
fc
f5
06
09
05
00
01
f6
0e
0a
1e
12
01
04
fe
0f
06
0e
08
16
04
06
fc
f9
f2
ee
f0
f4
f9
e9
e7
f8
04
f4
f7
fd
0a
07
12
0d
fa
00
f6
07
09
f5
fe
00
fe
f6
ec
f4
f3
f6
02
fd
f8
03
d8
df
ea
ee
f7
ef
f9
12
f1
02
f7
ff
fe
02
08
f9
ef
f7
f1
f3
ed
fe
f3
f6
fa
f3
f7
dd
da
d5
cc
f3
f4
ec
e4
12
e8
01
ef
f6
f5
0c
05
06
01
f4
f9
f3
f1
fb
02
07
0d
f5
f3
d3
d5
d0
c5
0f
fa
fa
f1
eb
df
f6
fb
04
f7
06
10
04
03
05
ff
04
03
04
03
1a
02
ff
fe
0b
16
f2
cf
0a
02
00
dc
ee
ec
f7
06
0b
0a
06
11
03
03
13
12
10
0f
09
17
0e
13
01
f4
0f
05
0c
21
0e
fb
fa
ed
f3
04
09
0e
17
11
11
07
00
01
01
17
14
0e
10
14
0c
0f
11
fd
ef
f7
11
ff
05
fa
15
02
00
00
09
09
15
0e
0c
12
fd
fe
09
15
11
15
10
04
15
0b
08
0d
01
fd
21
2b
08
00
fb
24
ff
f7
04
03
1d
14
17
22
11
08
0f
1c
13
0e
10
0f
0b
0b
0f
0b
17
0b
1c
13
18
fc
03
13
07
fd
fb
f0
21
1c
1d
14
03
0b
13
0f
0e
07
07
09
15
03
03
0d
09
e5
04
0b
03
fc
07
15
17
fe
07
0b
11
13
08
03
02
13
10
0e
16
1b
06
01
05
ff
06
08
00
ef
04
04
0d
fd
0d
02
26
09
1b
11
16
10
03
05
ff
fb
11
1c
17
0d
0e
0e
05
06
19
12
ff
d6
de
14
0d
ff
ff
ff
29
20
11
11
17
0c
04
03
f5
f3
0c
0b
16
0a
01
05
09
13
0f
fa
ef
e4
e8
fb
ff
fb
10
19
22
0a
08
ff
0f
07
fa
f9
fb
fb
0b
0a
10
0b
0e
07
04
04
0e
0a
0d
e0
e8
ff
fe
05
01
17
1f
ff
f0
fe
05
06
fd
05
0c
03
11
06
11
04
10
0b
16
08
0f
0b
fb
e9
ed
fd
03
00
fd
fe
14
f6
ee
fa
04
12
07
08
1a
10
11
09
0d
09
14
1f
1b
18
19
02
07
f4
f5
eb
01
01
fb
f6
19
0d
07
11
1c
09
0e
0d
18
12
19
24
12
15
0a
09
02
0f
0f
03
fb
fe
0e
01
03
03
01
01
f4
fc
0e
1c
0b
0a
08
1b
06
06
12
10
11
0a
06
ec
ef
00
eb
f2
e9
e4
01
02
02
01
01
04
fa
05
0a
17
0b
f9
ed
f4
e8
f4
e5
e8
e2
ff
f2
f1
e9
ff
f4
f1
f3
01
fa
fb
fa
00
02
ff
fd
f6
01
03
00
05
11
f9
0a
05
ff
ff
09
14
17
21
20
19
fe
05
fa
fe
fd
fa
fb
fc
ff
fe
f5
ec
ed
e5
e5
ea
ef
ee
00
fe
02
0f
16
0a
07
02
06
f5
fa
f3
eb
02
0d
04
06
ff
00
00
fc
e9
e2
ef
ea
e2
f6
fc
f6
05
10
1c
1b
1d
14
04
f6
fc
e7
f1
e3
eb
0d
fb
fb
03
fd
01
f9
e7
e5
e0
e9
ed
04
04
05
05
18
1b
17
0f
09
0f
0a
04
00
e8
f2
f9
08
00
01
fb
fa
03
f7
ff
01
06
ec
f9
eb
fd
03
0e
16
12
18
1a
00
fd
ef
f8
f2
ee
09
08
f1
05
fd
fd
fe
04
f1
00
07
02
f5
02
fb
08
0e
10
1e
09
08
0c
fe
f9
fb
ff
f5
f7
f5
f0
02
0d
04
06
03
fd
01
14
1a
0b
10
00
06
00
01
0f
0e
13
0d
01
f7
f8
ff
f9
f5
f6
fb
0e
0c
07
fb
00
03
0c
fa
0c
f5
fb
ff
fb
04
02
07
03
0d
0e
0a
ff
00
09
00
04
ef
f4
09
f9
fd
05
14
fd
08
f2
ed
1a
f9
04
fa
04
00
09
0b
12
15
15
1b
0e
03
01
00
fd
f4
f3
f5
f3
ff
ff
fc
03
f6
04
fd
0d
f5
f7
fc
02
07
02
05
fd
11
09
0d
05
04
f4
fb
e0
f9
f4
e2
ef
ec
0f
05
fe
f2
04
fe
03
f4
fd
fb
05
02
ff
f7
fb
fb
03
09
fc
ff
f9
f9
f6
f8
fa
f5
df
f0
f2
ec
f6
fb
ed
01
f4
fd
03
04
08
f9
f8
f4
fa
f0
ee
fc
ff
fe
f9
07
f3
f5
f7
fb
da
cb
d4
07
fa
ee
da
0e
f1
fa
f0
f5
fa
ff
05
03
fe
fc
04
08
ff
06
01
ff
07
03
07
f0
ed
e0
e9
10
f8
f5
eb
f3
f2
06
f8
01
f8
01
fe
06
07
14
14
13
0e
0f
05
00
fe
0c
0d
1b
1f
f4
e1
11
fa
f6
e3
f3
f4
f2
fd
01
07
05
fd
01
05
1a
25
20
1b
16
0b
05
03
fb
03
12
05
fa
e5
f7
01
f6
eb
f6
ef
ef
ff
f6
02
0a
f5
06
12
20
1d
1c
11
02
03
ff
f4
01
f7
ee
de
ff
ef
fe
fe
0b
f8
f0
ea
e6
f9
f6
02
07
02
0b
13
1f
24
11
16
07
f2
f6
f3
ea
f6
e9
df
14
08
0a
02
01
17
ee
f0
f8
00
02
07
08
08
0e
0f
17
19
07
03
f8
fc
f0
f5
ea
f5
f6
f2
04
f9
fb
05
01
06
fe
fc
f1
e8
04
05
00
06
0c
18
0d
0c
04
08
00
f7
fc
f1
00
f3
f3
e3
e9
ec
fa
00
ff
0b
03
f4
ed
f3
f6
fc
02
fe
0b
0c
09
09
0c
07
0e
0e
00
05
01
f6
f1
ec
06
05
11
06
fd
fb
fe
f7
f4
f9
fd
f7
f3
04
08
07
16
11
0c
0c
13
13
0e
fb
11
06
0b
e1
f9
0d
07
05
ee
ef
0c
08
fa
08
02
02
02
06
00
04
0c
0a
19
0f
18
15
15
1c
09
fc
ee
f0
eb
04
00
fb
03
09
07
02
fa
ff
0c
06
fc
03
0d
09
11
11
06
11
0b
0a
19
0e
0d
ff
eb
fb
fa
f8
01
01
06
f8
fb
06
02
07
03
0a
0a
10
10
10
0f
0f
11
10
11
10
0c
16
0a
f6
f7
f5
fc
06
03
fa
fa
ef
0b
f5
f6
fc
0b
13
12
0f
12
18
15
07
0b
10
14
1b
18
0d
18
0d
02
f1
f1
0c
04
fb
02
ef
02
08
fa
f2
ff
07
09
14
21
0b
05
07
0b
1b
09
0f
04
13
17
13
08
08
06
fc
fc
05
fe
03
f6
ec
12
07
06
0e
0e
11
08
03
06
10
fb
0c
06
03
0b
14
0c
f4
ee
fc
02
01
03
06
fe
fd
f5
15
19
1c
0d
0a
09
15
06
09
02
10
05
05
04
19
06
17
17
04
10
03
06
fb
03
03
fd
fd
02
f5
07
05
0c
0b
0d
f9
02
ff
ff
0c
13
13
00
04
10
06
04
13
03
01
01
00
fb
fd
ff
02
fd
f2
f3
04
0e
14
0a
12
0c
0b
10
05
05
0c
15
0b
fd
00
fd
02
fc
02
fe
ff
fe
fa
fe
fa
fe
f4
f1
fe
08
07
0a
08
10
09
00
f6
ee
f3
fa
f4
05
ff
f4
f3
02
fd
f9
fb
fc
03
05
fb
fb
f6
f2
03
0a
10
ef
fe
f5
f4
e2
e3
f3
ed
e4
e8
ea
ed
ec
eb
f2
eb
f6
fe
fa
ff
03
03
f6
f6
f3
f8
0d
f4
f0
f3
f2
eb
d7
e2
e8
de
ed
e3
e8
e8
e7
e0
e7
f9
fe
06
02
02
05
fd
fc
11
ec
ea
f2
ee
f0
f0
e4
eb
ee
f0
f8
f5
f5
ea
e2
e7
f8
f7
0a
02
f7
07
05
fe
01
01
f6
fe
d6
f6
f1
ea
e4
ec
f4
ee
ff
fe
06
07
0c
09
09
11
f5
08
01
02
0d
1a
ff
04
06
0e
00
0c
f1
fb
fe
f0
e2
ef
f2
f9
f9
fc
04
03
0a
0b
16
0e
10
18
17
32
25
06
00
fb
0e
e3
fd
fa
18
02
f3
fd
f1
e5
e8
f5
fc
08
08
07
1c
1b
1c
1a
1c
23
17
1e
0f
1a
04
fd
05
01
0e
fc
0a
ff
06
f0
fe
f0
fb
06
05
0d
09
1f
23
1c
27
33
29
23
10
1d
20
2e
0e
ff
fc
12
15
04
fa
00
fa
01
07
f6
f2
f8
f5
f4
fc
0f
0e
13
1a
22
1b
28
1e
35
3e
16
0f
02
f5
f4
1d
10
f7
fe
01
fb
06
f3
e5
ed
e0
dd
db
fa
f5
f9
f0
12
13
0a
14
27
24
23
09
ff
f6
f5
18
13
fd
03
f5
09
fb
ef
e3
ea
f1
e2
da
de
db
e1
f0
e1
e1
de
e5
f2
02
26
fd
00
fc
ef
fe
ef
f6
04
fb
02
03
fd
fc
0d
15
fc
f0
dd
d0
cc
e0
da
d0
c4
cb
d7
00
1f
f6
01
fc
f3
07
f4
fc
0a
0c
12
1e
12
1f
26
20
0b
fa
e7
dd
df
d5
c9
c6
ca
cf
ea
e7
08
fb
00
00
ec
0a
f8
fa
0a
06
18
1f
20
24
34
28
15
ff
ec
e9
e1
c4
c0
d5
e5
fb
0d
ea
ec
04
01
16
05
ea
f9
12
05
0c
1a
1a
18
25
34
1c
11
fe
ec
e9
e8
de
de
e2
f6
17
1a
e9
e5
fa
fa
fb
1b
06
fa
f7
f4
fa
0d
04
00
12
1b
02
fc
f7
fb
f3
f7
fc
f5
01
02
19
29
e4
fe
f3
fe
fb
00
16
04
06
02
f6
e6
d5
e1
e6
eb
dd
f7
0b
0b
09
0a
0b
03
12
08
09
fc
cb
f7
06
ff
fe
06
17
fe
0b
17
ff
f2
d5
cc
bf
d8
d6
eb
03
16
12
11
1e
0d
10
0c
fc
f7
dc
f1
f6
fe
01
0c
10
0a
23
17
04
0e
ef
d4
cb
df
e5
e7
05
15
0b
17
17
1a
0f
07
07
ed
da
f2
fe
fd
00
fb
f6
0c
15
0d
0e
12
0e
0f
0a
07
00
ff
09
17
13
0a
0c
1c
0d
01
f4
cb
d6
f4
03
01
03
f6
f9
fa
f8
0a
02
09
02
0e
18
1a
1f
11
11
12
0c
09
0e
11
07
fc
f6
c9
e0
fc
03
fa
01
09
01
fa
e4
f7
0e
07
10
0b
19
1e
17
1c
25
1a
17
1c
13
04
04
02
ed
dc
df
02
03
00
04
f7
13
10
0b
08
15
1a
1a
23
1c
19
1e
30
24
1e
20
09
06
05
fa
f7
e5
ea
eb
ec
ff
02
fb
00
17
18
0d
27
21
1a
21
1a
25
25
18
1c
1d
11
0f
01
f3
e9
f9
fa
f5
0b
fd
fc
06
03
04
00
00
ff
08
1a
0d
16
1b
17
0c
1b
0b
ee
fe
06
fa
ed
ed
f6
ef
04
09
13
ff
01
00
05
05
fc
f4
fd
05
fb
ed
f3
f8
f1
f6
01
05
ef
f0
ef
de
eb
e2
07
fe
ff
fa
00
05
fb
fd
ff
fa
fa
00
f9
03
fb
0c
09
0d
04
13
0a
06
00
f3
dd
d5
d0
da
e1
ef
f5
fc
06
05
fd
05
fd
fb
06
02
04
02
fd
02
06
fb
04
03
06
fe
06
03
00
06
05
fd
f6
f9
0c
02
0c
14
fb
fa
02
04
ff
fa
05
02
05
09
06
0e
0f
03
fe
fe
fb
fd
f4
fc
f9
02
0c
03
ff
0f
09
0c
fb
fc
03
06
05
fb
09
10
0c
f8
0c
06
f7
02
f3
f6
02
f3
e2
db
e6
fa
0b
15
03
08
0f
04
02
fc
fe
fc
fd
06
05
01
fe
ff
02
fb
ff
eb
ea
d4
dc
dd
c7
c8
cf
f6
0a
17
15
0f
02
04
fa
05
02
00
ff
01
2c
fd
f8
00
f3
e9
ec
dc
de
de
e9
d8
d6
d0
d5
e8
f7
07
1e
12
23
1c
0d
04
fd
04
fb
fe
f8
06
09
09
03
0b
f6
f6
ee
f0
f4
e6
da
e0
df
f9
ec
fd
f7
0f
1e
23
02
fb
04
fa
18
fc
15
12
0f
09
29
15
0d
0e
07
ef
f5
f7
e6
fa
ed
ff
01
03
f8
0d
15
21
26
19
05
01
fe
0c
11
18
15
21
1b
17
0c
03
09
fa
f3
08
03
07
06
ff
f8
0d
01
10
06
1b
20
ff
fb
13
1b
1d
0f
13
24
23
1a
1a
07
1c
05
ee
ec
fe
02
0d
0a
fa
06
02
01
08
0b
1e
1a
08
02
10
22
11
18
0d
10
0d
10
13
05
fd
f4
dc
d6
eb
fb
05
f9
05
1a
1b
0d
16
fc
0b
23
12
01
0c
05
0a
11
03
fa
0a
11
10
ff
fe
e5
db
d4
e3
fc
f8
f9
0d
1d
14
10
f9
fc
02
fa
0f
06
0c
2e
1c
0c
10
0d
07
06
19
0b
fc
03
ef
ea
fa
fe
f5
f4
fd
0f
03
25
0a
f9
ea
03
09
02
0a
20
23
00
11
03
16
1d
11
0c
05
ff
03
0a
06
08
f9
ff
04
01
14
17
16
14
ee
e7
0a
06
0b
22
05
02
1b
0a
0f
08
0c
11
14
10
15
0b
09
0a
0c
17
0f
13
1d
0f
0e
fc
f0
ec
ed
04
0c
14
02
10
19
04
f4
0c
0a
1b
11
10
16
1a
15
16
1c
17
1d
03
1d
03
04
eb
e8
e3
06
04
14
1e
0a
ea
ed
f2
f1
05
0d
1b
0c
0a
13
1f
20
12
10
0d
0c
0f
10
0f
09
db
e9
f8
fc
fd
05
0f
f4
d9
d3
ed
f8
07
08
0d
ff
04
0e
06
0f
0f
0d
0b
15
08
fe
13
fe
f4
ed
e0
f0
fa
0a
ff
e4
cf
d5
e5
f9
f4
00
fe
f3
e7
f3
fa
fb
09
07
0c
0a
10
16
fa
f2
01
e8
da
fc
fc
00
05
e4
d2
dd
e5
ed
fb
f2
e8
ee
f2
fb
fe
f7
fe
03
04
05
17
12
fa
eb
e0
df
f6
fe
fd
07
09
e4
e7
f1
e8
e5
f3
f0
f3
f1
fb
f8
fb
fc
04
05
10
18
0c
1c
06
fb
f5
d2
e0
fb
fe
04
00
fe
f1
f1
f5
f3
f2
fb
f8
fb
ef
f8
00
0a
06
11
12
1a
16
12
0d
ff
eb
f6
eb
fa
03
0f
1b
fa
01
fb
ea
f9
f8
f3
fa
ef
fb
f7
fa
0c
07
1b
15
17
10
00
0d
f5
e6
e9
f8
02
01
ff
0c
f9
fd
06
ee
f6
ec
ea
f6
f9
0a
09
0f
10
10
18
11
22
07
0e
fc
ff
ef
e5
fb
04
06
f5
08
0d
02
fb
f1
e9
e6
01
09
1b
10
1c
21
19
24
1c
17
12
0e
f9
ed
00
e8
f8
f9
04
00
01
fe
14
04
f9
f9
f9
f6
05
1c
2a
1e
27
24
1a
22
07
08
19
0d
04
fd
fe
db
eb
fa
05
fe
fa
03
f1
f2
e5
ec
ee
fb
04
1c
1e
04
0f
13
18
02
0b
0f
0d
05
fa
fe
f9
e6
fb
fb
05
fc
04
fa
ff
f0
eb
f4
01
ef
f4
ef
f1
f0
fc
e9
f6
fc
0c
02
01
ff
f0
f5
00
01
fa
02
fc
fa
01
fd
f8
fe
02
ee
ea
f4
04
ff
f3
05
0a
02
05
0e
1f
1e
09
0c
f6
f9
ff
fb
00
fd
02
06
00
ff
fc
fc
fe
fe
fc
fa
f7
04
ff
ff
06
ef
f6
fe
fd
f5
f1
06
08
10
11
1f
1a
02
00
05
fb
00
f9
01
fa
ef
f3
fa
f1
fd
0a
f2
f9
ed
ef
f0
f4
f9
05
f5
ff
09
02
1c
17
00
fa
03
04
ff
00
fc
ec
e8
e7
e7
e6
ff
f6
fc
f3
f9
f8
f2
eb
ea
f7
fb
fc
fe
05
fb
13
01
03
ff
fb
fe
ff
f9
ea
db
e1
ef
f5
f4
fa
fa
00
05
fd
00
fc
ff
fd
02
f8
ef
f0
ea
1b
00
02
fd
01
03
04
e6
e0
ec
ea
e9
02
01
08
0c
fe
f4
04
08
13
02
09
04
03
0e
0f
10
1c
1f
00
00
00
ff
02
eb
ec
07
ee
f6
02
0e
fc
0a
05
03
04
0b
1f
1b
15
19
0c
13
12
11
16
0d
fd
06
fe
fa
f0
03
f9
06
07
01
03
04
f2
12
18
0a
0b
0f
17
16
1f
18
1d
0d
0b
13
19
14
f4
fb
0b
ee
ef
03
0a
01
0a
fb
fd
fc
08
06
11
1c
12
11
17
12
1c
14
0f
17
16
13
12
1e
08
01
fc
10
fc
fd
12
fd
f3
eb
f7
ee
ea
f5
ed
08
1a
16
15
0a
0d
0e
15
11
0c
1c
12
0f
09
fb
fa
0f
00
00
0c
f8
fc
e7
f3
fc
e4
ed
f3
f1
fc
13
07
0c
05
0c
0e
1e
1a
20
03
04
08
00
fd
0e
04
f8
0f
f7
f6
f3
ec
ec
ec
f1
e8
ee
e5
f3
0e
09
01
0c
0b
0d
10
23
14
09
01
fb
f4
f1
eb
fe
fd
f3
f2
e8
e9
ee
f5
ef
f8
cf
bd
d9
fb
0c
0c
04
0a
0f
15
0f
0a
f6
f0
03
f1
f9
f0
fe
fd
09
de
ed
f7
fd
f6
06
ed
e1
c9
d5
f1
03
12
13
10
0b
0a
ee
f6
f9
ee
05
f9
e5
f4
12
08
f5
ec
ef
ff
10
09
fb
e4
df
cf
d3
fc
fa
09
11
1e
0d
04
ef
f0
fb
fa
fd
f1
ec
0d
0d
f0
ed
fa
f9
fd
f4
f2
f3
e4
df
dc
cd
e5
0b
09
0d
16
1c
09
24
f3
ff
01
05
0d
00
05
0b
04
f8
fd
f8
fb
f4
fe
e9
e1
d4
cc
cb
e6
11
1a
16
10
0f
0c
23
e4
06
fe
03
04
15
f2
f3
f7
ea
ea
f5
e3
e9
ee
ef
e1
d2
cb
d6
fb
1d
17
17
15
14
0e
10
e9
fd
0e
fd
fe
fc
fe
08
f5
f9
eb
eb
db
e3
ea
e0
d0
bf
e0
ee
2a
2c
1a
0e
02
13
0a
f4
08
fe
00
03
06
00
1b
0e
f5
fd
fb
00
ef
ec
e3
dd
c9
e0
0b
22
3a
25
19
05
15
10
02
f8
08
00
04
fc
07
04
27
02
11
09
04
07
fe
ff
04
0f
0d
18
24
2e
32
21
18
24
13
0a
f2
03
03
f8
ef
fb
1d
01
1c
05
10
11
0e
19
13
12
14
18
16
18
22
34
23
24
23
16
13
15
19
12
0a
09
04
fa
0f
04
1c
16
17
0f
06
13
16
1b
13
12
1a
22
1f
26
1d
19
1f
10
17
10
15
0a
0b
0d
02
03
fc
10
1d
ff
08
0e
f7
17
12
10
0b
15
1d
0e
18
29
23
1d
22
0b
19
21
0a
fb
f0
ff
fb
fe
0a
05
1e
fb
f3
0e
f4
02
0c
21
17
1d
14
17
20
23
25
17
13
05
0f
0b
f8
0f
eb
01
03
fe
02
07
0d
13
fc
0b
06
fa
fe
fc
fb
0e
0f
00
0f
10
19
12
00
fb
f5
ec
eb
08
0c
fb
05
fd
00
f5
0c
0c
0a
f7
f0
02
ea
e6
f5
03
fd
df
f7
fa
0a
08
07
eb
ef
ee
f4
04
fd
fc
fa
ff
06
ee
ff
00
07
fd
e8
f4
f9
f2
fb
fb
f9
04
0b
0b
0c
07
16
00
ef
f1
f9
fe
fd
fc
02
02
fb
f8
f7
ff
fc
f9
08
f6
04
09
05
02
01
01
0d
0d
23
14
15
14
f1
f4
03
fd
fd
fe
fd
fb
fb
fe
08
0e
07
12
0a
fc
fe
fe
ff
0a
06
08
0a
21
14
10
07
06
0f
05
04
0b
08
06
03
02
fa
02
06
09
10
f6
f5
fc
f6
09
18
0d
0f
0c
09
17
1b
19
15
12
f7
02
04
0a
03
01
02
05
02
00
03
05
f9
fb
fb
09
07
ff
15
06
07
f7
0f
0a
0a
0c
14
fe
f7
ee
02
01
09
01
fd
fb
01
00
05
01
f1
02
fc
fa
06
04
09
02
06
05
02
08
0f
1a
05
10
07
ed
ea
ef
01
04
ff
fc
fe
01
0b
0c
00
f3
00
07
fd
f6
04
fb
f6
f7
06
0b
fc
fe
08
fe
06
09
0c
0b
0e
ee
05
03
fb
04
fb
fc
03
00
07
03
08
0c
0a
07
f8
ee
f4
fa
02
05
03
01
fa
11
09
0b
0d
07
fc
fc
ff
10
f9
13
08
03
01
0a
06
0e
13
f2
fa
f3
f5
02
0a
11
0d
0b
03
0f
09
08
fe
07
f4
ff
00
f3
fd
00
fd
fa
0b
02
08
13
0e
fc
fc
f6
f1
04
16
0b
1d
12
0a
07
fc
0b
1f
fb
fe
03
01
04
fe
f1
f2
fb
fd
02
15
0b
07
f6
f9
f0
fa
fb
0c
03
0f
0d
07
11
f8
19
1c
f4
05
ff
f7
0a
0f
f2
ea
fa
00
0e
14
0b
06
fe
01
e8
0a
ff
06
01
fd
09
0c
1c
06
1f
03
fa
04
f6
fb
03
f1
fa
fe
f6
0a
0b
0a
03
00
ef
da
e1
03
ff
02
f5
ff
04
06
0c
03
fa
14
0a
ff
04
ee
e4
f9
f1
fc
ff
0b
0f
0f
04
fd
e1
e1
f4
04
04
06
f8
00
04
00
f8
fd
f9
0d
18
fc
04
f3
f2
e9
ff
eb
11
06
15
0d
13
fb
fc
06
1e
1e
1b
09
fe
07
fc
fd
06
0a
ef
05
04
05
01
f5
df
dd
00
02
00
13
19
0a
1c
17
0c
1c
32
25
27
17
16
11
13
0b
0c
f5
eb
f4
07
fb
fd
f6
f7
f1
fa
01
f3
07
10
1a
17
23
23
2c
3a
26
2d
24
19
03
0b
05
1a
0e
f9
e9
e5
01
fe
13
06
ed
ea
df
d9
da
ed
06
1a
1d
24
2a
34
28
1e
19
0d
01
06
0c
18
21
e7
d8
fd
00
03
fd
11
df
d1
c6
aa
a1
ac
bc
d9
d5
f1
fe
0c
05
ff
fb
06
f7
f0
f5
09
00
ed
e0
e2
f4
fc
02
ec
e5
d3
c2
a2
9e
87
97
90
a5
ae
b6
d7
fa
eb
f6
02
e7
f4
f8
f4
fa
f7
e8
f1
fe
00
0a
f8
e7
d6
c5
d2
c4
b3
a5
b0
c6
be
c9
ec
fc
f1
f1
f6
f4
f5
00
fd
ea
e3
e2
f4
11
fd
0e
fc
0c
f2
fb
f4
ee
e2
e8
f5
fc
ee
f2
f0
f9
fc
fb
fa
fe
fc
01
f7
ef
fa
00
eb
01
fc
0e
f7
00
ff
02
06
f6
0a
10
18
1f
02
f9
fc
f7
fb
07
01
0c
ed
fc
01
01
0e
0b
ec
03
fa
05
f3
eb
13
1d
13
17
1e
15
1b
13
05
fb
f7
f9
f4
f5
f8
f8
fc
fe
e0
ee
ff
f6
f7
fc
fc
06
f6
f4
1e
29
1e
1b
1c
15
08
fb
fd
f8
fb
f8
f3
02
fc
00
f3
ea
e7
fd
02
e8
03
06
fd
0c
fa
1d
0e
11
11
15
0e
06
0d
fb
fd
00
00
ed
ea
e8
e8
f2
eb
f2
ed
fc
ff
e0
05
fb
fc
05
f4
1d
21
0e
15
13
0e
ff
0f
f2
ec
f5
f4
e8
df
e5
e5
df
fa
03
fe
0e
f0
ef
05
ff
05
05
02
ef
08
18
f6
fa
04
fb
f8
f2
f5
f7
e6
db
d8
da
e6
f4
02
07
00
16
0d
06
fc
06
05
fc
f9
01
fe
18
fb
f3
f0
ff
fe
f7
fc
f2
02
00
f1
f4
f4
03
16
f6
f7
05
03
04
fa
03
03
03
07
00
0b
fe
f7
f9
ee
f3
f0
04
fb
f4
fb
08
f6
0e
0e
0e
0a
eb
ec
06
00
04
02
fc
fc
ff
fe
06
0b
0f
06
06
f5
f0
f4
08
fc
09
13
10
13
0f
1b
14
f7
05
06
06
07
fc
fe
ff
fa
06
06
08
12
13
05
08
0a
08
04
08
13
0c
12
1f
20
26
11
09
10
04
11
ff
f6
02
fb
fe
fa
fa
05
0c
1b
0c
fd
11
11
fe
18
10
16
22
22
20
26
25
25
1e
10
09
01
f7
09
08
05
06
03
06
06
04
07
fb
0b
18
0f
16
1a
0c
18
30
23
24
29
1c
2a
22
1b
0b
f2
fa
04
07
fb
03
fc
05
11
0a
08
ff
07
02
11
00
0e
1b
20
23
27
2d
21
12
16
02
e7
f4
e7
eb
f2
fb
f7
06
00
fd
fe
01
f9
f8
f3
f7
06
00
fd
fd
0d
0c
18
1b
15
03
f9
dd
dc
dc
d6
db
eb
e2
fc
fb
02
06
02
fc
fd
f9
e8
f4
f4
ff
f5
02
03
ff
0b
18
11
0a
00
e5
d8
dc
d6
d0
d7
e8
ec
fc
ff
f7
03
02
fb
f0
f9
f8
f1
0e
0d
04
14
10
0b
16
06
ee
dc
d7
d4
de
d7
d2
d4
ea
ea
fb
ff
0a
05
02
04
02
fd
f7
01
05
08
fd
02
0e
12
fd
e4
d8
cd
d7
c9
e0
d9
d6
d3
d9
e7
f1
02
0b
0b
fb
1c
06
fd
08
01
fe
ff
06
0f
11
12
ee
db
d3
c9
d0
df
de
dc
ed
df
e3
08
14
03
0d
f8
f3
02
fd
fb
11
13
05
fe
12
09
03
f7
e4
e6
e9
f4
01
06
f8
13
fc
ee
f9
ff
f4
0a
0c
11
f9
0b
02
fe
15
16
02
11
12
0f
0b
fb
fb
18
1a
19
2e
21
22
1c
0e
eb
e0
f0
0f
0a
0d
0a
04
0e
01
07
0b
0f
f7
09
13
12
13
0d
14
17
18
1c
18
19
1e
14
13
00
e6
ef
04
05
02
17
14
14
10
04
0c
fd
fe
0b
0d
14
0c
0e
13
17
0c
03
12
18
19
0a
06
0a
d8
d9
f2
02
08
0d
0a
0b
0f
f6
fb
00
09
fe
f8
f5
f9
f8
06
01
ef
fc
05
13
15
0b
03
ec
db
f3
05
ff
fd
04
fa
f7
ee
ee
f5
f5
04
f8
fa
ff
f5
05
03
f9
f0
f3
00
0f
12
0e
f7
ed
ef
e8
01
06
fc
f6
ea
f4
f8
e8
e3
e4
eb
f1
02
fd
0d
0c
02
ff
f8
ef
fb
08
06
02
e8
e7
f9
e3
f3
fd
f8
f5
e7
f0
f1
e5
e5
e3
ee
f9
fd
f3
09
18
03
fe
f9
f7
f1
fa
f6
f0
dd
e5
f8
ee
fc
fd
fa
e9
e5
e4
f7
f2
02
e8
f3
e9
ed
e4
03
1c
0b
f7
fc
fe
f4
ea
de
cd
cc
d9
05
fb
f9
fe
f3
fa
e9
fb
f4
fe
fe
f8
ea
e7
f2
f7
07
1f
09
fe
f4
e6
fb
e3
d7
ce
e7
09
03
ec
ff
06
f7
f3
f6
07
00
05
f9
f0
e1
cd
e1
f5
0f
1b
11
fd
fa
f3
ec
d6
c7
d0
f1
00
03
f2
04
05
fa
ee
f5
05
10
17
01
06
e9
db
dc
0c
12
15
06
09
f1
e3
e0
dc
d7
e6
e7
09
07
00
02
04
fc
ec
fc
fb
06
0e
05
05
ef
e3
f1
0d
03
08
05
f2
f2
e7
db
de
d9
e4
f1
01
f8
02
00
ff
f9
f3
02
f6
ec
f0
f7
f8
fb
02
05
08
07
03
f8
e6
e5
e2
db
e3
f1
f4
f2
fb
ec
fd
fd
05
ff
fa
f7
f4
fa
ec
e3
f6
09
1f
28
1e
0e
00
04
e1
ec
d8
e7
f1
f0
fb
11
f8
f0
04
fe
fa
ff
01
fc
ee
e8
dc
e4
ee
0d
10
25
20
17
0d
07
f3
f3
fa
04
f6
fc
f8
09
0a
fa
fb
ff
05
05
02
02
f4
f4
de
ed
03
0d
1e
18
15
21
26
0c
09
09
03
07
00
05
fe
12
fb
fa
03
fa
04
00
04
fd
01
ff
f9
ed
f7
f8
0d
05
fd
f9
07
f8
fb
ed
ef
ee
ee
f0
f9
02
05
04
01
ff
ff
fd
05
f9
f7
ee
ee
f1
f1
ef
f8
fb
f9
ff
01
ed
eb
e8
e7
ed
e7
e5
01
f8
f9
01
02
04
01
fa
02
f6
e7
ed
e8
e3
f5
f2
f4
fb
fc
ef
fc
f9
f7
f0
ee
ec
e8
fa
f5
00
f8
f7
02
fb
fb
05
00
f7
fa
eb
da
e1
e5
f1
fe
00
f7
06
05
02
02
ec
e5
ea
e1
ef
f7
ea
fe
f0
fc
fc
04
fd
01
00
f1
f0
e8
e1
e7
f6
ff
f1
02
04
ff
f4
fc
ee
ed
e7
de
e5
03
01
12
f6
04
02
fb
01
0d
f6
fa
d9
d6
d5
e8
f3
ee
ef
ed
10
0d
fc
e9
eb
ea
f8
fa
fa
f1
04
e6
02
0e
fb
fc
ff
03
ed
e1
ce
d3
db
e7
f7
fd
ec
f0
fe
f6
ef
e6
e8
01
11
10
28
14
03
13
14
11
fd
01
fa
fc
ea
d3
c5
c3
e1
e3
e2
e3
fc
fd
04
f9
e4
de
e5
f3
04
0c
07
14
17
1f
25
0b
19
fc
08
f8
ec
e1
cf
d7
e5
ec
f9
07
0f
0d
14
05
f3
ea
f0
0c
10
0b
10
0f
15
0f
1f
0d
05
02
02
f4
fa
d4
d0
dd
eb
ed
03
07
0a
27
11
0c
f6
fd
06
10
13
0f
05
0a
0a
05
10
18
0b
fd
02
f3
ff
e2
de
e9
e7
ff
00
fa
13
0c
fe
f5
e2
ee
0e
11
10
02
ff
02
0e
26
31
fe
ed
05
0c
ff
f6
fa
e5
f7
f2
01
ff
fa
06
f6
fa
f3
d0
dc
01
0a
fc
f9
ff
fa
06
1b
07
08
0b
01
f7
ef
d7
ff
09
0c
0a
fd
f9
fb
f5
07
13
fa
e0
e7
ec
00
f8
e8
ef
fb
13
1b
23
23
09
00
f6
ea
ff
ff
05
11
0e
0c
0b
0a
10
20
27
12
f4
e8
03
fc
fa
ff
04
00
f8
18
1b
fb
0b
04
fd
fc
14
fa
ff
02
fd
fb
ff
fb
09
26
1f
12
f9
ee
fa
fd
ff
f0
ef
f9
f5
f6
08
ff
fa
00
fa
03
fc
05
04
f9
f5
f1
f1
01
1c
1b
15
0c
fd
f2
f5
ef
eb
e8
f6
f0
dd
09
04
04
05
fb
f5
01
f7
fd
f3
e5
f6
ee
f9
04
1c
1e
18
05
ee
e6
ea
f1
e3
ec
eb
e4
ef
0b
15
ee
fa
03
06
f7
05
f7
df
da
f4
f5
fd
0a
2b
22
12
ed
db
d3
df
e6
fc
df
ef
ee
ee
06
02
f6
f0
fe
f8
ef
f7
ee
e7
e1
ed
f1
03
1d
32
27
0f
e6
d0
e3
f0
f8
00
fb
f9
05
04
0d
ed
fc
01
fd
fe
f6
f8
e6
de
e0
ed
0a
16
17
1d
2b
0d
f3
eb
f1
ff
ff
05
03
f8
04
18
0c
ff
fd
f2
fe
ff
f0
db
de
d8
f8
03
06
0b
14
1e
29
14
00
04
05
06
00
ff
03
08
16
12
1d
09
ec
02
fb
f5
f6
d7
de
e8
00
12
11
0b
19
1a
22
11
07
02
03
01
16
11
18
1c
16
0b
fa
00
16
03
06
f2
eb
e7
f5
fc
16
11
1b
13
07
1b
1b
22
17
10
fd
0b
21
17
18
0d
1a
fa
f2
08
00
03
06
ff
ed
dd
f4
0c
0e
16
10
15
18
13
16
1b
19
0a
07
09
15
0f
07
0f
fa
ff
e6
fc
07
02
02
ff
02
f3
02
f8
fc
f8
04
25
1a
1b
1f
1c
19
14
11
12
10
10
fc
eb
fb
fd
df
0d
15
01
02
ff
08
e2
d9
c9
d9
d0
e8
0b
0d
19
18
17
1c
16
16
0a
0a
fd
e6
f7
f9
f1
01
fa
03
05
00
fe
fd
fc
d8
b9
d1
c0
ce
d1
ef
e9
f9
ee
ed
f2
f5
01
ed
ea
e4
de
fa
00
08
00
03
04
fb
fb
01
fb
e7
e8
df
d7
e3
db
e4
fa
f4
eb
de
e4
ea
d9
df
da
dc
f4
05
f8
05
03
fe
fd
02
fa
fa
03
01
06
00
03
fd
f9
ec
03
fb
02
f8
fc
f7
ee
e3
f1
ee
f8
fe
fa
fb
fb
fc
fe
05
04
fa
f5
fe
f9
f6
f7
f0
fc
07
12
10
0a
0d
13
1b
16
16
0e
0c
0d
0d
0c
0f
00
05
05
fc
fc
05
f3
f5
f7
f1
ed
f9
f7
f5
04
09
0e
17
1e
1b
25
11
12
02
fd
f0
04
0e
09
00
06
03
04
01
f2
f4
e0
e5
e5
ec
f4
05
0a
11
1a
21
1c
0a
19
24
21
09
01
fa
07
1b
0d
01
00
fc
fc
ff
fa
f2
e5
d5
d3
d8
f0
ee
f9
03
1e
26
16
21
16
2a
10
fd
0a
ef
e7
02
09
ff
06
03
ff
06
f8
f2
e0
de
e3
e9
e8
f3
0e
18
16
1b
1a
18
15
17
04
fc
12
01
f5
f5
04
f8
fb
06
fe
fc
04
e8
f6
f1
eb
03
fc
15
16
19
1b
1f
17
0c
13
1c
fb
fd
fe
fa
f7
ef
ed
f6
03
fc
01
09
e9
ee
05
eb
ff
f5
fa
12
1d
22
1a
1b
0a
08
10
0c
09
15
fd
fa
f3
ec
f7
0b
f9
fa
f9
ee
f7
f6
06
f4
f8
f8
08
2a
2e
2b
1f
13
01
f7
fc
f9
e9
f1
f4
ed
e9
f1
fe
0f
fe
fc
f9
f8
e8
f1
07
f8
e7
04
17
13
27
21
13
fd
e7
e2
e2
dd
dc
e0
f0
dd
d5
f1
ed
ed
f6
f2
f3
f9
e6
f8
fe
03
f0
fd
04
1b
22
1d
01
eb
dc
e7
db
d3
d6
d8
dc
d3
da
e5
ee
f2
04
fb
fc
fa
dd
ed
fc
f0
00
0d
15
1e
11
02
e1
d5
e2
e3
ee
ee
f7
ea
cf
d1
d3
ec
dc
f3
f6
fd
f4
f4
df
e8
e7
0b
1b
1e
1d
11
05
f7
da
e2
f9
09
0a
08
0f
00
f0
da
e3
e7
d0
e8
0e
05
f4
f1
e5
f3
ef
13
0a
0a
0e
08
f5
e7
df
f0
fe
05
11
16
11
fe
f1
f1
ff
f9
d2
ee
11
03
00
f0
ec
fa
04
02
08
02
02
01
f2
eb
e0
ef
ff
08
11
07
04
03
ff
00
f3
f3
e3
f2
f6
fe
fe
fb
01
fd
04
fb
09
08
07
fa
f5
de
d3
e5
f2
0d
0c
03
ff
07
f5
09
f0
fd
f4
f1
00
03
f2
f3
f9
f4
fc
08
0b
08
01
f5
f3
e2
dc
e6
0d
18
12
0c
f3
fd
f6
f5
f7
f3
0f
df
01
02
04
f5
f4
f4
0e
07
04
0a
f9
ed
fb
e4
cf
02
21
21
0e
0f
e9
f6
f6
e9
e7
ef
18
ee
f8
03
02
fe
fc
e6
07
07
08
12
01
fb
f0
d2
ce
10
34
29
17
ff
f2
ec
ef
fe
f4
07
02
f2
00
01
08
f2
00
06
fe
02
10
fe
fc
fa
de
cd
cc
18
34
1b
0a
fe
eb
f6
fa
f6
ef
ff
fe
f0
e9
02
09
17
0e
03
05
11
0e
05
ff
f6
f3
cd
d7
1c
31
29
03
05
0a
01
fe
fd
ee
ff
fb
f0
f7
06
04
14
09
11
13
00
f1
02
01
f1
ea
da
ea
18
2e
24
19
0a
0b
fc
0e
07
01
1a
0f
fd
fb
fd
04
0f
00
07
23
0b
06
11
09
f7
ea
e7
f3
12
15
17
12
0e
00
03
06
ef
02
2b
1d
07
ff
fd
06
0b
fe
07
01
02
05
0e
fe
f2
ee
e3
f7
01
08
0b
0f
0b
fd
05
0b
f4
03
22
19
01
fd
fa
f8
f0
05
0c
04
f6
01
fc
f5
f1
e4
ef
f2
0e
05
0b
0b
09
0d
10
17
08
fe
16
0d
fd
fd
fe
00
ed
01
fa
16
07
f7
ed
01
f1
ee
f5
fb
f7
0a
06
0a
0a
09
1d
f9
16
17
0a
07
06
fe
03
05
f9
06
f6
09
fe
02
e4
ed
ea
f4
03
f3
f2
f6
f8
eb
fe
fb
06
11
0b
14
fe
01
ff
03
01
04
19
11
09
07
ff
05
09
04
05
0f
14
12
0a
03
f7
ed
fb
f7
fe
fc
00
00
04
00
05
03
ff
04
09
0c
02
03
01
01
fe
fc
08
03
f6
fd
f8
04
05
fc
e3
0d
fe
fa
fe
fb
02
fe
03
01
fe
01
06
fb
e8
e8
f6
f1
03
0a
17
0d
08
04
fc
f2
f1
ee
f1
f4
ef
fb
0d
07
f5
ef
04
fd
ff
fc
02
f7
eb
e0
ee
f6
0d
05
10
06
0a
fa
f4
f9
f6
f9
f5
f7
02
16
15
20
18
f4
05
fa
02
fc
04
f8
ea
e2
dd
fa
fa
f5
02
0e
07
02
09
fc
07
ff
00
ff
fb
02
0a
06
0a
fc
03
fe
01
06
02
fa
f5
e6
e1
e0
f0
11
0b
04
00
0b
fe
04
01
08
fc
fe
ed
02
0d
0a
17
fc
ff
ff
fc
06
ff
fb
ee
e0
d3
f1
ee
02
05
00
ff
04
11
00
fe
0f
01
01
04
02
f5
02
fc
ef
02
04
fb
02
fe
f7
f1
cf
da
ea
ef
f8
07
07
06
07
fa
f3
fe
01
12
fd
13
13
0f
fa
0b
10
17
06
fb
ff
fc
ee
e5
e0
df
ef
f3
fb
09
0d
03
fc
f0
f3
f0
f2
f6
05
01
00
05
ff
1c
1c
0e
13
01
fb
0c
ea
d4
da
ea
f4
03
06
16
15
01
00
fa
f7
fe
f9
f5
f9
03
02
03
fa
0c
28
14
02
02
00
f6
fb
db
ed
ea
ef
fd
0d
15
13
01
fc
01
fa
fc
00
f4
fd
00
f9
06
13
0a
13
11
09
05
00
f6
fc
e6
e6
ec
f9
00
0d
15
0c
ff
f5
ed
f0
10
08
03
f8
f7
01
02
06
23
23
00
ec
03
04
ff
f6
fe
fb
f4
f0
f7
0d
10
10
11
ef
ed
f7
fc
04
f5
f7
f1
06
02
0b
33
1d
1d
04
ff
f5
f2
dd
fc
06
fc
fe
f6
02
fa
06
04
fc
f5
ef
f6
e8
f6
f8
f0
fb
f5
12
32
34
1b
07
04
fa
f3
f6
04
ec
f1
fa
fe
03
04
0e
0b
04
ef
fb
f8
eb
f0
ef
fb
ff
fc
f0
1f
2a
16
0b
fb
fb
ff
fe
e9
e9
ec
01
08
0c
00
06
16
05
fd
fd
fd
f3
ea
f1
f7
ff
03
04
01
24
27
20
06
00
ff
fa
ef
f1
fb
14
05
14
14
12
03
02
01
04
ff
fa
f2
e2
ff
fc
08
01
1e
28
21
fa
fd
ef
f1
fe
e8
f8
f8
0a
13
1b
20
10
07
f9
f6
06
fd
f3
fc
ec
f1
f3
ee
01
24
41
11
13
fb
fe
ee
0e
fa
f8
06
06
07
20
28
15
02
e8
ec
fb
ed
f6
f4
f7
f5
07
ff
fc
1c
40
21
20
fd
fc
fe
0a
fd
f8
06
00
02
17
21
1a
0c
f7
e5
ec
f3
ed
fe
f7
08
06
05
fe
13
27
26
fc
04
f8
ed
03
06
09
06
f9
0a
09
10
07
0b
05
fd
f3
ee
f9
fb
06
08
05
11
0e
22
2b
0d
19
03
fd
03
f6
0b
fa
03
06
05
08
0b
13
15
15
03
08
04
00
0d
11
15
0e
15
08
08
1a
14
13
04
f1
0b
f3
05
05
fe
10
0f
0d
0f
11
13
0e
08
0d
0c
09
17
16
0f
1e
19
0c
f8
f6
17
00
fd
f5
ff
07
04
0c
10
0e
17
1b
09
0e
0d
1a
0c
0d
04
13
15
13
17
17
1b
1a
f7
10
0e
fb
04
05
07
05
04
00
08
15
1c
19
16
0e
11
11
0d
0e
03
03
11
0d
0d
07
0d
fc
ea
01
fb
02
05
ff
06
f8
0f
06
00
fc
0f
1a
1d
1a
12
09
05
04
07
ff
f6
ff
ff
f8
06
04
ef
15
fb
03
06
fb
0e
f3
f8
f2
e6
e6
e5
02
f6
fd
07
f7
fc
f8
eb
e0
de
d8
d4
e6
f1
eb
00
0f
fc
04
01
04
fb
ff
f5
dc
f5
e9
da
c8
e6
e5
ec
f2
e2
e6
e6
e7
d4
cc
d1
e8
f3
fc
fd
06
03
fa
ff
00
fd
fc
ff
f4
fa
f9
f2
ea
ef
f2
ff
fc
ef
fa
f7
ef
ed
ea
ef
f0
02
f6
fc
06
03
fb
06
fe
06
04
ff
fd
0e
0d
08
0d
11
13
18
10
09
11
f9
f7
f9
fb
f5
fc
0a
06
fc
05
02
04
fc
fe
fa
0b
0f
12
06
10
09
0e
11
12
fb
f8
1f
22
20
18
20
16
fa
fe
06
fd
01
13
04
fc
05
fc
fe
06
0f
16
0f
12
1a
19
1a
f0
fb
fd
21
29
1d
1a
10
14
0f
0b
ff
f2
ee
15
fd
05
02
04
04
05
0a
10
11
2f
27
2a
14
0e
09
15
2f
29
1f
0e
fc
0f
0c
0c
16
f7
fb
0e
00
03
00
06
06
06
05
00
19
1a
09
16
06
05
fa
02
0d
12
14
fd
f5
fe
0e
0f
fa
fe
0f
eb
fe
03
02
01
11
08
f4
1f
24
12
0e
11
0f
fd
ff
0e
03
f5
fc
f4
ef
fb
02
f6
fb
f7
e3
ef
fe
04
03
01
03
01
19
10
13
1f
09
00
f6
f0
06
01
05
06
19
fc
f0
ee
df
ee
fc
03
06
e3
03
fc
05
fd
ee
f0
e9
fc
06
02
f8
fa
ec
f7
f8
05
0d
1b
10
05
fa
ef
e3
db
fe
ee
e6
e6
07
16
ff
15
13
ec
ed
f5
fc
0f
ef
ea
fa
06
09
11
1c
13
11
0f
05
f4
ec
e8
ee
ee
e3
f1
0d
fe
ff
05
eb
e4
fa
00
0e
fd
f5
ec
ff
09
0c
0f
17
1d
0f
10
f3
f4
f1
de
e7
e9
d5
d9
fd
04
01
02
ee
f7
0a
0d
f3
ee
f6
ef
fd
f9
fc
01
0a
1a
09
fd
e0
ee
e1
e0
cc
ee
ea
f7
01
19
fe
04
02
eb
f3
f7
f7
ea
e5
f1
f5
f4
ef
0e
14
14
03
ec
e7
e8
ec
da
cf
d5
e6
eb
02
f0
fc
07
ff
d4
f0
f4
ce
c5
d9
e0
df
e8
f3
14
21
1e
0c
dc
cb
dc
e3
ee
ef
fb
cf
d6
ef
0b
fc
fd
06
eb
ed
e2
cd
c9
d7
d8
d4
db
08
23
24
11
fd
e8
e3
df
f1
0d
1c
11
06
08
01
13
fe
05
06
eb
d0
d8
df
c7
c8
db
dc
f3
12
26
2f
0b
ff
de
eb
f9
fd
1d
1d
21
22
1c
12
1c
fe
05
fb
0b
ee
ee
f0
ef
ea
f8
ff
24
3c
2d
1d
fa
ef
f7
fd
0b
11
2b
20
2d
1d
16
23
02
ff
ff
01
18
f3
0b
08
ef
09
18
23
53
4e
39
16
f9
e5
f7
f9
0a
05
29
2b
2a
2e
1d
1d
0f
00
fa
0a
0a
09
10
0a
fc
00
25
36
48
3b
16
fc
df
e3
f4
08
09
0c
1b
1f
22
2a
2b
20
18
05
04
08
02
f5
eb
e5
e8
f5
18
35
2d
26
15
f4
e5
f7
fa
f6
06
06
19
2d
2f
24
52
28
06
fe
fd
f3
fa
f5
d3
ce
e7
f1
0c
20
16
16
09
f5
fc
fc
f7
ff
fb
0c
14
17
28
2b
49
27
18
fd
09
eb
fd
ee
c8
e9
f0
e8
14
13
1c
0a
fb
ef
fd
fb
ee
f2
ea
fe
0d
1b
fe
04
27
2b
0c
03
e2
ed
ee
ee
db
ec
f2
ec
fa
08
0e
05
f1
f8
05
fd
f2
f4
f7
fe
01
f2
f3
fb
eb
1d
00
00
f7
f5
05
f4
f0
e2
fa
ea
fa
01
00
fd
f3
f0
f6
f8
ef
e1
f6
fa
f9
f4
f0
e7
e8
12
05
04
02
f8
fd
f4
14
f6
f1
f5
00
0c
fd
fe
fa
fd
06
fc
e7
e9
f6
f7
f7
e1
d9
d1
db
0f
04
fe
02
18
f2
fc
fd
f3
ee
f3
fa
08
09
03
02
00
0e
05
f1
f9
f7
e8
df
f2
de
df
ec
12
01
fa
02
1d
e6
ed
e9
eb
e4
d8
04
fc
07
fa
fc
fd
f8
07
ea
e5
e1
d5
d4
df
cb
fc
09
01
02
00
02
ff
03
f7
ee
d5
ec
ee
ed
02
f9
f5
dd
d1
c4
c8
c5
bb
bd
e3
ce
d9
0b
f8
fd
06
fc
ff
00
10
0d
f6
fd
f7
01
04
fc
0a
21
f7
e8
d0
ec
c9
ce
c8
db
d3
df
f2
00
03
06
06
fe
03
fd
0b
0c
13
06
05
f6
f1
f6
f2
fd
f2
f7
f4
01
ff
f9
e9
f9
f5
fe
04
fe
01
01
03
01
04
04
00
04
fe
fa
ea
ee
f3
f8
fc
f3
f2
e9
ec
f4
f1
f1
f0
f6
f4
fa
fc
ff
00
0d
fa
fc
01
02
fd
fd
f0
f4
f4
ee
ed
f0
ef
ef
e4
e3
f2
f5
e6
f7
f5
e9
ef
ed
ec
fb
04
08
04
02
04
00
fd
f9
f6
f1
ed
e5
eb
fa
ee
fa
ea
f5
f4
ee
ee
f6
fe
0b
10
01
fd
0d
15
0f
fc
01
fd
04
02
02
fa
fe
04
ee
eb
fd
ee
ea
f0
de
e1
ee
02
fe
08
08
00
13
10
12
0d
fc
fc
02
fc
fa
ed
01
03
f9
fe
07
fc
03
ef
f4
ea
f0
ec
e9
fd
07
07
0c
09
16
21
2b
27
18
05
02
fd
fc
fd
ed
f4
f9
f9
0a
08
07
ff
fd
ee
e7
f9
f7
ff
0a
0b
12
0a
19
12
2b
3b
1e
0b
05
04
06
e8
db
e4
0c
fb
0b
1a
00
fe
fb
f0
f4
ef
f9
f5
03
fa
0a
0c
01
18
34
2b
25
1a
1f
fa
f1
e9
c7
e7
f8
fb
0c
0d
06
03
ff
f7
f8
f3
02
fa
05
0a
11
09
12
13
25
14
35
19
00
04
f6
04
e8
ed
f4
01
0b
04
07
f8
f4
fc
f4
ea
f7
f8
04
0d
ff
fa
03
ff
0f
26
28
1c
0b
ff
f5
06
e3
e1
e8
04
ff
0c
fd
fa
fb
ea
f6
e1
e8
f7
02
06
03
fc
0a
f6
07
15
18
07
ec
00
f6
ff
e5
e8
e7
e6
f8
08
00
f8
f4
f1
f1
df
e0
f1
07
01
f6
f0
e8
f4
ec
03
e7
e6
00
f9
f4
e3
e0
d9
f3
0a
00
0a
07
fd
fb
06
ff
fa
f1
0f
00
ff
eb
e7
ee
e9
01
03
f7
fe
0e
01
f6
f0
e3
ec
f6
16
21
0d
06
04
04
11
0f
03
fd
0a
17
09
00
ee
03
03
19
10
e6
d6
12
00
fa
e5
e5
f3
04
0f
18
13
06
00
08
16
0d
08
09
0f
0b
0e
01
10
08
11
05
e9
f0
f3
eb
05
f7
fd
e6
fe
06
07
04
06
11
0a
16
19
1a
11
04
12
1d
08
04
fe
05
04
e2
f2
f0
f0
ff
fb
f4
f1
f4
e5
e2
f4
0c
12
15
18
1e
20
1f
0f
05
0a
12
09
06
f2
f1
ef
f3
d5
04
f0
fc
ff
fd
f8
e6
d8
f0
f6
08
10
0d
1c
25
1e
0a
0a
fe
03
ff
05
fe
f6
f5
e9
ee
f0
04
e3
ec
03
00
06
df
d4
e4
ee
04
0f
14
21
17
1c
0f
ff
f0
03
01
05
08
02
fc
f0
f0
0b
fd
e1
fa
02
08
02
e7
da
ed
f4
00
04
07
03
0b
0d
09
01
f8
00
00
ff
f8
06
f8
eb
ef
eb
e8
eb
f6
04
08
00
ef
e6
f8
fa
01
f0
fd
07
0b
08
02
03
04
0d
06
12
03
0b
0f
02
07
06
e4
ee
f5
fc
f4
0b
fa
f0
f2
fa
03
ed
f7
00
fc
f2
fb
fe
06
0d
0e
12
00
19
16
15
05
f1
f8
f9
fa
04
0a
0b
0d
fb
0a
fa
fa
02
01
fc
f8
ff
01
01
0e
09
13
08
08
0c
13
1a
08
f3
e6
f7
00
06
fe
07
06
08
10
01
01
02
fb
19
0b
0a
12
0d
08
03
0b
0a
15
0d
24
01
0e
08
f4
02
fc
fd
f8
05
f7
fd
f8
fb
06
17
16
06
11
0c
0c
0b
0f
1f
13
1b
20
21
19
fc
12
f2
08
f4
fa
fe
00
fd
e4
e8
e9
fc
fd
17
24
19
16
11
0a
0a
06
15
0a
1f
1f
08
fb
07
05
e1
ed
fe
05
04
02
06
0b
ea
d0
eb
ea
ee
f6
03
fc
f3
ff
00
f7
fe
03
f5
fb
fc
f3
f1
03
e3
00
06
03
ff
03
15
f7
f6
e8
e3
eb
e0
e8
e7
f2
07
ea
f3
fa
f4
f9
04
fb
f8
ea
e4
ff
01
fc
fa
fe
00
fc
08
03
e4
fb
f6
eb
f5
ff
e6
08
01
09
01
0e
1b
1d
1b
1d
14
e9
f0
00
ff
01
01
03
00
00
00
08
0e
09
fc
f7
01
f2
f7
f3
fb
fe
07
0f
10
06
18
11
17
03
02
fd
15
0d
ff
00
03
fd
02
06
13
0d
06
fb
f5
f4
f8
f5
f5
ff
0a
16
14
17
1d
1c
1f
10
07
0f
ff
0e
00
ff
05
00
01
06
01
1b
06
e6
f3
ec
dd
f2
e5
f0
f7
08
0a
14
05
19
18
1b
08
16
09
17
fc
ff
02
fa
f8
0e
1d
21
ea
db
d7
e4
f1
ea
ea
e6
e8
f7
03
17
1a
14
18
0a
07
0b
f1
0a
03
ff
00
02
0d
fa
fd
0c
e9
ed
ef
fa
06
fd
ef
fa
f7
01
0e
05
20
0e
15
02
fc
ec
f8
f6
fe
02
06
04
01
16
f7
00
e5
0d
fe
fd
f6
05
0a
ea
ea
e3
07
00
13
17
1f
14
10
04
ed
fc
ed
06
00
05
e8
15
f4
11
16
0c
06
15
04
fc
02
f7
e1
e9
ea
f3
00
18
1c
0e
ff
e8
e1
e4
e8
eb
01
16
0b
25
16
1c
16
15
ff
07
0e
05
0b
01
df
da
e6
ff
0b
26
19
0b
fa
e2
d5
e1
e4
02
03
07
17
37
1c
0c
23
12
0c
0f
12
0f
1c
0a
e5
dc
eb
03
1e
18
0c
f6
df
e9
c3
cc
e9
03
07
0c
14
0d
fe
0b
fe
fe
0b
f9
05
11
17
02
cf
cd
f0
14
1c
1a
0b
f5
ef
dc
bb
e4
06
04
fc
04
12
09
f1
f5
f0
ef
ee
e8
e5
f8
f3
e7
e0
e1
01
22
19
17
f0
e1
de
c4
b8
e4
fe
02
fb
fd
12
04
ee
e7
dc
e3
e4
db
dc
dd
e7
f6
0d
0f
13
1b
0b
fd
ca
b9
d7
dd
f0
f6
1e
02
fd
01
0f
f7
d3
c9
cb
db
e7
dd
eb
ee
0a
0d
0a
0b
20
16
01
e9
d5
dd
ea
f5
15
15
21
ff
00
09
fe
f6
e9
da
d9
cc
e2
f5
fb
10
1d
14
08
06
0e
ff
f2
de
e9
f3
fe
00
1c
26
33
11
00
04
fb
f2
09
ef
e1
f2
fd
03
20
22
19
0f
18
09
ff
00
ef
01
09
11
09
0a
07
17
10
fa
05
f8
fe
10
0c
03
01
05
07
0e
16
16
04
16
28
0e
f6
f8
05
03
0c
23
18
0e
fa
0a
20
09
ff
fd
17
0a
03
10
16
1e
19
28
2e
ff
fc
0f
19
0d
06
fb
03
0a
03
13
17
1b
1d
13
20
0f
05
0a
25
0c
12
15
17
32
2d
2a
15
fb
e8
f6
0d
0a
0e
09
09
04
10
0f
0a
1a
0c
11
17
05
02
0b
1d
12
06
26
0b
1d
15
11
ff
e9
d8
f1
0f
07
15
12
03
10
11
16
14
10
1e
ff
00
12
04
10
0f
22
0c
1e
1c
21
0d
0f
00
d8
d1
fb
14
10
0d
14
06
08
fd
0a
1a
0d
05
1b
17
06
06
f6
0e
32
1e
1f
1d
19
09
ff
e7
dc
d9
04
0a
11
05
05
f1
03
0f
18
0b
0c
06
f1
0a
04
fb
0d
30
2f
1b
19
0a
09
01
fb
e8
e2
e9
fc
01
01
f9
01
05
0b
0c
05
13
0b
f2
e3
0b
05
03
00
20
16
1d
17
07
0b
00
f9
f1
e8
ec
fb
07
03
fa
fb
09
1e
10
10
fb
ec
ed
ef
01
fe
fa
fe
12
10
09
0b
14
00
0b
01
e9
ed
ee
06
03
05
04
fc
06
08
0d
07
ea
f4
d6
f5
f8
00
fb
05
13
fc
08
fb
0d
12
15
fa
f7
fa
f8
ee
fe
ee
ff
e5
fb
fd
e5
e1
e9
ed
ee
10
fc
03
02
03
ff
fb
06
fc
ef
ed
15
f6
03
f1
e3
d4
e3
e5
e0
ed
d2
cd
bc
c4
d2
e9
ea
fa
01
ff
fc
ff
fb
fd
01
ed
eb
fc
e2
f8
ec
ed
d8
c3
c5
d3
da
d8
d4
de
d8
e3
eb
fa
ff
fc
fe
05
00
fe
00
fe
fe
07
08
03
05
03
f1
ea
fa
0b
fe
0c
21
2b
1b
0b
0b
12
fc
ff
fe
04
ff
fe
01
00
fb
05
ec
ea
de
e1
f6
f1
f5
ff
06
0b
0f
19
13
09
0a
0d
09
01
f1
e9
fc
11
00
02
01
03
03
06
f3
e5
ec
e8
e4
e6
f4
f5
fa
0c
16
20
1c
14
10
01
f3
e8
e6
e5
ea
06
03
ff
00
fb
03
0a
f1
f7
e5
d7
e8
fa
f2
f9
fe
11
0b
10
05
11
04
07
01
fd
e4
04
fa
0c
03
ff
fe
ff
f9
03
08
09
fc
d8
df
d5
e9
f5
fa
09
0d
0a
14
fb
fa
ed
e9
ef
fb
06
f1
0d
03
fb
01
05
10
f3
f2
0a
07
e9
ed
f1
f7
fd
09
17
11
17
15
06
04
ff
0b
ee
02
f2
10
13
10
fe
01
05
04
01
02
21
fa
0d
ff
f9
f9
09
0f
18
0d
11
08
02
fd
0d
00
01
03
03
fa
0c
ef
fe
fe
fc
fb
fe
ef
fc
fc
ff
05
fe
fe
07
0d
1d
1c
0d
0c
00
fb
03
0f
04
02
0a
f9
f8
fd
f8
00
fe
f6
ec
0f
ea
08
f9
ff
01
12
0d
17
21
10
15
0f
fd
fb
06
06
08
02
0b
f3
f4
fd
fe
01
f6
01
f2
07
f0
fd
02
0c
0b
07
fe
04
16
10
06
f7
f6
fe
f8
f6
02
fc
fe
07
f5
10
fc
f3
f5
f4
fe
ed
f1
fd
f6
fb
09
05
ff
02
0b
f8
01
00
01
01
04
fa
fc
07
06
f8
fc
06
e5
fc
f1
f4
fe
f3
fe
fd
f6
02
02
01
ec
f1
ec
f2
fc
fa
01
07
11
f4
ff
fe
fa
ea
e8
e7
07
fb
f0
da
05
ea
f9
f2
ed
fb
00
f6
f0
e6
f0
03
ff
fe
06
08
06
10
01
09
f2
fc
f3
05
fc
00
f3
e8
ee
f9
01
ee
f3
fd
fd
f7
f2
fa
19
21
15
0a
0f
0c
14
0a
07
0d
0b
ff
00
01
fa
06
f3
e1
f8
fc
ec
e6
ee
00
f6
ea
f3
02
27
2a
19
1e
1a
0c
06
18
ff
ff
02
fb
11
24
05
03
f2
f0
fc
fb
ef
ec
eb
f4
f5
f0
f4
02
26
1a
1a
1e
14
11
fe
fd
f4
f0
ea
e7
09
0b
05
03
0a
e9
00
03
f0
fc
f0
fc
f4
00
02
04
28
20
17
11
11
03
f6
f0
eb
fb
ea
d4
f9
1e
0e
04
fa
0a
f6
fd
f4
ff
fc
fb
fd
08
ff
02
18
1c
04
14
fa
fd
d8
e4
e1
f4
f1
ed
08
1d
10
00
03
0a
07
f9
ff
f7
09
0b
09
0d
03
03
08
10
03
00
fe
ee
ee
ef
f5
ef
f1
ee
ff
1a
fa
fe
fb
06
0b
00
07
00
fd
fe
0b
08
02
00
0e
03
06
fd
f9
02
fb
01
00
06
03
04
04
00
11
00
07
fd
05
f9
0b
0d
fd
f9
fb
fa
f2
f0
0b
0e
01
0d
0e
0b
12
00
0b
0e
12
f0
0d
12
09
fe
f3
fb
13
13
07
0d
0c
fc
fc
fa
f0
ee
06
01
07
0e
10
0e
0f
1f
17
15
04
00
09
17
fc
01
0c
12
0b
0c
11
0e
0b
05
ff
fc
f4
f8
f9
f7
04
01
10
14
17
1e
22
16
0c
21
0b
fc
05
03
06
02
08
14
16
0a
12
0b
0e
07
05
fa
04
08
09
0b
0b
1a
1b
1d
1d
0e
14
1b
12
05
04
fb
01
0e
06
f4
f9
fc
00
1e
13
fe
0d
10
18
02
0b
18
13
17
22
25
25
32
27
06
00
13
00
fe
02
05
ef
f2
f8
f4
f4
0a
ff
10
0d
04
00
08
06
1b
0a
26
13
2c
23
2c
26
07
0a
02
03
fc
01
fc
00
f1
0b
06
04
f3
fc
04
f2
f9
fd
06
05
08
09
0a
13
26
15
fb
fb
fd
06
04
fe
fe
04
04
ff
0e
1c
25
0d
0b
03
05
f7
02
f8
01
fe
fe
09
14
0a
1b
19
06
08
01
fe
02
05
fc
06
02
05
fb
04
01
11
0b
fc
e7
f5
f7
ef
fe
0c
0d
12
0c
1c
17
0e
12
fa
04
01
05
04
fc
01
00
ff
f6
fe
fe
00
fe
06
09
0e
07
0a
05
f4
f7
f8
fc
f8
f4
f3
04
04
f8
fb
05
03
01
05
fe
ff
f0
f4
f3
08
07
09
08
05
0b
05
08
00
fc
04
f8
f3
f6
00
f9
08
08
09
06
06
fd
05
00
fa
fa
e6
f4
07
0a
f6
0b
05
06
17
0d
0d
0f
0c
08
ff
fb
01
01
fd
ff
0a
fd
ff
02
fc
01
ff
f4
df
e3
ff
00
12
07
01
1e
2d
20
19
10
04
0b
0d
f8
f6
ed
f2
fe
09
04
fe
ff
01
04
03
f8
e5
e6
fe
04
ff
fa
0e
0a
0f
0f
0f
fc
f7
f2
fa
ef
01
f3
fe
f2
06
04
fd
ff
03
01
f8
df
f9
03
fa
0f
03
09
05
fb
08
0a
08
ea
f8
06
08
04
02
05
f5
fe
11
15
fc
03
03
f9
e9
08
10
02
1a
09
01
04
03
0f
07
08
09
0b
ff
07
0a
14
01
02
fb
0c
1c
1c
ef
02
00
e5
de
ed
0f
07
11
07
11
11
1c
1b
0c
0f
14
0f
0d
10
12
09
f1
f3
ee
03
02
12
06
06
0a
fb
dd
d9
06
0b
f8
05
18
1a
21
26
22
0b
ff
fe
fc
e6
ef
ed
ed
da
cf
df
fb
07
03
03
fe
fd
d8
ef
fc
0d
08
18
19
19
2c
2d
10
e6
c5
c1
b6
ba
b1
bb
bc
b3
bb
d9
f5
06
fa
03
fc
00
f8
ef
f7
0a
1b
1f
25
20
34
1c
e1
b8
ae
ac
b8
b6
a8
ba
b0
b8
c4
d8
e2
07
01
02
fb
fa
eb
03
08
1d
15
27
1f
1b
09
f2
d7
cf
e4
e3
e3
e3
d6
ca
d5
c5
d3
cc
d5
ef
11
02
f5
f9
f7
00
04
18
13
0e
0f
10
0d
f6
e9
e5
ff
08
05
06
ec
ef
e9
e0
f0
e9
d6
e5
0d
05
08
fe
07
05
09
16
1c
0f
17
16
11
fd
e5
ff
10
14
02
f3
f9
ef
f9
f4
f1
e8
e9
ec
f6
fc
04
07
04
f6
f9
02
12
1e
18
19
fb
e7
e6
01
14
11
ed
f2
f3
09
0a
00
03
11
fa
ef
02
fd
02
ff
f1
f2
fd
f9
0f
21
1e
16
e3
db
ea
fb
0e
ff
e6
ed
ee
04
0c
f9
0b
0c
00
d5
05
fb
fb
00
f6
e6
ee
e7
04
0a
1d
12
fc
e8
e0
ef
09
f6
e1
d3
fa
06
11
08
0d
19
f8
d5
e7
fd
f9
ee
f6
e4
f3
f3
fc
0e
11
22
11
f3
e3
e3
e7
e6
e1
f2
03
0a
10
1a
0d
1f
fa
e6
01
01
ff
f5
eb
f3
eb
f9
05
0f
0e
0b
ff
ef
de
d7
de
e6
f0
fc
13
03
0b
20
14
01
fb
eb
e5
03
fb
00
f8
00
f3
f4
fd
09
12
0f
10
03
eb
e4
f0
06
fb
08
0e
11
14
12
0e
1b
f3
e0
f5
fd
f8
f9
fc
05
fd
ff
ef
f4
0e
05
08
09
f1
f5
fb
0f
02
08
19
14
14
18
22
0b
0d
f1
03
05
fe
f8
07
0e
0f
0c
ff
00
fc
05
08
0b
05
02
07
01
01
10
14
1e
10
19
03
04
0d
f9
00
03
fc
00
f2
0a
0a
05
00
06
06
0b
00
05
07
0e
02
0b
06
10
17
1c
09
14
07
fb
fe
fc
fc
06
08
f6
09
fc
06
f8
f5
f9
fd
10
01
02
0c
11
07
0a
13
0a
19
14
04
fc
03
04
01
fa
05
03
04
03
0c
03
fb
02
f2
0c
10
15
13
10
14
0c
16
09
24
11
0b
02
fc
f1
08
0c
f4
fa
02
fa
fd
02
07
03
f4
e9
f7
0a
16
01
06
2c
1c
0e
1e
1c
21
1a
12
f3
00
07
31
1b
05
ff
04
ff
fb
02
07
fb
f5
f3
01
19
18
1b
1c
1e
19
1b
1f
1f
08
0b
04
fe
ee
02
f7
00
fb
00
03
05
05
03
06
ff
f7
f5
fd
fe
0e
16
1d
15
0d
15
04
e4
e2
e9
e2
ec
ee
f2
fe
fc
02
05
05
fa
00
fd
07
15
19
1c
17
1d
16
06
f4
fd
f8
fc
fa
08
08
0e
0f
0f
09
0a
0a
03
0a
05
fc
04
fb
04
0d
12
24
15
0f
10
fc
04
02
fb
f3
fe
f1
f8
08
08
13
10
06
0d
08
0e
12
fd
06
fb
05
04
03
18
22
25
0b
0e
0d
fc
07
00
fe
f6
f1
e9
ee
04
0d
1d
0f
07
14
12
09
02
01
00
03
fb
04
07
16
15
19
0d
13
09
0c
00
e7
ec
f2
e4
f2
0c
0a
1b
25
15
11
f6
11
fa
05
fc
02
f1
0b
1d
0b
14
13
07
05
02
0b
fc
fb
f4
f5
f9
f3
fc
14
13
28
22
20
39
26
21
01
fe
01
06
05
ee
fa
f2
0f
09
14
ff
0b
07
f8
f6
f3
f3
f2
f4
0a
0b
10
fb
12
18
2b
05
06
04
fd
1f
f9
05
fd
03
02
16
08
08
1a
05
f7
fe
ff
f5
0d
fa
11
15
ff
0f
1f
20
29
22
fa
03
ef
f2
ff
eb
f4
01
06
00
14
10
07
fe
ee
f5
0a
0c
10
18
1b
13
11
10
28
1a
33
24
01
06
08
11
01
f6
f6
11
17
0c
13
0a
10
04
f8
f8
00
03
06
1a
1b
15
11
16
1f
3b
41
29
0a
0d
00
17
fe
f6
f6
05
06
11
10
ff
0b
fb
ec
f2
01
00
0f
0f
15
1b
1a
1e
1c
26
42
3f
1b
04
06
02
f2
02
f7
f6
00
10
08
04
f7
fd
f9
f8
ee
fe
09
12
12
1b
13
14
10
1b
33
0f
12
09
07
0f
08
ff
02
07
01
06
0e
0c
04
05
06
0e
00
0c
02
fd
f5
fb
02
0e
0c
13
0f
24
fe
04
09
13
0c
08
0a
07
0e
0b
0a
06
0d
0b
21
11
1b
15
0a
02
f8
fe
03
fc
ff
f8
fa
f1
09
ff
03
05
07
19
10
ff
0b
03
0e
0b
04
05
13
14
18
15
0b
03
01
0b
08
06
ee
e5
ed
eb
e8
00
02
07
01
20
fe
f3
f4
04
0b
14
04
07
17
21
07
0b
15
0c
07
f3
f7
f2
e9
d7
e6
e9
fc
fd
0b
09
06
ee
e0
e6
f5
fa
05
0d
05
0d
19
20
16
0e
09
0f
01
fb
01
fc
f9
d3
dc
f4
f4
fb
fe
fe
e7
dd
e6
f2
e9
00
f3
ff
fd
0e
15
1b
14
07
05
08
fb
ec
dc
ef
ee
dc
e0
e2
ee
fe
06
f8
e5
d2
e0
ef
f6
f2
00
fe
f9
f6
fd
12
fe
03
06
fe
ff
f8
f6
e4
e6
f4
e3
e3
00
05
01
00
e1
cf
e3
ea
f0
f4
f7
fb
fe
f7
06
09
01
fa
f0
05
f0
fc
f0
da
cf
d2
d8
f4
fd
04
03
01
d5
d9
e6
e7
ee
eb
f0
f0
f6
f9
f2
0b
fe
f9
fd
01
fe
f1
ee
e8
ec
f1
e7
ee
fc
fd
f8
0a
e5
d6
f0
e7
e8
ea
f1
f0
f1
ed
fc
f8
0c
fd
08
ef
e8
f1
f6
f7
f0
f3
ff
e7
06
05
03
0e
eb
ed
f7
fb
ef
f4
f4
f5
f2
f1
ee
fc
00
fb
f9
eb
e5
ef
f3
ff
f5
f2
eb
f8
fc
fa
06
01
f0
fa
04
f1
f7
f4
f5
fb
00
f9
06
08
03
ff
ff
f6
f8
f3
f6
f7
00
01
f2
00
05
01
00
09
03
02
f8
f2
f2
fa
01
fc
f6
05
06
03
0b
05
fe
f9
00
00
fc
fd
0a
fb
f9
ec
03
01
fb
f9
06
fd
f9
f7
fe
0e
08
0b
14
0a
07
05
0b
09
f9
fb
10
0a
05
05
20
f4
f2
fa
05
00
ff
fb
fb
01
fb
fa
fb
f4
07
06
0d
fb
f8
01
0c
00
00
09
18
0f
0e
f9
1b
06
fe
ff
fc
fb
06
06
02
f5
0a
f8
f4
f8
f2
f4
f9
f4
fc
fd
f9
f6
0a
fa
05
0c
03
fa
12
fe
fd
fc
04
fd
fe
02
fb
01
06
f9
f5
f0
f7
f1
fc
02
04
fb
04
03
13
13
0b
0c
f9
fd
fd
05
00
03
fa
fd
04
fe
08
20
19
24
22
26
20
17
0f
04
06
f5
f5
fd
f9
02
02
05
03
10
0d
fa
ee
03
06
05
fb
00
0a
20
2b
28
32
2b
28
1e
0c
0a
fc
f1
f4
00
fc
fa
08
15
1f
28
13
03
f4
fa
00
01
06
06
0f
18
2e
3d
3d
2e
16
1d
14
09
f4
05
fb
10
11
14
07
05
10
21
0d
f7
f3
fd
ff
01
04
04
0a
0c
1f
25
2b
26
29
27
14
06
0a
03
04
00
0d
0a
1e
1d
20
21
03
0b
04
03
04
fa
00
f0
04
09
19
12
0b
1f
24
29
13
12
03
08
07
08
12
18
11
1d
14
0a
19
10
0c
04
fd
01
fc
02
03
1a
0e
0f
00
13
17
1c
0e
0e
0e
fb
01
0d
09
15
07
14
16
13
08
19
0b
0a
fa
ff
ff
f0
09
02
0b
07
10
11
2a
27
1f
22
0b
05
04
13
0b
17
11
0b
0e
0a
f2
11
07
0d
03
fe
18
13
17
03
0d
07
10
1c
23
14
1d
1c
1d
1b
13
1e
1e
15
16
1f
09
03
eb
04
0a
09
ff
03
07
fb
fc
07
05
f8
0b
10
15
1c
24
0b
12
27
20
0e
13
07
fe
00
e5
f6
ee
dd
e9
f3
ef
fd
02
ff
f8
03
f8
ea
f8
08
0a
05
f9
f1
f6
17
02
ed
ed
df
d6
de
d6
da
cd
bd
cf
0d
14
00
fa
01
f2
e1
f2
e3
ea
f4
e4
e0
d1
c8
ca
dc
e1
e8
d8
d2
ca
c6
d3
d3
c6
d1
ee
0c
fb
02
00
fd
f7
cb
d4
c9
bf
c2
bf
c4
c5
a7
c8
c9
d6
e1
e1
cc
d5
df
d2
de
e1
be
d6
da
0b
fa
01
fb
ef
b3
ad
a1
81
9d
a1
bb
b5
c1
e0
ec
ef
f6
ef
f2
ee
f2
e3
e3
e9
e1
e2
07
03
fe
00
fc
de
b5
a4
a8
af
b1
bb
d0
dc
05
1b
1f
0e
10
01
03
05
e8
f9
fb
0d
08
0b
09
14
fc
fe
03
dd
cd
bd
e9
fb
ee
fc
01
0f
29
18
1f
10
11
11
1d
16
18
09
0c
0c
10
1d
1f
05
01
f5
f3
ed
f2
f4
11
09
0b
01
12
16
1e
1a
07
12
14
12
17
15
0c
06
01
11
31
1e
12
09
fd
fe
f2
0d
fe
17
21
1a
19
1d
0d
15
1b
22
16
0b
12
0e
0a
0b
12
13
01
05
1f
20
16
1a
ff
02
08
05
11
21
2c
1b
23
11
10
0d
0f
0f
0c
0c
03
f8
0a
07
04
01
09
fd
14
1f
1d
00
02
fb
f6
08
0f
1f
0e
0f
1b
05
0c
f7
0f
03
07
fe
09
01
0e
07
03
f7
0d
01
1b
2f
14
10
03
fb
ff
07
18
0e
0d
09
0c
0b
05
07
09
02
11
12
01
02
f7
fd
0c
03
0a
05
0d
1c
15
05
05
f3
02
02
0c
10
11
03
04
08
fa
11
09
0f
1a
0e
08
f9
fd
00
03
04
ea
fa
05
18
00
06
01
01
07
10
05
08
ff
0a
0a
fd
0c
04
0e
15
12
06
06
ff
f0
00
03
03
fe
07
06
2a
09
03
06
03
0b
0b
13
f1
f5
03
f9
f6
f8
04
07
05
fc
f7
f8
f3
ec
f6
02
fe
06
f9
00
1e
fb
06
06
07
00
f7
16
12
fc
05
f3
f6
ef
f7
f2
f5
ef
f5
e4
e6
f1
e0
f5
fa
02
ff
04
17
12
fe
fd
fe
0b
0f
16
0f
0a
07
fe
0d
f5
02
05
04
fc
08
f1
00
e7
e5
06
02
fc
d6
11
10
05
fc
05
03
fe
07
16
04
fd
10
1b
1b
16
15
16
05
fe
20
0b
fb
f4
ef
fc
06
0a
e0
ec
fa
06
02
06
ff
0a
08
fd
ec
f2
12
13
0a
07
14
fe
10
11
f4
f0
f8
fe
f1
f2
f6
10
f8
05
ff
06
fc
fa
03
00
02
0a
fb
0f
0e
05
ff
09
0a
0b
04
04
02
fa
ee
09
fb
12
12
f5
fc
ff
00
04
05
01
fc
04
fb
f0
f1
f3
f9
ff
05
17
1a
1f
22
10
0a
08
0d
fc
f0
05
03
f9
f4
ff
f8
06
01
00
fa
02
f8
f1
e2
f3
fd
0c
14
0f
24
20
26
18
09
09
10
fb
f4
fc
fb
fd
f2
01
ee
fb
fb
02
03
ff
f9
ea
ea
eb
00
0b
17
22
24
34
23
20
13
16
1a
1b
03
09
fe
fa
fb
01
f4
06
06
00
ff
fc
f9
f0
eb
f2
f5
07
10
16
34
2e
31
25
2c
1d
1b
0d
07
f8
f5
f7
01
14
f2
03
fb
00
02
f1
f5
f6
e1
e6
f5
eb
05
17
0c
0e
05
16
19
17
1e
12
0b
f7
ed
f3
f6
00
ee
f5
01
fd
ff
02
ff
fb
e2
eb
e2
f0
f5
fa
01
fc
0b
02
0e
10
1a
11
09
05
ee
e6
e5
f6
01
1c
ff
fe
03
eb
f0
f5
ed
e4
fb
eb
ed
f9
01
06
12
17
12
13
14
1b
10
03
f1
f2
df
f0
0c
f6
04
fb
ef
03
e5
ef
f3
f0
e3
f7
fe
08
11
0f
16
0d
15
1a
14
10
02
fd
fa
05
e8
06
09
f7
fa
f9
f9
f7
e6
ec
01
e9
e8
f7
ff
01
03
fa
07
01
19
1b
0a
fc
05
00
fe
ec
f3
0b
f1
f3
fb
fe
ef
eb
ec
e9
f6
f9
fa
fd
0e
09
01
fd
fc
fb
06
12
09
06
ff
00
ea
e7
01
1b
fd
dc
ec
f7
f6
f3
e5
f4
ff
12
0a
06
0d
08
fb
f2
dd
ec
05
09
ff
f6
ed
f2
e2
eb
12
24
f4
f1
f4
ff
ea
d7
e7
ef
02
0f
0f
1b
06
ff
fc
e2
db
eb
05
19
09
fd
f5
02
fc
e4
f9
15
0a
e8
0f
fd
ed
ee
e9
05
0c
1d
10
fd
fc
03
f6
e6
eb
fd
06
05
06
f4
09
02
f8
fa
07
0a
fe
eb
11
ff
fd
e5
f7
02
10
17
13
14
02
0b
04
03
0a
0d
0e
11
ff
02
02
f9
ff
02
0b
fc
01
f4
18
ff
f7
f3
f4
02
0a
0f
1c
05
08
06
0f
07
02
ff
0b
02
01
07
fd
09
f5
09
f4
0b
0f
25
ff
ff
ef
ee
f9
09
15
0f
19
09
14
13
0d
01
f4
f0
ff
11
06
0b
04
fb
f7
f1
f4
07
2c
07
0d
fd
fc
f6
ff
09
15
11
08
10
16
19
1d
06
f9
fd
04
0e
14
11
0a
02
06
02
ff
f8
29
1b
01
03
f4
fe
08
fa
08
11
00
14
15
29
15
0a
05
02
19
0d
18
13
0d
01
ff
fe
f7
f4
13
15
fc
00
fc
ee
01
09
0b
15
1c
1b
1a
1e
09
03
02
07
0e
13
13
10
0f
02
e8
f7
05
09
33
0d
f9
fa
fa
01
f6
03
0d
09
12
13
11
22
0f
12
17
1b
10
0d
01
0e
07
0f
02
06
07
ef
00
0b
00
03
00
04
f9
05
12
fa
05
0c
10
12
0d
13
17
13
0b
0c
04
0e
05
09
02
10
03
fe
07
09
05
05
f2
fc
fd
08
fc
fd
03
fd
0e
10
18
19
10
18
0a
09
00
04
fd
fd
0b
09
1c
08
13
0d
06
fd
fc
08
0b
f4
e1
f8
fc
02
09
0b
10
10
18
09
00
01
00
f9
f2
04
04
17
1c
06
ff
f3
00
fe
f4
f6
0f
f2
f9
f5
f6
05
f9
02
08
08
02
01
f9
f8
f9
ff
fd
0a
19
21
19
20
07
ee
ff
fe
fb
06
f9
f6
f6
fa
03
f9
00
05
fb
00
fc
fe
0b
00
04
07
f7
18
02
19
2a
26
0f
ff
01
fe
fa
ff
04
fd
0f
06
10
05
05
0b
09
02
06
07
0a
0f
0b
05
ff
0c
0b
02
14
19
03
02
05
fb
fe
fe
f6
14
24
1f
14
0c
0b
15
09
16
05
17
00
0f
fe
08
f4
0a
0b
fa
fe
04
03
06
fa
fd
04
fb
03
fc
02
0b
1a
15
0d
fc
19
09
f1
04
05
ee
d8
f6
01
03
01
03
ff
01
ff
01
04
fb
01
03
01
fd
03
fe
f8
fa
fc
f3
f9
f5
f3
f5
f4
ec
f0
ee
f5
f4
f8
f9
fe
fd
ef
fa
00
01
ff
00
02
01
00
06
02
00
f2
ec
eb
eb
e3
db
d5
df
e5
e0
e7
e4
f0
fd
05
0b
03
00
05
06
04
fc
05
f9
fc
f2
00
f5
f0
02
05
ef
e5
ed
ee
f0
e5
e5
ee
ef
fa
06
07
0d
fe
03
fe
03
04
fc
fe
f9
02
fa
eb
f8
ff
f6
fa
f3
fa
fc
00
f4
00
fc
0c
05
03
fd
f5
05
12
02
fc
01
02
f1
00
13
0a
f7
10
04
01
fe
05
fb
f7
f1
ed
e0
e3
f3
f6
ed
fe
f9
1a
15
f9
f1
ff
03
01
04
01
15
09
11
fc
fc
06
02
f4
f9
f4
04
00
fa
ff
f6
f1
fc
00
07
12
15
f4
0e
04
fc
fe
fa
fe
14
2f
f7
ed
fb
02
f4
f7
04
f6
f5
00
04
f7
f0
ef
e4
fb
f7
06
16
06
16
10
00
15
12
ef
09
01
ef
f6
f5
f5
03
f7
f2
f6
f4
ee
ee
f9
e8
f1
ef
fa
04
eb
06
14
0c
ff
fa
f6
ff
e2
eb
fe
ec
e0
e5
eb
ef
ee
e6
e8
ea
e8
f8
ff
01
fd
06
0a
ff
f8
03
1b
ec
06
f5
f3
f0
e1
f3
f1
e9
ef
e6
ea
eb
e7
e6
eb
e2
f0
fe
00
05
0b
13
21
f7
f9
11
07
04
ec
f2
f7
ed
eb
e8
f8
f2
f6
e3
ea
f7
f3
02
f7
f9
10
17
13
ff
08
12
0c
0a
09
23
23
19
f4
00
ed
d5
e1
da
01
0d
f5
01
0e
02
19
1f
23
1d
18
1b
0b
01
0f
04
0b
07
06
07
12
e2
06
fc
f7
d8
cf
da
e7
09
07
09
0a
1a
0f
20
23
19
10
17
02
01
0a
05
07
fc
fc
04
01
e0
0a
06
f5
dd
d4
d5
00
11
11
0c
05
0f
1e
15
11
07
03
17
11
fb
ff
0a
03
12
12
fa
f8
fd
07
ff
f4
f8
fc
f7
13
10
0d
ff
11
0d
11
0f
fc
05
08
1a
18
0b
fd
04
06
1b
18
27
fe
01
fe
ff
fb
ff
1c
01
13
00
ff
f9
0c
0a
0f
0c
ff
f9
0c
1d
1c
0b
13
f5
fe
0b
10
19
12
01
12
06
fa
04
02
f9
0e
01
0c
f8
11
08
16
14
02
08
15
1a
1a
15
15
0f
1e
11
16
17
07
08
0a
fd
08
15
f5
f8
0c
11
03
0d
0d
0d
1c
18
23
22
14
21
10
15
f9
09
fc
0f
0c
f6
f8
0e
01
02
0d
13
08
01
0a
1c
11
11
18
1c
16
1e
1c
20
13
1d
0f
fe
00
f9
f8
fc
05
03
05
0b
02
05
02
0c
19
05
17
1d
15
08
18
19
12
0c
12
13
20
1d
09
1e
05
07
04
05
fc
fc
f9
11
f9
02
08
17
2a
0f
03
fc
0f
06
07
00
05
07
fe
16
08
0d
12
14
11
fc
08
ff
07
ee
f6
1c
fe
06
03
21
3c
0c
f1
e5
f9
e8
f3
f4
ec
ea
e8
e9
e8
f1
fb
fd
06
03
06
fe
fc
de
fb
07
02
ff
fa
18
20
11
e7
d3
d8
d1
e6
df
dc
dd
dd
db
de
e4
ee
e7
f6
f1
02
ea
e9
f1
03
08
fc
00
03
04
ff
f1
de
d9
d3
d6
de
ea
e7
db
d8
da
e7
d1
cc
d1
d6
dc
e9
de
04
f0
2c
11
fe
04
fb
01
e2
e1
c1
c2
d4
d9
f2
e3
da
d3
da
df
da
d2
d9
d4
da
d7
e2
f7
ec
f2
15
fc
fc
06
01
03
f9
f3
c4
d3
be
c0
bd
d1
c7
cb
d4
df
dc
db
dc
d1
b6
d3
e5
fd
fd
ee
05
01
03
04
01
fb
fd
f0
d5
cd
ce
c2
c2
c0
c5
e3
d0
c9
e3
dc
d0
cd
d7
ea
d6
eb
e3
ff
05
fe
ff
fc
06
fa
03
0a
06
03
ec
e2
f9
e3
fc
ff
fd
e9
fb
05
0e
07
08
08
e7
eb
04
00
fd
fa
fa
fd
06
01
fa
f1
fa
0c
06
11
14
13
10
0a
09
07
ff
fb
f6
f5
ea
f7
ea
11
16
f7
ea
fe
01
03
03
fe
fc
f5
f3
05
0a
11
18
19
0c
16
fa
f2
eb
ec
fd
e8
fa
0e
07
0d
29
1b
00
fd
00
fc
03
01
fa
fa
e7
f7
09
18
06
12
12
06
eb
f0
e6
fb
fb
ff
fb
13
16
14
0d
1b
fe
fb
fa
01
02
00
fb
ed
e7
e4
00
0b
23
25
0d
0b
ef
fa
11
0c
25
1d
25
20
22
14
0b
18
10
fc
05
04
fe
f3
ee
f7
e1
cc
08
01
03
12
07
08
fa
0a
10
1b
18
27
22
0f
18
10
0f
29
19
f7
fe
01
03
05
f2
fd
df
e8
e6
e5
fa
06
ff
00
06
0a
14
20
1d
1d
28
1f
0e
12
07
0c
20
1a
01
03
05
fb
04
00
ea
e8
f6
ed
ff
fa
f7
0b
f9
06
0c
02
ff
f2
fb
f3
ea
f5
09
31
26
29
0c
fb
0e
0c
07
0d
f9
eb
e3
08
f4
f3
fe
f4
f8
fe
f9
f9
e6
e1
e4
dd
e1
ec
de
13
27
25
ff
00
fe
01
f6
01
04
e9
e3
ea
f4
fb
ff
f4
fb
01
f0
ed
eb
e4
e7
e3
eb
eb
ef
01
21
06
0a
fa
f3
f0
de
07
fa
d3
e2
e5
f8
f9
ef
f0
f3
f4
e5
e0
e5
ed
eb
f2
f1
00
00
0d
29
17
f4
f7
fa
e6
f9
f5
ee
e1
d9
e1
07
09
0a
07
0f
0a
fe
f4
f9
ed
ef
f3
06
fd
04
28
3b
33
f6
ff
ef
ea
f3
ef
fe
ee
e6
e9
05
03
0c
19
10
0a
01
03
05
f5
ff
e4
ec
f5
fb
0a
27
0d
0b
fc
fb
e7
de
e1
ec
f2
f0
ed
f4
0a
01
06
10
03
07
01
00
ee
e3
ee
ee
e0
de
ec
fe
fa
09
01
ff
e6
dd
ec
f8
fb
fa
fe
07
10
0c
01
13
0e
05
fd
00
ff
eb
02
f6
fe
fa
ff
ee
11
11
fe
f3
fb
04
f7
08
00
09
03
11
19
02
fa
fa
15
05
12
12
19
02
1d
15
0e
09
09
0d
06
ff
06
f1
08
11
0a
13
0f
09
06
05
03
eb
ec
ea
f5
02
1d
27
15
25
14
12
16
15
16
23
12
13
ff
03
07
0d
0f
17
12
19
0b
17
09
f6
f4
e7
f8
12
10
2b
2d
2e
25
23
17
10
1a
2c
0b
0c
01
05
18
10
12
25
1b
1b
17
14
0d
f6
f3
01
fd
0e
19
1b
23
1c
1f
13
07
fb
f9
07
0f
04
fa
05
13
22
1c
2b
31
1e
17
11
10
fe
05
13
12
0b
11
0f
05
14
0f
04
02
f8
08
04
00
f9
fa
0b
28
2f
2d
36
27
28
21
15
21
07
07
17
1a
17
00
04
06
fc
0a
fe
fc
f4
e7
ea
07
02
00
f2
28
41
25
2b
10
22
21
20
1b
11
09
12
14
11
02
f9
fc
08
03
02
fa
f3
d9
ed
05
06
00
0b
30
27
15
17
0b
15
1d
19
13
11
11
05
02
f9
f5
f8
f7
01
00
fc
05
0a
da
f5
0a
fc
fb
fe
26
1f
19
f5
f4
fb
00
0d
08
05
00
fc
e5
f1
ea
e1
e7
f2
ed
ec
ec
ee
e7
f0
f2
fd
02
0b
05
14
0c
fa
ec
e6
f7
f7
00
fc
e6
d8
d2
d1
d0
cc
d6
d9
e4
e0
e5
fe
e9
1f
e8
fd
04
ff
0b
19
fa
fd
f3
f7
f1
fa
e4
e9
e8
e0
e2
da
d4
d8
d5
d9
da
e5
e9
eb
fa
11
02
01
06
05
fd
f7
01
f3
07
f6
f2
f6
f7
f3
f0
e7
e3
ec
f1
ea
dc
dc
e8
ed
ff
02
fe
fe
03
fc
03
00
02
ff
f9
fb
f7
f2
eb
f8
f3
f6
fd
ec
f0
e8
fc
ed
ff
f2
ff
fb
02
f0
fd
fd
02
fd
04
fb
00
01
01
06
08
ff
fa
0c
08
0f
12
1b
0e
15
1f
25
28
16
0f
fa
04
fc
fc
ff
01
00
fe
05
04
fa
f4
f8
f4
f6
f4
f5
f2
ec
f2
ef
f2
ec
ea
f4
f3
f4
fe
fc
03
03
f7
f1
06
fb
01
04
02
fa
f3
f0
f4
ea
f3
ed
ed
f7
e9
f0
f7
f7
f0
f9
05
01
02
fe
fb
0c
0c
08
03
02
02
fd
fe
04
f3
e5
d9
e7
e2
e4
e6
f3
ed
f7
fb
fc
f4
03
14
08
05
11
11
17
13
04
fb
05
06
04
02
03
f9
ee
e6
e0
dc
f1
e7
e3
eb
ed
f6
00
07
0e
1d
22
1a
26
26
10
21
ff
fb
01
03
00
01
fa
f7
ea
e4
d5
d9
d2
d5
db
d9
ee
f2
00
fc
01
14
18
0c
1c
18
34
1e
ff
ed
02
fb
01
fb
ee
f3
ea
d8
cf
c7
c3
e6
e0
f8
01
0c
00
fb
0e
1a
10
10
05
05
1d
1d
fc
15
00
05
02
00
ea
ed
e5
d4
c8
b9
b7
dc
ef
14
16
1a
11
fd
05
07
06
03
fd
08
12
26
1c
21
12
06
e8
ec
ec
e9
e0
d4
c2
ba
d0
ef
11
21
2b
1e
05
fa
0b
0d
fb
f4
03
0c
0e
11
21
27
00
03
fd
e9
eb
e8
df
d2
ba
bc
d1
ef
16
23
27
23
12
07
10
0c
fe
03
06
0b
03
14
31
0f
04
ff
ff
f8
e9
df
dc
d9
c7
c3
df
f6
0c
18
13
1b
07
ff
f7
fd
e6
ea
fe
f1
fe
1e
22
fb
ee
01
03
f0
e6
e0
d8
d8
cb
c1
e1
ee
07
15
18
0f
0d
e4
e6
e6
de
e1
da
e0
f1
08
1e
0d
ff
ff
fc
ee
e4
e4
eb
f2
df
dd
e3
fe
0c
1c
1e
05
f3
dd
d9
e0
e0
bc
ca
c6
e7
ef
00
10
ff
06
f4
ec
e4
ea
ed
00
f1
f3
f6
01
12
25
1c
06
f7
df
e5
f1
e0
d5
be
c5
ce
c7
e2
e0
0a
02
fd
f2
e5
e8
fc
04
03
00
fe
00
12
1b
05
04
f7
e6
fd
01
ff
f9
da
d5
d5
c5
db
ec
f0
fc
f4
f7
fc
02
0c
fd
fc
fe
fc
0e
15
08
03
fd
f9
f8
02
10
12
04
f3
eb
e1
e3
df
ef
fb
fc
f7
06
02
f4
02
05
01
06
ff
fb
0e
09
00
06
f9
f6
02
1b
15
08
07
f4
f7
de
e5
de
fc
ff
fe
fa
fa
fe
0c
01
00
fb
fe
f0
ff
fc
fd
00
fa
fa
02
14
17
07
0a
f5
f0
e4
df
d8
f3
04
02
fb
f9
f9
15
0a
04
04
f7
f7
f1
03
19
0d
00
03
05
18
03
01
05
f7
ea
e2
db
f4
ff
02
06
fc
08
18
11
18
0d
f9
ec
ed
f9
11
17
1a
07
0c
07
08
fe
01
fe
e9
e7
d7
db
f5
fa
fa
08
0c
f7
17
11
13
0a
f1
f5
f6
fd
0b
0b
03
12
05
fd
12
05
01
e9
df
e3
ee
e8
ea
fb
fd
f0
09
fc
f5
00
fd
f2
f7
f1
fc
06
00
ff
01
08
f9
f8
08
00
f8
ee
ed
f6
e7
f1
0f
fd
00
00
01
f4
fb
f4
ec
e8
f2
09
03
05
09
06
04
02
f6
ff
04
01
fc
e5
f9
f5
ed
e7
06
02
fd
06
08
fe
f5
fc
e2
e4
f5
fd
09
12
08
09
0d
0a
fe
fe
09
08
e8
f2
f0
f2
f7
f7
05
06
ff
03
00
f6
06
ff
fd
e9
fb
14
1b
18
09
ff
0b
09
04
04
0c
02
ff
f3
e7
f1
f9
0a
12
fb
fe
fd
03
f1
ff
eb
f8
ea
fa
0b
0a
04
07
fe
ff
fe
eb
fe
04
07
e8
e9
06
00
fb
08
ff
03
fb
fc
fd
01
fe
e8
f7
e8
eb
f4
f9
f3
f3
e7
e5
d9
d8
df
e1
e4
ec
f0
fb
08
fa
fe
06
fa
03
fa
03
02
ed
f8
ed
ed
db
f7
ec
f6
f1
f5
e4
04
ff
ee
ec
fa
e2
fb
f7
ff
01
05
fd
05
ff
00
fb
06
02
03
00
f3
f9
07
fa
0a
fe
09
04
0a
0b
09
03
0a
00
f4
fd
00
fd
03
05
01
fd
04
fa
00
e8
e3
ec
e9
0a
0c
0a
18
12
0a
11
06
f8
fb
fc
05
f5
ef
fa
f0
f9
fc
fc
04
fd
04
fa
f9
e2
e4
fc
0a
01
1c
17
08
1e
15
10
0c
02
fb
f1
f1
fa
fc
03
08
f7
f8
06
ff
fb
fb
01
f0
f2
e6
f0
0b
0f
17
1f
16
20
05
10
08
0b
07
0e
fa
fe
07
02
fd
05
f2
04
fc
03
04
fd
f1
fb
fa
00
0b
0f
14
1c
1b
1e
1a
0f
14
0f
0b
02
fa
f4
fd
0e
07
12
f3
04
06
04
fd
ec
f6
fa
fb
05
fe
00
0d
1e
0c
18
06
0c
04
0e
19
08
0c
04
f2
e5
e5
e3
f8
02
05
05
fb
ff
04
0d
fa
06
05
ff
fd
fe
07
00
05
08
fb
14
17
10
02
fb
05
ef
de
e8
09
0f
fb
03
04
ea
f8
f1
f5
f8
05
ff
07
00
f6
f2
f4
f8
fc
ff
06
08
ff
f0
f2
ea
e2
f4
06
03
1e
00
01
0b
e8
09
fd
02
f7
15
fd
fe
f6
f2
f6
f9
00
03
f2
01
f6
ee
f2
f7
e7
f5
fd
07
01
fe
fd
f4
03
05
f8
06
0e
0c
f6
fd
f3
f2
fd
02
f9
fc
ee
ec
fa
f7
ee
ef
f6
ed
e4
04
11
01
f4
e3
03
07
05
01
02
08
f4
f5
ea
ed
ef
02
fd
fd
ef
ed
fb
fc
fa
f7
02
fe
0f
ed
ec
f9
f8
f3
f6
09
02
0e
f8
01
05
fe
f9
f7
ea
eb
ea
e1
e9
fa
08
05
fd
04
10
0d
da
fe
04
f7
fc
f3
fb
12
1a
05
fb
fd
03
f8
ee
e9
e2
db
ce
df
e6
03
05
0b
05
0c
13
1c
0f
fe
0e
f5
fb
fd
f4
13
12
f3
ff
f4
f8
fc
fc
f4
ea
e2
e9
f2
f7
fd
04
0b
09
18
1f
3c
1f
00
09
06
fd
fd
fa
ee
00
02
0a
04
ff
00
fa
01
0d
05
0b
04
f8
f5
fd
f6
04
0f
2a
27
1a
00
0c
01
05
fe
f3
df
09
19
0f
02
ff
0c
0e
0e
1d
27
2e
19
ff
ed
e5
f6
01
0a
08
fc
1c
25
fb
06
f4
ef
fc
fa
ff
11
04
f8
01
04
fd
11
21
2a
17
0b
f4
eb
f8
f8
04
f8
f3
16
2f
0e
fe
fd
01
f6
0d
fd
03
0b
06
fc
03
fd
03
09
02
0f
03
03
00
f3
f8
fa
03
07
07
0b
29
14
0f
05
f6
08
0b
03
02
00
06
fb
06
09
fe
fe
f6
e6
f2
03
fc
03
09
02
ff
04
04
07
1a
1e
03
fb
00
ec
fd
02
fc
f0
ff
fc
04
02
01
fd
f3
f3
f2
04
11
1b
0b
04
fd
0d
1b
21
37
0f
15
fe
f4
f2
ed
03
fa
fc
fa
fe
01
06
fb
00
ff
f8
09
09
17
13
0e
07
0d
14
13
01
0b
15
0b
fb
f7
f8
e7
07
ff
fb
05
06
09
12
09
12
12
10
20
19
19
11
11
10
0c
00
f8
f2
ea
05
ff
01
f7
f3
00
ff
fc
0f
0c
19
12
17
1c
17
23
20
14
13
21
0e
18
15
06
05
0d
f9
05
07
00
fd
00
f9
fd
03
03
0c
13
10
16
16
11
19
16
14
19
10
07
12
ff
05
04
fe
fe
f5
fc
fb
04
fc
fb
ff
f0
04
07
08
fe
16
15
06
0d
0f
15
0a
03
07
01
19
ff
fd
06
12
0d
f9
03
e8
fe
fb
04
00
ee
f3
fe
00
01
fe
0b
11
19
1b
15
0f
15
14
fc
18
03
03
07
04
ee
0d
0c
00
01
04
03
01
01
f9
fe
16
10
0c
0c
19
0e
12
18
17
14
0e
16
07
f7
03
02
0b
ec
fd
fc
04
ff
ff
02
04
fa
11
04
24
1e
16
0e
17
10
1f
12
17
05
05
ff
16
01
fd
09
0b
02
fa
fb
fe
fc
fd
06
ff
fb
f9
04
0b
15
1d
0f
0d
16
0c
ff
05
00
fd
e5
f9
fa
01
18
0e
fe
fa
fb
fe
06
fb
06
fb
0b
0b
14
fd
fd
f9
f7
fa
02
fd
03
0a
14
10
10
13
13
13
14
05
07
0d
01
fd
01
02
fb
01
07
0c
17
05
04
fe
f5
ef
f7
fc
02
21
31
1c
25
25
14
10
10
08
02
ff
02
06
05
fc
fe
02
08
0c
10
14
03
ee
fa
fb
f3
eb
03
2b
29
30
22
27
13
02
fe
0a
fb
04
00
fe
fa
05
02
01
05
fd
11
12
1c
fe
01
fa
fc
fd
07
1c
1f
43
2d
22
05
01
f5
ec
f8
01
fd
fb
05
03
05
12
0f
0e
15
1b
11
01
ed
e7
fe
f7
20
1c
34
39
31
1e
0c
fb
f2
df
e4
d5
fe
f5
01
05
fd
fe
09
0b
ff
0e
0b
05
eb
e8
f5
05
14
39
43
2f
1c
06
04
f8
e2
e0
ea
f2
e0
fd
00
01
05
fd
f6
fc
0d
0b
fb
03
ee
f4
07
1c
1b
1e
2d
10
07
ef
de
da
db
f0
ff
e7
da
f1
fd
fc
fe
f9
07
f6
f5
fd
00
f6
02
08
13
12
1e
1d
23
03
fb
e8
e2
c6
e7
f9
fc
f4
e4
f5
05
08
06
04
0d
fe
08
0c
0b
fd
08
05
04
17
1f
35
20
01
f1
e5
dc
da
f0
fa
19
ef
f9
eb
fc
08
07
12
04
0b
f6
06
13
04
fb
09
11
13
28
34
13
f6
ed
dc
e3
ea
05
0c
0f
f4
de
ee
fe
06
07
1b
fe
0c
fa
09
09
04
09
11
11
17
28
19
03
ef
f7
f4
f5
f9
02
15
08
04
e4
da
f9
fd
0a
19
15
08
01
03
00
fd
05
0e
10
0b
0b
02
ee
f6
ef
f2
fc
fa
02
01
09
12
e6
d4
14
fb
09
1e
2d
0a
09
0f
16
08
24
13
01
fe
e9
f2
ee
ed
ed
f7
e7
f7
f5
0a
18
22
f2
dc
0c
05
06
13
10
0a
18
25
1e
1b
1f
01
f7
f6
dc
ed
f0
de
ed
f6
f1
f2
f0
0a
1e
0b
04
f8
f1
fa
0b
0e
01
00
1c
29
2c
3a
25
02
f9
f7
f0
f3
e6
ee
eb
f6
f2
f1
f1
fc
0a
25
0d
fb
ff
fa
01
0c
14
04
16
20
3b
29
0b
f5
fe
04
ff
f5
ee
e6
01
f3
e9
ec
f7
09
1d
07
05
dd
00
05
ff
06
0d
21
29
31
26
08
f1
d9
f2
fb
04
f1
f9
f3
f2
eb
e9
e4
f3
fb
06
f9
f5
e4
ef
01
06
09
13
1e
2b
1b
0d
f6
e0
d6
f8
ff
0e
07
f0
fe
f9
f8
f6
ed
f5
06
0f
18
ef
e8
02
fb
03
08
09
1e
1b
0c
fd
e9
e0
ed
01
08
10
0c
fb
02
fa
f9
00
01
0b
ef
fa
f1
e9
f9
ec
03
03
0f
1a
0d
10
0c
00
dd
e9
e6
09
1a
08
ff
ed
ef
f0
00
f2
f9
f7
e8
e9
fe
f1
f4
00
ff
03
0c
18
0c
05
0c
f6
d6
dc
ee
0f
21
07
01
f0
f2
f5
fc
fe
f0
f2
e7
f2
df
d3
0e
ff
fa
f9
10
10
f7
0f
00
dd
da
e5
ed
10
1c
10
01
f5
f8
ea
f9
f6
ee
f0
e5
d6
d1
f4
fd
01
fc
03
0a
05
fd
fb
fe
ed
dd
ef
03
10
17
0a
06
ff
f8
f8
fb
f9
ea
ef
e3
d5
cc
01
01
fc
fb
00
04
fe
fb
fc
eb
f3
d9
f6
fd
07
0d
02
08
0b
0b
04
ed
e5
dc
dd
ca
d8
cf
eb
11
02
fc
fc
fd
fe
05
06
04
05
ff
ee
ee
08
0a
00
0a
01
f6
f9
f2
ec
e7
ec
f4
d8
f4
f5
02
04
05
05
f9
06
03
eb
0b
fc
0f
02
ea
ee
f7
e9
fd
f9
e2
f4
f5
ff
ed
f9
fe
e9
f9
01
03
fe
fd
05
06
05
01
ed
ec
06
fb
0e
f9
06
f4
fd
04
09
f0
05
f4
06
f8
fd
04
ff
fd
05
03
02
03
06
fb
fe
ff
f6
fc
00
fc
03
03
f5
fe
21
01
04
04
1e
eb
f9
f4
f9
03
04
fd
01
fa
01
04
01
04
02
07
03
07
01
00
ff
01
01
fa
f8
ed
ed
f0
ef
ea
ea
f1
f3
04
06
0c
0f
06
ff
04
fd
ff
04
0f
07
fb
f8
04
04
f8
f1
e5
e1
d7
de
e8
e7
e6
de
e4
f4
ef
f7
f6
12
05
00
03
04
00
01
01
13
02
f1
ed
f9
f2
f0
e6
df
db
dd
eb
d6
cf
cd
e5
ee
f2
f6
fa
0c
ff
05
fe
06
03
09
13
06
07
0c
0b
01
09
fa
f4
e6
f3
fa
f7
f7
e0
df
f7
e8
da
ef
ec
f8
03
ff
01
02
03
07
06
1b
11
1f
0b
0d
1a
0f
13
03
0c
0f
0f
06
06
0a
04
f4
f8
e6
e6
ed
ea
fa
04
fb
03
17
1e
0d
27
19
0a
0d
0e
14
0d
0e
16
15
10
0a
0a
0b
0a
f8
f6
eb
ed
d3
ef
fe
fb
ff
0b
21
1f
0d
12
fa
03
15
0c
10
1e
1a
14
f8
f5
ef
f4
08
f7
05
08
ea
cc
d6
e1
f5
fe
19
15
3b
0b
06
07
fa
ee
ec
eb
fa
ff
16
0c
03
ec
e7
f0
05
02
04
0d
ed
f9
c9
d4
ff
05
0c
17
25
13
ff
ee
ef
db
e4
df
fe
15
0a
0a
07
f3
f7
fe
0a
11
f8
05
f6
d6
e1
ee
f4
05
14
0e
10
03
fc
e2
d9
c9
d2
e7
eb
ee
09
fe
ef
e9
01
0e
0c
15
02
fc
f2
d5
d8
e9
fe
04
0a
1b
18
ea
e8
d2
c5
c6
d0
e6
f4
04
0d
f5
e1
f0
07
0e
0d
0f
07
fc
da
d4
d2
d7
f8
fd
11
29
0c
e4
dd
d6
da
e4
f9
04
13
29
16
e3
d5
f0
07
0f
13
06
f5
f8
e9
d2
cb
d8
02
04
0a
13
0a
e2
eb
f6
f9
08
0a
27
28
35
0c
e2
d7
f3
02
05
f0
f5
e8
f8
ed
fc
e9
e0
fb
fc
0a
1a
05
e5
f3
00
0f
08
24
31
20
fc
ef
e0
e1
fd
fd
f3
e8
f0
e4
ef
fa
00
10
01
16
ff
09
0f
01
fc
03
12
0c
14
1d
19
02
e1
cc
dd
f2
ff
05
f9
f4
f9
f9
f1
ff
11
07
17
fc
ff
06
0f
0f
f6
07
0a
0c
0f
08
01
e2
d7
ce
ef
fb
fd
0b
00
0e
03
0e
0d
10
10
fa
25
07
03
fc
10
02
f8
0a
fc
15
20
1a
0c
ed
db
e1
f8
05
0c
10
1b
19
1c
1d
0c
10
0f
04
11
09
fa
06
1c
0e
15
00
03
16
1b
0f
03
f0
fd
ff
13
0e
0f
09
0d
10
11
13
0f
0f
fb
20
15
fa
fb
02
11
0a
12
05
05
17
14
11
fb
ee
07
15
15
06
1a
11
08
1c
16
10
09
f6
01
08
05
10
fc
0b
fe
29
0b
07
04
12
15
04
06
05
16
1d
17
0b
fe
02
02
03
1a
13
06
e9
f6
0e
1c
05
fc
15
01
28
0f
16
06
09
00
fd
0c
0c
11
0f
0c
fc
f9
ec
f3
06
09
08
f2
f0
f3
ee
0d
01
fd
0c
24
2a
05
0b
f4
f3
05
fe
04
0b
07
08
fd
00
fa
ff
f6
09
06
0a
0a
04
e9
f3
0c
03
03
01
20
25
f7
f6
f4
fb
04
1a
09
1c
14
15
08
01
f9
fc
fa
0f
14
06
12
ef
e4
ec
05
fd
05
f6
fe
0b
f4
fb
0c
1c
0e
11
22
22
16
00
fb
fa
ff
02
f5
fe
08
fb
f4
eb
ea
00
f8
06
04
03
f8
18
19
15
1f
1c
0d
05
01
09
0b
0f
0b
f9
ed
ff
f1
e7
f0
fa
ec
e0
f9
0b
ff
ff
06
00
fe
01
0d
fb
08
f3
01
ea
f9
ff
01
fe
04
01
00
01
e5
e4
de
f7
f6
f9
ee
fb
04
fb
fc
fe
02
08
ef
d3
ec
03
fa
e4
f1
f2
f6
f2
fa
02
08
1a
fe
f5
f6
f6
ff
ff
fa
05
fc
04
fe
03
10
10
14
01
06
f3
ef
05
0c
ee
fe
06
f6
fa
09
1a
1f
16
06
07
08
02
fc
00
02
03
fc
02
04
03
14
0e
16
17
09
09
00
fb
fb
fb
fa
f3
f8
f9
fd
f8
02
05
03
0e
ee
f1
fd
00
01
fe
01
0b
12
18
13
0e
0c
fd
fb
0e
f9
fe
f5
f0
ef
f7
fe
0c
f6
03
11
05
17
f8
04
fa
02
fb
01
09
0e
1d
13
12
02
01
05
0d
05
15
04
fb
fe
05
04
01
f6
fd
11
00
f2
04
fe
02
06
fb
03
10
07
09
0e
13
13
0f
12
0f
11
1c
0d
0c
11
0b
09
10
16
10
01
fb
fe
10
05
fc
06
fa
fc
09
15
08
fb
0d
07
02
02
ff
f5
ee
f5
00
fc
fa
f9
fb
fb
0e
02
13
1a
18
0b
ff
00
06
fe
fd
f0
ee
fe
fb
03
f4
fd
f5
f5
ff
fd
fb
e8
ea
f4
f1
f9
f2
f4
08
0e
13
13
00
fe
fc
14
0a
10
f5
ee
f5
fc
ec
0a
04
05
15
10
0a
07
02
03
01
09
ff
fe
fd
07
10
01
fa
06
ff
fe
05
eb
f0
f4
fb
f5
0a
07
09
0e
13
1c
0f
12
0d
06
0a
00
fd
ee
f8
03
06
01
fd
fe
08
f7
ef
dc
ef
ea
fc
03
02
07
07
09
13
24
21
25
15
0f
0b
04
03
ff
fe
05
04
f7
0b
02
0e
fd
0d
fe
fb
04
06
fd
0a
0c
15
0d
1c
24
1f
1d
11
0f
03
fd
f5
fe
f9
01
fc
e9
0a
05
0a
fc
05
ff
00
14
0d
05
0b
13
0c
07
16
15
10
14
0a
06
fd
0c
05
0a
07
f4
01
0f
02
02
10
0d
10
08
ff
09
05
08
06
14
0c
07
14
06
fc
ff
0b
0d
01
0d
07
0a
15
fa
05
24
ed
09
07
0b
14
13
07
14
fd
f8
06
00
f7
f2
f9
f5
f5
ff
ff
05
0b
15
09
06
0e
ed
0e
0f
f0
00
09
1f
13
0e
03
0d
07
f7
00
f7
e3
e3
e1
ea
f0
06
02
02
0d
12
0a
08
07
ff
f2
e3
f4
fe
0b
08
11
fc
f5
01
f7
04
f7
f5
e8
e1
e7
dd
e8
e5
f6
fa
fa
0f
0e
18
1b
1d
fd
f4
fb
fe
0b
08
ed
f0
fe
04
05
04
03
03
f7
00
f5
e9
e2
eb
fb
fd
fa
0b
09
10
1e
2d
eb
d8
f9
ff
05
ff
ee
ea
eb
fa
00
05
07
10
0a
06
f6
e5
e8
ef
f8
ff
13
08
05
10
15
0c
da
e1
ef
00
ff
e4
f7
e8
e3
f5
f2
fd
fc
08
1a
0f
ed
de
e8
e6
fe
04
09
0f
0a
11
13
06
dd
f2
02
01
fd
e9
02
ed
e2
f6
ea
f3
ef
f5
fb
f1
e5
e2
e8
f5
05
11
14
0d
0c
19
fb
ea
e7
ed
ed
03
fe
fa
ff
e8
eb
ed
d8
e0
d3
d3
d9
ec
e4
f9
fc
08
1b
13
1e
0e
fd
f7
02
05
09
e1
f7
05
03
f7
ee
e9
ef
f1
d1
d5
d8
c9
d7
eb
fb
0a
0e
17
16
16
12
fb
f5
02
0a
0f
0c
eb
04
01
f8
e2
e2
f5
ee
ec
f5
e8
ef
ef
fe
09
0e
1a
14
17
0d
0b
02
fb
fe
ff
f1
08
0f
01
01
06
00
f6
ee
f6
f5
f7
f8
fe
02
07
11
13
0e
17
0b
13
09
03
f4
fd
f5
07
fe
ff
07
03
02
01
03
03
fe
f4
f9
f7
f1
f5
02
10
0f
12
10
10
02
02
02
f3
ee
ed
f4
01
00
0f
f6
09
fe
ff
05
01
15
11
05
ff
03
0b
0f
24
19
0c
0d
05
09
01
09
ef
f0
00
fb
f9
1c
09
f4
06
05
fb
fa
02
fa
f8
fe
f5
fe
1e
25
15
17
1d
11
0a
0d
18
14
0c
1d
03
0b
fd
25
1d
fe
05
02
03
03
fb
fc
f2
ef
ee
f4
17
22
27
2f
25
34
38
2e
2e
2e
1a
0f
15
12
0a
1b
ff
fb
06
fd
03
03
ff
fa
04
ff
f9
fe
ff
f4
0b
09
0e
fd
0e
00
e3
e0
e6
dc
ed
f9
f1
04
fd
00
03
fc
06
00
fc
fb
13
1b
29
29
22
14
16
0d
05
08
06
08
fd
09
11
11
04
fa
13
08
04
ee
fe
02
fa
04
fb
02
1f
20
1e
27
1f
17
11
0e
1b
07
f9
01
f1
04
0a
02
1b
17
1b
20
19
fd
fd
ff
fd
fe
ff
03
1f
1e
23
23
24
1b
1d
1b
1b
07
fb
f6
f2
07
14
1c
1e
1c
21
16
1d
f9
fe
03
fc
ff
04
05
f7
02
29
30
18
23
20
12
0f
01
f5
fc
f4
0f
19
20
32
42
2c
12
14
fa
03
02
fb
00
ed
0a
22
13
13
24
19
17
17
10
11
fc
09
03
0b
10
29
28
28
38
2c
28
17
1a
01
02
02
fd
02
f7
f6
f8
02
09
0a
11
0d
0a
f3
f8
f7
ff
fe
0a
0a
12
08
21
17
0d
10
24
12
fb
fc
fb
17
eb
04
05
f3
fc
0d
ff
00
f2
fd
e1
f0
f3
f7
12
03
09
12
fd
f0
f8
04
2f
09
06
fc
ff
f9
e5
f3
03
f8
07
09
11
02
fc
f9
e9
f7
00
16
08
01
f5
f4
ef
e2
de
e7
0a
03
01
fb
07
05
ef
eb
05
09
0d
1a
0a
fd
05
f4
ea
ee
f4
09
f6
ef
e3
d9
e0
dd
cd
e8
04
06
0a
04
06
0f
fa
fe
f8
12
12
18
13
0b
04
f6
db
de
f7
fd
f0
e7
e8
e8
ee
de
e2
01
21
1a
1c
05
14
ea
dd
0f
f6
04
11
11
1a
0f
0a
ff
f1
ed
fe
08
ee
fc
f5
fa
ea
f1
10
19
25
19
05
21
00
fe
de
08
16
1b
0b
0a
21
15
08
09
06
0c
13
1d
11
0e
09
07
06
17
1b
19
19
2e
12
15
01
f4
03
2a
18
13
1c
0d
06
08
06
fb
1b
10
19
11
11
17
ff
0d
22
11
13
04
ee
e4
0e
03
09
1f
04
23
29
13
1e
02
0c
08
fa
01
10
07
13
02
04
17
12
19
19
22
15
f6
e0
d4
ee
03
12
10
02
21
15
03
02
07
14
0f
01
0b
15
fe
fb
08
08
06
15
0f
10
09
ff
eb
e8
ea
00
fc
03
fe
e9
eb
fc
06
0b
10
0a
08
fc
04
fe
f8
ed
ff
06
14
07
1b
0d
f9
07
e7
f5
e3
f6
fe
06
ef
e2
ec
f3
ff
fd
16
08
f7
fb
f7
f5
ee
eb
f9
07
0e
16
0b
fe
fb
fe
f4
f2
e2
e6
00
f3
e4
e1
eb
05
03
05
04
05
01
05
fd
f7
ed
eb
04
0f
28
26
17
0a
fa
f0
0a
e1
da
03
00
fd
ea
fc
fa
0c
ff
fd
f7
09
11
09
fc
f9
f6
f6
fa
11
2a
1e
16
fd
ea
f3
e3
f1
f5
f3
fe
f9
07
05
0c
0b
fa
f1
fc
ff
18
0f
06
f6
03
05
08
10
18
1e
07
02
f4
fe
07
e1
e1
fc
03
e6
08
0a
11
09
f5
dc
f4
04
06
f0
ed
f2
f6
0e
08
14
1b
15
06
f1
05
03
f9
09
ed
01
02
f8
04
fb
12
0f
fd
de
ea
fa
fb
e5
f7
f6
0a
16
1b
1c
0c
0b
06
ff
04
f7
01
f9
f5
fb
03
01
fd
02
0f
04
df
d8
e6
d3
ed
e3
00
00
1b
1d
1e
1e
16
05
05
fb
f4
06
07
f7
fd
fc
fc
fc
ff
02
ff
f7
f1
e7
e0
e4
d9
de
e5
03
17
1e
25
22
1b
19
05
03
fc
19
09
f8
fd
fa
fa
ff
ec
f9
f5
eb
f9
e1
ee
e3
dc
f0
f8
fc
11
25
1e
1a
07
20
1b
f9
04
2b
f9
e8
fd
fc
fb
00
fe
fe
f4
f2
ef
e9
e6
f0
e1
f4
f2
0d
16
23
1c
24
23
24
1c
0b
08
2d
1e
ff
01
ff
01
fe
fe
08
f0
f9
f2
ec
f3
f7
fe
01
05
12
12
15
10
1e
0b
1c
17
04
ff
1f
06
00
05
ff
fb
fe
05
fa
02
fc
ee
f5
fe
01
ff
03
04
00
06
fe
02
14
07
04
09
f0
f2
fd
04
fe
fc
06
02
fc
00
00
02
f8
f8
ec
f8
f8
f2
f8
f4
f9
09
01
06
fb
0a
07
fa
f4
fe
ff
00
01
fa
02
fb
01
fd
08
f7
f9
ff
fb
f3
f6
f4
f6
fb
04
0b
10
0e
07
04
02
ff
f7
f9
f3
f5
f7
02
fa
fb
fb
fd
02
ef
02
04
f9
f2
ff
fa
fc
f8
0f
0d
0b
13
06
05
00
f8
fd
f5
eb
f4
fb
05
04
fd
02
00
01
04
0b
fc
f5
02
08
10
0b
14
16
05
ef
00
f4
fa
fa
f8
f5
ee
01
f6
05
fe
fe
fb
03
0a
fd
03
04
fd
07
13
1b
21
0f
0e
0f
08
04
05
fe
07
ef
04
f0
e5
e2
de
f1
02
fb
00
02
fc
0a
0e
08
12
0e
0b
0c
1a
07
14
15
14
0a
11
05
0e
08
0b
04
fb
e0
e3
e7
f6
05
02
00
0f
0b
03
12
12
08
06
13
1a
13
1a
13
10
14
04
08
08
ff
ff
04
06
f7
e8
ec
eb
eb
fd
1b
fa
05
1f
0c
13
08
15
16
29
1e
1e
23
1c
10
02
06
fe
06
01
06
08
05
f4
fa
f7
01
ff
03
11
26
23
06
07
18
15
21
1c
1d
2c
32
20
18
fe
0e
01
01
0b
0e
22
07
e3
e3
0a
01
07
09
11
12
11
fd
04
03
04
04
f0
f5
ff
0d
0f
fb
f5
fc
ff
0c
0c
1c
2b
0e
dd
fb
15
11
05
0d
04
11
06
eb
f2
ea
f0
d6
cb
c1
d2
ec
f8
e8
f3
04
0a
12
20
23
12
f0
d6
fd
fc
00
06
ff
09
01
e9
d9
d5
cf
c4
bc
bf
c1
c0
f3
fc
eb
e9
00
0e
1d
27
0f
11
e8
f7
05
05
fb
ff
fa
fb
f2
cf
cb
c1
c7
bd
c6
da
d6
e5
f5
00
fc
f4
06
0a
09
14
00
ea
d9
09
11
0f
fa
03
fe
00
e5
cd
c7
c6
cd
d9
d5
e6
f8
00
0f
08
f5
f9
06
0a
fd
ee
e4
d9
e3
f3
13
0b
02
ff
fe
0c
e4
ce
dc
e5
ed
e8
f6
fb
04
0a
0c
16
01
f2
01
f6
f6
e0
ec
dd
ec
f4
02
02
fe
fd
16
0c
e5
f4
00
ff
04
06
02
0a
05
07
1f
1a
04
fc
f1
f3
ec
ec
e7
f9
ff
0b
f6
f9
f3
01
fb
16
0e
11
08
09
04
06
06
1e
05
fe
0e
18
0a
ff
f8
f4
f6
f0
fa
09
06
1d
0a
0f
12
05
fa
13
1d
27
01
00
0c
0b
16
02
fc
fb
07
06
fc
0a
fd
eb
f9
f5
f1
08
12
0d
0f
19
06
ff
fa
0e
18
0c
1b
09
fe
01
06
00
fb
ed
fb
01
05
04
fe
01
03
f4
ff
12
12
19
10
1b
10
fd
fe
f1
10
03
12
0a
15
03
0d
05
e6
e6
f9
02
00
fa
01
fa
f7
f5
f9
14
16
15
1e
19
05
05
0a
f7
05
0f
03
0d
15
08
0d
ff
ef
eb
fd
ff
fa
f3
01
fd
fe
f6
06
06
0c
12
fe
0f
fd
03
fd
fa
13
07
01
05
0e
00
f9
ff
fc
f3
fd
f8
ff
f2
00
0c
0f
0b
18
1b
fb
04
0e
0d
fe
06
06
fc
ed
0d
0b
0d
08
06
0c
fc
fa
fb
f9
fe
04
fc
09
18
11
1a
18
1a
08
02
fd
06
05
fe
05
fb
fc
00
07
0f
14
0d
0b
04
0f
09
06
02
08
10
09
0b
00
10
05
04
09
ee
01
19
fc
00
05
08
16
17
02
f2
fb
f1
ff
f8
04
0c
09
10
09
0b
fd
fc
f7
f7
09
f5
ec
04
0e
04
ff
04
ff
04
f6
f4
e6
f1
f0
13
0e
fc
00
fb
f6
07
00
08
f9
f8
f3
f8
f1
f5
f5
03
02
00
06
fb
05
fd
fb
f6
d8
df
f6
0d
0a
0b
00
01
09
08
14
0d
0c
05
f9
fd
f2
fe
00
fb
02
fc
00
ff
fd
fb
02
fe
ff
01
11
03
07
07
04
11
15
09
12
09
f8
f8
eb
f6
03
fc
fe
03
01
fd
03
02
ff
02
03
11
0c
0e
11
08
0d
f9
e8
ee
e5
df
e1
ea
e9
fd
f8
15
06
0a
04
05
04
ff
02
fa
fd
03
05
17
16
12
18
16
fe
fd
00
f4
e9
f1
e2
ed
ef
f5
ff
02
0d
17
0b
03
fe
fa
01
05
fa
03
05
11
20
28
16
0e
06
f7
f6
ed
f6
fb
01
f7
f5
f3
f5
f9
ff
07
08
08
00
06
fd
fc
06
fb
04
11
16
0e
0c
02
fd
f2
f3
f8
fe
f8
ef
f1
e1
e8
ec
e7
f1
fe
f5
f6
0a
fa
fc
02
04
0c
06
02
0e
09
01
04
f8
ec
f5
f9
f9
f2
f8
ef
f1
f4
ed
f4
f0
ff
fe
eb
fd
e7
fc
fd
fe
05
04
13
f7
f2
f1
00
f6
ef
f2
e8
ea
e9
ef
e7
ea
f2
e7
ee
fb
fe
f7
e2
e6
e5
ff
04
04
f6
0a
fb
fb
08
03
fd
05
f9
f7
f1
fa
f6
f0
f1
f0
e8
e6
da
f4
ec
e5
e2
ec
f0
ea
02
f7
18
14
04
03
06
09
05
0d
18
10
19
11
0d
01
fd
00
f0
f1
fa
fd
10
fd
fc
e7
e3
f9
ff
03
04
fd
01
0e
14
09
1a
0f
1b
1a
24
1d
2b
14
0d
04
00
07
07
09
1a
0e
f8
f5
f0
fd
00
08
07
16
02
16
1c
12
1b
29
27
2e
38
38
2a
27
22
14
0f
08
03
f8
fb
fc
03
fe
f5
14
0a
00
0d
0a
0d
22
28
1b
2b
26
29
21
2a
32
34
2b
23
1c
07
02
f1
f9
f4
f0
fd
10
13
00
fe
0a
08
f4
0f
14
1a
23
32
19
00
0c
f8
0a
fb
12
08
0e
14
fe
e2
db
ef
ef
e8
ec
13
fb
04
05
0d
f9
f6
f8
00
04
fc
f7
e3
db
e0
d3
e2
f3
f9
06
06
f4
e3
c9
e5
f2
e9
fb
16
f9
02
fd
05
ec
dc
da
e9
de
dd
db
d4
d8
d8
d5
e6
ee
07
0b
0d
f0
e4
d4
da
ea
00
f1
fb
10
ff
01
12
ec
dc
d6
d3
d5
d9
db
e0
db
e4
e1
e4
f2
fa
fe
08
f9
f4
d9
f8
fb
08
f7
04
04
00
fb
0c
f0
dd
df
dc
dc
df
e7
ee
f2
f1
f5
f5
fb
02
f7
00
f4
f5
f7
fa
fa
1f
04
19
0f
fa
05
fa
eb
ee
dc
ec
ef
ee
f5
fb
02
0d
03
f9
ef
f7
ef
ee
f1
02
0d
0e
06
14
15
19
18
00
02
f6
ea
f1
ef
04
f8
02
05
00
0b
13
09
00
fc
ef
f4
ec
e9
ff
03
00
04
0f
1c
25
fa
fb
f9
f0
e6
f8
f7
08
0d
ff
fc
05
13
16
13
09
fe
fd
f6
f2
ed
f2
01
08
10
10
09
1e
11
03
fe
ec
fb
fe
ea
04
00
04
15
14
12
0c
0c
03
ff
f9
f6
e8
f6
f3
02
06
0b
08
24
21
09
04
fd
f2
ef
fd
f6
f4
04
14
11
09
0f
1c
0d
07
04
f9
f2
f4
ec
f4
f6
fd
14
16
1c
0d
05
fa
01
fa
fb
0d
00
fc
f9
07
1c
19
14
16
0b
04
0a
09
05
0c
0b
08
02
03
10
1d
24
03
02
fe
02
f9
00
05
1b
1a
fa
0d
0f
fc
f5
02
fa
08
07
01
07
12
08
03
f6
fd
f9
1b
1b
02
04
01
00
01
f0
f5
23
1a
09
0a
0d
fe
f9
04
fa
04
04
fe
06
07
f7
fe
fb
18
03
1e
04
12
fb
fa
02
04
ea
f9
08
fd
f8
f2
ee
e6
e5
e8
ee
fa
04
06
28
1e
11
05
02
f1
fb
1d
13
fa
01
ff
fc
00
0c
14
f8
fa
00
04
f3
e9
f9
02
fd
0d
0d
1a
1f
24
1f
06
22
0b
05
09
fd
01
04
fe
04
02
0b
1c
f9
f7
19
18
1b
19
1b
16
1f
32
30
1a
17
1c
2d
17
19
22
03
ff
fb
03
fb
02
fd
03
05
08
0b
10
10
0b
fc
0d
fa
f6
fb
02
f7
fb
f3
fb
05
fe
09
0b
fa
03
03
01
00
fa
03
06
07
09
0f
07
03
04
07
f3
f8
f3
f5
06
0e
0d
0b
0a
0c
0d
13
f6
fc
0f
0f
06
03
04
fa
fd
0b
11
18
13
0d
09
07
ff
fe
fc
09
04
05
0d
03
fc
fc
09
fd
f9
f4
f4
11
fa
fd
01
05
04
03
0e
1d
13
02
06
14
01
f7
f9
fc
05
05
04
fe
fa
f9
09
02
06
01
06
15
fd
01
fd
01
00
0a
0b
20
19
0d
00
f9
01
0b
fc
01
11
0a
0c
fb
f0
e8
fd
ff
09
09
f9
ff
05
fe
fe
06
02
0f
07
13
1d
00
08
0d
0a
fc
03
01
fb
01
ff
ff
fe
f2
ff
01
02
f8
05
00
f4
fd
03
00
ff
0d
13
09
01
fd
0a
fd
f3
f3
f6
fe
0c
01
08
fc
fd
f7
f5
fd
03
11
fd
03
ef
ff
fe
05
fa
13
0e
0e
01
f2
f3
01
e8
e6
f3
fa
03
09
fa
fe
f7
fb
fe
03
04
0b
f6
f3
03
16
02
f5
1b
0c
0d
01
fd
eb
e1
ea
e5
f1
f7
04
fc
03
fb
f7
03
03
08
0a
0d
00
01
01
06
02
fb
fd
09
0e
1a
f7
00
f7
fc
f6
f2
01
05
fc
f4
f6
e1
f0
fe
02
06
07
06
03
01
f9
fd
f8
08
03
05
12
06
fb
ff
f7
f4
f1
03
04
05
09
ec
de
df
f2
07
08
14
10
0b
14
f3
ee
f9
11
0a
f8
19
fc
fb
15
08
f8
ff
ff
fb
ff
f8
ec
de
c6
db
f7
09
11
18
13
15
e4
db
e1
ec
f9
00
0c
12
07
fe
12
04
02
fd
09
09
03
f7
e6
e1
d7
ed
fb
03
0e
1c
20
27
e9
da
cb
e8
15
08
0d
18
08
ff
14
fa
07
fd
fd
04
07
f4
e6
d0
e1
04
0f
14
1a
1c
29
31
0a
04
e4
eb
13
05
ff
11
f4
fc
f6
03
fe
06
02
08
03
eb
ee
f0
05
0e
0d
19
1d
28
20
22
12
0b
12
2e
15
05
06
09
f9
0d
0b
06
14
0f
0d
08
05
ef
ee
09
17
18
10
1c
36
2a
19
0f
0d
e6
1c
12
05
ff
f8
01
19
01
f4
0e
09
0d
06
0b
01
04
0e
2b
28
10
18
14
2c
1d
1b
11
e9
ed
05
1b
03
fb
fe
fe
09
04
0a
0d
18
15
04
02
f4
04
24
33
22
1a
18
18
16
18
16
09
05
ff
18
1c
10
03
00
13
fd
f5
03
f8
14
0d
f2
f5
f1
0a
33
1e
17
17
0b
16
0c
1b
0c
0b
02
0b
2a
12
fb
fe
03
0f
fc
08
0b
02
0f
f8
e5
e3
ed
18
22
17
05
0e
02
06
07
10
09
f9
fe
0e
16
03
0b
04
05
05
fb
09
0d
04
05
f3
e6
ec
09
12
0f
0a
ff
03
0b
f9
fa
fe
ff
02
12
04
09
1d
07
fb
03
0a
1e
06
0c
01
f9
ef
ed
fb
08
05
07
02
04
fd
f7
f5
f3
f6
01
fa
f7
12
f9
08
ff
fc
0c
1a
15
06
fd
f0
e0
00
04
08
04
02
02
00
f6
fa
f7
e6
ed
ef
f0
f8
0e
0b
ee
08
fb
fd
02
0d
1a
05
f9
f3
f6
02
04
07
05
f9
ed
f3
f4
ed
ed
e0
f7
f6
f9
ff
fd
0e
f7
00
01
03
fd
07
f8
f0
f3
00
05
08
08
0b
11
09
ee
f3
f6
fe
ff
ff
f5
fc
12
ff
fc
00
f8
fe
fc
fa
fe
fd
ee
ec
13
0e
14
17
0e
0a
10
06
ff
03
fc
0c
01
01
f2
0e
05
09
e9
f8
18
05
03
fc
02
09
01
01
fd
0b
10
ee
fc
1a
12
f5
f8
06
0a
f9
f6
f1
e8
04
0b
f9
e3
e9
fb
01
05
fd
fe
0f
0a
19
0e
07
17
ff
f4
fb
e1
e2
ee
f8
f0
f4
f8
ef
f7
fd
1b
07
02
fa
04
ff
04
02
01
ff
08
0b
14
13
fe
01
fe
fe
ef
f0
f6
f3
f8
08
23
1f
27
21
1c
1b
00
fe
ff
fa
06
fb
05
04
01
03
fe
08
0d
fc
ff
fb
f7
f9
00
f9
00
0b
fb
fa
f7
06
0a
08
03
08
06
05
fb
fa
fe
03
ff
09
02
00
fd
07
05
ff
ff
00
ff
fd
f6
fd
fe
08
07
14
0b
0b
0c
07
09
05
fa
01
04
fb
08
ff
fd
f2
ed
f2
f5
f5
fe
fc
f8
f9
ff
f5
f0
fe
07
0c
14
0c
01
00
03
fe
03
05
fb
03
fc
07
02
02
09
03
03
03
15
f4
f8
fd
f7
f1
fb
f3
0e
0e
18
05
10
01
00
fd
fb
01
ff
fe
fc
04
f6
e9
f7
00
ff
fe
f8
fe
ec
fa
f2
f4
fa
f3
f9
09
0c
01
fb
0e
f5
fa
fe
05
fb
fb
06
04
e8
fc
01
06
f8
f6
fb
f7
f5
f6
f4
f8
ed
ec
e8
f7
ff
09
07
0a
0b
fd
04
02
fc
1e
1f
28
02
05
07
07
0a
f2
f5
e3
eb
e8
f0
ea
e7
ee
ef
00
01
0b
fc
fc
04
08
f9
01
07
14
36
03
0b
11
15
0e
fa
01
f4
fb
f6
f7
ea
f4
f0
f0
f4
fa
01
f8
fb
0c
24
0f
ff
01
0d
16
1b
0b
17
0d
05
fe
fa
09
0d
04
08
f6
ed
f4
fa
f7
fa
fd
f3
0c
01
13
1e
05
fc
0b
08
1d
1b
1b
0c
06
12
fc
f5
09
09
18
0b
0d
fa
fa
00
fe
fe
08
03
12
f9
00
10
0a
19
0b
04
0c
2d
02
0b
03
0c
07
03
04
02
0a
06
f4
00
f9
04
ff
04
03
02
fe
ee
f8
2c
12
fb
01
0a
1c
12
03
04
fb
07
0a
04
05
09
0e
fd
01
fd
02
04
fc
07
07
f9
04
f8
e8
1e
1f
fc
03
0d
1d
05
f8
f9
04
0a
06
02
10
0f
0b
0d
05
fe
03
f6
f7
fc
f9
fd
06
00
fa
15
12
f5
fe
0d
1f
fb
09
0a
10
0f
0a
14
15
1c
13
10
0c
05
11
02
ff
fc
0a
06
00
0c
1c
08
1f
05
05
08
16
fb
08
11
20
2e
25
28
26
1f
18
22
1c
04
1a
0c
02
09
17
02
1a
26
07
00
07
fb
03
09
11
01
0f
18
2a
32
2c
2d
35
22
21
0e
1a
1e
10
0a
0b
16
18
19
11
1b
12
01
17
fe
fc
00
f1
f5
f2
e8
eb
f9
07
16
16
04
fa
f9
01
07
10
0a
09
11
13
15
1c
13
1f
11
03
0d
01
05
f5
ea
e4
ce
b7
a9
b6
d0
c8
cb
c9
da
df
00
ee
07
10
03
07
10
04
18
0e
20
03
04
02
fb
f4
dc
da
b7
9a
95
89
81
a9
b8
be
cf
ed
ea
f4
f7
06
f9
fc
fa
fb
f4
0e
10
05
fe
02
06
f7
e9
da
c5
a4
9b
9a
9c
ac
d0
d4
f6
f4
f0
f4
ef
eb
f0
f6
e7
e3
f1
fd
1b
07
04
05
04
f8
ed
ee
d1
cd
df
db
e5
df
08
0c
12
10
f8
f0
ec
ea
ee
ea
ee
e9
fc
02
26
05
ff
03
05
03
f0
fd
e6
e2
ff
10
15
23
30
34
17
02
f1
f5
ef
e4
e6
eb
ea
d7
fb
00
01
01
fd
02
fc
fa
08
fa
e8
ff
1b
26
2e
33
3b
25
19
00
fe
fa
f9
ea
ec
e1
eb
f0
fe
07
fa
05
06
fe
07
07
01
0c
0f
1c
35
29
2d
31
31
1e
14
11
fd
fd
ff
ee
00
f6
f6
f1
11
2b
09
fe
fe
02
ff
01
17
19
2e
2c
32
2d
21
28
22
15
16
0f
03
00
0d
f8
f7
00
0e
13
17
09
ff
03
fb
06
fa
05
f3
10
1e
1d
26
1c
15
09
14
12
0b
01
07
05
01
05
02
09
2d
24
1f
03
05
02
01
06
01
f7
fa
00
10
0c
03
05
13
0f
09
03
0c
06
03
0d
fe
00
04
14
11
0d
08
fe
06
fd
fa
04
05
fb
f9
04
03
f7
f4
f6
f9
0c
03
08
04
fd
fc
03
0b
0b
fd
07
0a
10
02
ff
00
fa
04
03
fd
fe
02
0d
0c
05
08
fe
00
fe
ed
f3
f6
00
03
09
fd
01
fd
01
08
06
fe
05
03
05
03
ff
ff
fe
0b
09
18
02
00
fe
ed
f3
ed
eb
fc
0b
11
06
09
07
f8
fc
f7
ff
05
06
04
fd
05
00
fe
04
08
04
0d
06
02
fa
f7
eb
f2
ef
ff
03
f8
eb
f1
f3
f3
f3
e5
e4
ff
04
07
ff
ff
fa
05
03
08
fe
05
0b
13
fa
fc
e8
f1
fb
ef
ed
e5
e9
ec
ee
e1
e7
ee
f3
ea
e3
17
03
fc
ff
02
13
07
08
07
0e
04
00
f2
e0
f2
ec
ed
dc
f0
fa
fa
fb
fa
ef
fe
09
12
09
12
07
fb
fc
fe
04
fc
0a
09
f2
01
06
fb
f4
e7
f0
f0
f3
f7
f0
f8
f0
00
00
fd
f8
fb
fa
0a
f4
fa
fa
00
06
fa
fd
fa
0d
0c
01
ef
f2
ee
e6
fc
ff
f8
f9
f7
fa
09
16
0d
09
09
09
18
01
f0
fe
ec
fd
0b
f2
f9
06
05
e2
ec
df
f2
fc
01
f9
fe
01
08
06
12
0f
21
0a
25
ff
08
fd
06
fc
fa
f1
f0
e6
f2
0f
fe
f1
e6
ef
eb
02
09
10
0a
10
0b
1a
19
1b
21
0b
0f
36
39
18
0d
fd
fb
f3
df
e4
f5
f9
fa
ee
ef
f2
02
0e
26
14
0e
18
10
0e
19
16
13
1a
10
39
42
25
f2
f8
06
f5
e2
e9
eb
e1
f1
fc
ec
f3
06
0d
23
19
0b
16
09
03
12
18
19
16
2c
2d
45
0b
12
05
f0
f2
eb
e9
da
f3
fa
ff
02
05
05
11
0b
12
0f
17
01
f9
f9
fa
10
0e
28
3f
27
38
fb
02
fc
01
f6
f2
d9
e9
f2
0b
15
14
17
15
20
19
15
18
00
e3
e8
fb
fb
0a
10
0c
02
fe
fb
03
00
fc
fc
f4
d2
e0
f4
07
1b
14
13
1e
0b
15
1b
18
fd
dd
e4
f2
02
f2
ed
e7
f6
f1
f5
fc
fc
f1
f2
f9
e1
f1
ee
ff
0a
0c
fe
11
1b
1c
23
20
05
e1
e1
ee
f1
ec
e5
df
e5
e7
04
02
fa
fd
07
ed
e8
fa
fb
f9
fb
01
06
10
1b
23
2c
19
fe
ed
e1
f4
e7
e6
ee
d8
e2
f0
f7
fc
00
e3
f2
f7
00
08
e6
fb
e8
ef
09
0b
19
17
17
17
f8
e0
d5
e7
e1
cf
da
df
d9
e8
02
fd
06
ee
eb
eb
fc
00
f7
f2
f9
f2
fe
fc
fa
13
03
00
f2
d3
dc
ed
f1
e1
ea
f2
f4
ed
05
fe
01
04
e1
e9
ef
fd
06
04
f5
f4
05
01
0b
05
08
fc
e0
d6
e1
de
d7
d1
d7
e6
f7
06
ff
04
05
03
c4
eb
ef
f2
f5
f2
f6
fe
03
0b
09
10
04
f5
e6
e2
ea
d8
d4
dd
d8
f8
02
01
01
01
15
fd
d2
cd
e6
ea
eb
f3
f0
01
0b
11
1f
16
01
f8
ea
dd
d8
da
df
ec
eb
f7
0d
01
03
04
03
ed
df
dc
e4
fb
f5
fe
14
00
0c
20
07
0a
fb
e4
db
c9
c1
dc
e2
f0
e9
fd
fd
00
fc
ff
ff
f7
f3
ed
ff
f5
04
05
11
1a
1a
0f
10
0b
ed
ea
d1
c6
bd
d9
e4
f3
fb
01
f0
04
fc
02
04
04
e6
f9
f6
ef
fa
05
0c
17
0f
20
13
04
ef
ea
dc
b4
b5
da
e4
f0
01
0a
ff
17
03
fd
00
f7
df
e1
e7
e9
eb
14
0d
12
0d
0a
05
fa
01
f1
d8
d5
d9
dd
e7
f8
0a
fd
f3
03
02
04
06
01
0c
05
f8
db
e9
ee
02
fb
ff
f8
fc
07
00
f0
ef
f6
fa
f3
f6
f8
10
0b
fd
ff
06
ff
02
fb
05
f8
14
01
f8
fd
fa
02
f7
fe
05
0a
11
07
06
fd
f6
04
eb
f6
06
06
02
02
fd
02
05
06
04
0e
09
f1
f8
f9
ef
f7
f3
00
f8
05
03
03
0c
04
06
04
f1
f3
fa
02
00
fe
fd
ff
04
fa
04
f3
eb
e2
e1
ed
ee
df
ec
e0
e8
06
0c
11
0f
10
0e
f5
fe
f2
ef
03
0c
fc
ff
fe
05
00
fa
ed
ea
ef
ea
ee
f3
e7
e1
ed
fd
0b
12
0e
0e
03
06
ff
ee
f8
f1
e9
08
06
fb
05
ff
fc
f9
e7
e7
e6
fb
f6
f8
f5
f9
fb
00
0b
0a
0c
fe
02
07
fb
00
f7
f2
f3
04
02
ff
fb
02
fd
fb
08
fa
ff
f7
fe
f8
04
fe
02
13
fc
02
07
fb
f5
f1
f0
f8
f5
04
06
f4
03
fc
00
00
0b
fc
f4
05
03
fe
09
04
0a
0a
0f
0f
f7
ef
ea
f9
00
fa
fe
e9
f6
f1
e0
e5
f6
04
fd
04
04
0a
1e
19
09
09
ff
f8
06
f8
f5
eb
ff
f6
f3
fd
02
fd
fc
fe
0a
00
0c
f5
06
01
04
03
e3
0e
ff
04
f8
03
e7
05
f9
f2
e7
f1
fc
f6
07
01
04
ed
f9
f9
fd
f1
fa
f2
00
0d
fe
06
07
fb
19
f5
fa
f1
f8
fa
06
f5
e9
fb
0b
0c
0f
fa
fe
f1
fc
01
05
e6
e4
e9
09
ff
fb
f5
ff
09
1e
f1
ec
f0
f3
ef
f5
e9
e8
fb
0d
12
0a
0f
f0
05
f9
fe
f3
ec
d4
da
e9
f0
f9
f9
f4
07
0f
02
f3
f0
ef
f0
ea
e6
dc
ef
06
19
12
08
08
0a
f9
06
fc
f4
e7
d4
e9
f3
00
fd
f5
11
f8
01
f4
ef
ed
e8
e2
e3
da
e8
f4
ff
fc
0e
04
07
fe
02
ff
ee
f9
dd
fc
fb
fd
fc
f8
11
ff
04
e3
de
e8
da
e7
e6
dd
f4
fc
fe
07
f9
07
10
08
0e
06
08
f4
e7
e3
16
fc
f7
04
fe
fc
ec
e1
ea
e4
ea
f8
e3
e3
ed
17
06
fb
03
01
f0
fc
08
16
1a
1e
0b
f9
11
06
05
ed
f8
f6
e8
f1
f1
f5
f5
f1
e5
de
04
1a
00
fb
03
f0
ed
01
02
0a
26
26
11
0d
03
fd
fb
f6
f9
d8
fd
02
0e
ff
09
f7
eb
e6
05
12
0b
07
ed
f8
f4
00
04
06
13
fb
09
23
fe
02
ec
ea
f8
f5
01
0f
01
ff
08
05
f9
ef
0c
11
0b
03
00
f4
00
fd
06
ff
f1
01
21
18
05
01
fa
02
07
fa
11
0c
16
fc
0b
03
02
f4
13
16
06
05
01
fa
f3
f9
04
0c
f9
0e
21
1f
1a
04
07
16
0a
fe
ff
fe
03
0e
02
07
01
00
11
17
0a
08
03
07
fe
fa
01
0d
fb
f4
2d
23
fb
fb
05
f6
04
00
f8
fb
0a
fc
08
00
fb
fc
0e
15
14
14
19
1e
0e
0c
03
0a
0e
22
2e
1d
15
fb
01
ed
02
01
ed
00
09
05
0e
06
00
ff
13
12
0f
1c
24
1f
12
12
05
11
08
09
24
1b
03
ff
eb
ee
06
0c
f1
fa
13
14
0f
0c
05
03
00
13
12
1f
1d
1f
26
1a
0b
00
09
1a
05
16
06
fd
fd
06
1e
12
03
fe
0d
1b
0e
1f
0c
ff
0a
0e
0b
1a
1a
27
25
13
0e
01
0f
1c
12
04
fa
05
fc
fa
0a
18
15
09
00
0c
0a
07
08
f5
f5
08
10
08
18
20
0d
18
04
00
fa
0b
07
03
02
05
fe
fa
f5
f7
0e
18
0d
10
03
00
06
ff
05
fe
0b
ff
fd
17
1a
0c
12
18
ff
04
fc
1b
fc
ff
01
06
ec
fb
07
05
fe
01
00
f8
f8
fd
03
0a
0a
0c
11
1d
0d
10
17
1b
ff
13
12
ff
01
03
06
03
02
fe
07
16
00
0c
fe
fc
01
17
0a
1c
05
0e
0a
09
0b
16
16
0e
02
fc
fc
01
fa
00
00
02
ff
14
0b
15
14
0c
00
0c
03
08
00
08
0a
06
fe
18
11
08
16
0c
09
fe
fe
02
fe
fe
fe
00
03
fa
09
08
08
13
0e
00
fb
f8
05
08
01
0d
fb
00
0d
09
18
0e
fe
06
06
01
fc
05
04
02
05
16
1a
12
0f
09
05
00
f8
fd
ff
01
00
f9
00
fe
fd
fc
f5
f4
f2
fb
f2
fb
fc
00
00
01
0b
1a
26
1e
2b
07
18
0d
09
12
0b
f8
ed
ef
ed
fa
fc
05
0a
0a
f1
ef
f5
fb
04
fe
fb
ff
0b
1d
28
27
29
1e
1a
23
20
19
06
03
ff
09
0b
07
00
01
f7
08
f8
e9
e9
05
03
00
00
05
0f
0f
29
32
30
33
1b
27
2f
2f
1c
12
0c
fc
0d
01
0a
10
fc
06
18
0b
e3
04
04
02
fc
f6
08
2a
25
2c
24
1e
27
2f
1c
20
11
16
0f
14
0b
13
09
07
f8
ef
ea
f1
07
0e
ff
01
01
fe
05
14
13
1e
0f
0e
14
0f
1d
18
24
15
1d
1c
0a
0e
07
03
fb
ec
e5
fc
10
19
fa
05
fa
10
11
25
fc
13
f3
0c
0a
15
14
15
19
13
1f
16
0a
10
0f
fa
f6
f1
f1
f6
f8
de
0e
fa
15
f8
14
0e
0d
01
05
08
03
04
0b
0a
01
0d
0f
0a
0d
0c
0c
fa
f0
eb
f3
ff
ea
ed
08
fe
10
fc
18
10
08
09
0a
0b
0a
07
13
12
0e
10
1a
1b
0e
0e
04
08
07
06
f8
f8
d0
fd
ff
0a
12
04
1f
1a
07
0e
10
02
0a
0c
05
fb
00
14
09
ff
09
06
0b
0d
0a
1d
05
e7
ee
ef
10
02
00
02
19
28
0a
12
06
fb
fe
ff
02
04
1b
1b
04
10
02
0e
0d
22
19
27
22
f9
dd
f2
09
fe
13
1b
22
23
0e
fa
f6
e7
f3
07
0d
0e
11
1e
07
02
03
04
08
26
19
2b
2b
09
f6
f6
0c
fd
0f
14
26
0f
18
f6
f3
f0
06
0b
17
0f
0e
1a
0d
06
0e
07
02
15
08
16
21
30
10
09
09
fb
02
1f
21
01
fa
fe
04
ff
0d
13
06
fe
0d
01
06
0d
08
0f
0a
f7
00
05
1e
1e
01
e1
fb
ff
06
10
08
f3
f9
09
06
0b
14
17
08
08
fd
01
09
fe
06
0a
0d
00
1b
01
16
fb
fc
e5
fd
fb
0f
10
e5
fd
07
0b
0d
05
07
08
00
fe
f4
03
04
fe
07
0a
0d
23
19
1c
23
18
fa
d5
f5
00
06
0b
0b
17
fd
06
0d
07
11
06
ef
f5
f6
ee
03
02
11
0a
1c
16
01
0b
0a
fa
df
dd
e9
06
ff
fb
13
20
04
00
13
05
03
f3
02
f7
e1
f4
ff
00
12
11
11
05
00
0d
03
fe
dc
ec
03
06
00
f9
0b
05
ff
f2
f5
09
fd
05
fb
f3
f9
f5
0b
04
0f
05
0c
01
f6
03
f9
e8
ef
f1
e4
00
f9
f8
05
f9
fa
ea
f6
fb
ff
0c
ef
f4
f3
fd
10
07
04
f8
f7
e7
00
fb
fc
de
c5
df
fc
04
07
fa
f0
ff
02
04
fc
0c
04
08
f2
fe
04
07
15
fb
f8
eb
fb
ea
dc
dc
e3
d3
de
eb
00
04
f7
f6
ea
f5
f9
04
06
00
ef
00
09
03
0c
06
03
01
f5
f0
f0
dc
d8
e5
d4
d9
e4
f9
00
fe
03
f3
e9
ec
e7
f1
0c
f5
04
07
0c
07
0e
02
06
f6
ed
e7
ea
da
cf
de
d6
d0
e3
f5
06
03
fa
f3
08
08
fc
f8
00
fc
ff
01
01
06
06
fb
fa
e6
f1
e8
df
d7
d5
d9
e2
ef
df
ec
00
ff
fc
ed
1c
1e
0e
02
ff
f1
f0
03
05
00
0c
0a
fa
fc
ea
d6
de
e0
ef
d8
e6
fd
e7
ff
02
ff
00
fa
f0
02
05
fd
0d
14
0c
0a
0e
02
07
03
f9
f3
fd
f6
00
f5
f0
e8
ef
08
fe
04
fb
fa
03
01
03
ec
e5
e6
fe
0e
ff
0c
0e
06
11
04
fa
06
14
ff
f6
06
05
0e
0f
fe
fd
06
fa
fd
fa
03
fa
fe
fd
f2
ff
fa
02
13
fc
0f
03
10
f8
f3
e5
f8
e2
f3
f9
f8
00
03
fb
01
00
fb
06
fb
05
09
0f
00
04
f2
f2
e8
ea
ec
ea
e9
f5
f2
eb
f6
f8
f7
f6
f6
f7
03
03
01
04
fb
ff
03
0b
10
11
05
06
ee
ee
e6
e3
e3
ec
f1
f1
e8
df
eb
ee
e4
e5
ee
f0
ec
fc
fa
05
fc
05
05
0a
0e
15
07
f7
f5
f1
ec
ea
e7
ed
f0
ea
e3
e4
e0
e3
d9
dd
f1
e9
ed
01
fc
fb
00
fc
fe
06
0d
23
19
0e
0c
fa
fe
ff
0c
0f
fb
e6
eb
cc
c5
c9
d8
e3
e3
f2
f2
f5
ff
fe
fc
03
0a
0e
1a
2a
33
13
0a
0a
04
11
14
14
f9
d9
d0
bb
c2
d1
e5
df
e0
eb
e7
00
13
03
05
fd
03
0b
26
32
25
14
0f
06
02
03
0a
0b
f3
f9
da
bc
bc
bd
cb
d4
e2
e3
f1
ff
02
fe
ff
fd
1d
28
24
f8
0e
07
11
0f
03
04
f7
05
05
fc
06
e9
e2
b5
bc
cc
c1
d9
de
e7
ff
09
fe
11
00
31
27
0c
10
0a
00
08
04
0d
07
17
13
18
17
07
e6
d2
ba
ba
ba
cd
d8
d5
f8
05
ff
0e
01
17
30
04
0e
03
08
09
0b
0e
0f
1c
26
22
16
1a
fe
dd
bd
b3
bd
c0
c8
dd
fb
fb
06
09
06
30
2c
18
13
19
15
0c
08
fc
0a
21
32
25
25
15
05
f0
d5
bd
b5
ac
b8
d0
01
11
01
07
0e
24
1f
2e
30
19
0e
f6
00
f9
f8
15
23
22
1e
10
14
06
ed
c8
d1
b4
b8
d6
f5
ff
fd
0e
16
27
16
18
fa
07
f7
ed
fa
ff
f1
fe
1a
16
19
1c
16
0e
15
ed
e3
c7
af
c4
e0
08
ff
0b
0b
14
12
1a
f9
f0
f6
f9
f4
05
f7
05
1f
20
18
16
19
01
f6
df
da
dd
ca
d0
f9
0a
ff
09
1e
0d
17
f5
ee
01
fb
fb
f4
fe
ed
0f
1b
1d
1c
16
01
ef
e4
d9
d5
f5
f5
e9
f0
0d
04
09
0e
16
fc
e3
e7
f0
fe
fc
fe
f3
fa
08
03
09
0a
ff
08
ec
eb
ec
ea
08
f2
f6
0c
04
04
0c
0a
fc
f2
db
e9
f4
02
05
02
ff
ff
0e
11
0a
02
06
fc
ef
04
f5
f7
ef
fc
ed
f9
00
fb
05
fd
fe
fd
df
e9
f9
02
03
11
02
03
11
ff
fe
08
f7
f7
f6
fc
fb
ff
f7
f2
fc
f4
16
05
fa
f4
fc
f9
e2
dd
e5
f4
fb
fd
02
03
fc
06
06
fb
fa
f6
03
04
00
04
f5
e2
1d
1f
04
ff
fd
ef
f7
f2
f5
e8
e0
ed
f5
04
fa
f9
fd
f9
06
04
01
01
04
08
02
fb
f8
e9
23
1c
17
02
f5
f1
ee
e9
de
da
df
e2
eb
fd
02
fd
01
0d
00
0d
08
fb
04
fd
fb
f8
fa
eb
01
0d
09
ff
0e
ea
f0
eb
d8
eb
ef
f6
fc
04
02
0b
0b
1c
13
02
0c
fe
10
05
ef
e0
e2
08
00
04
04
06
f7
f5
f6
f5
e4
db
fb
f3
f5
07
0b
15
1b
10
0c
09
ff
fd
02
fc
f7
e3
de
fc
10
fa
fe
fc
fa
f9
f0
fc
f9
f5
f5
03
0c
ff
0c
02
0e
11
0a
08
fd
07
fc
ff
e2
eb
f9
f7
fb
08
fd
fb
f7
04
0e
fe
fa
f2
04
00
00
01
06
0a
08
08
05
fb
02
0e
f8
f7
f1
ed
f6
f5
fa
10
fd
04
fa
fa
05
0f
15
03
fb
f2
f4
03
f9
f6
01
ff
04
0d
05
f6
f5
f8
f4
e7
f6
0a
f5
05
06
fb
fe
01
ef
ff
0f
f6
f5
ff
fc
f3
00
07
02
0f
fb
0d
07
0a
18
09
0e
ed
e5
02
fc
ff
05
00
06
03
ff
fe
fb
f7
0a
20
21
24
13
0a
05
18
08
29
32
2e
2c
1d
28
13
14
fb
06
03
fb
fe
06
fe
fc
05
fd
ef
f6
f4
ff
07
f9
01
01
13
05
0b
fe
09
03
fd
00
04
03
03
00
04
fd
03
fa
ff
f5
0c
0d
11
12
11
1a
1b
0c
13
05
fe
f8
f2
f8
fc
f2
fc
f8
13
15
f9
eb
fb
06
05
04
fb
f3
fd
05
08
1e
16
13
13
0a
0b
f3
fa
f4
ec
f7
00
fc
09
18
16
21
1e
f3
06
04
06
ff
05
f5
07
f9
0b
0f
15
10
0d
0f
0d
fc
06
fe
f8
ff
14
0f
15
10
25
0b
0d
f3
fd
ff
04
fa
06
fe
ec
e3
04
20
0a
14
0b
09
06
fc
02
05
05
0f
10
17
11
21
24
13
1c
f4
00
00
04
02
f7
01
04
f0
f8
0e
fd
fb
fc
fa
f1
f4
01
09
0c
17
15
10
07
20
10
1c
0c
08
09
01
03
04
00
f6
fb
ed
07
01
01
00
08
05
f9
08
08
0e
14
1b
10
16
09
10
02
01
1d
24
1e
fb
06
03
0a
e7
fc
0d
0f
fe
11
fb
02
04
00
02
fd
0d
07
15
03
19
0a
07
16
08
17
26
fd
13
06
f1
f8
f4
f0
0f
04
17
06
06
fe
0a
07
f1
f9
08
0f
14
18
13
04
05
02
13
13
1c
09
04
03
fd
f8
f6
f1
19
0f
06
00
00
01
05
09
ff
fb
03
15
0f
15
0b
11
07
01
11
26
13
05
06
0c
0a
f9
f0
fb
ff
0c
04
02
00
fa
04
f5
fd
0d
05
0a
0f
02
ff
02
0a
fc
0a
25
21
00
f3
0d
09
13
dc
1d
00
ff
06
f5
fb
fd
00
fb
1c
25
11
04
03
0e
f5
05
fd
0f
12
2c
0f
04
09
15
07
20
e5
14
05
11
13
ff
ff
ff
fd
05
16
13
ff
12
05
ff
f3
f2
ff
02
22
1f
0c
1a
0f
0b
02
12
04
14
0a
1b
15
03
fe
ff
09
ff
08
f5
f9
09
01
00
ee
f8
00
03
0b
1b
08
e9
09
fd
0b
24
0e
0c
16
1b
20
0f
14
18
02
04
f1
e3
f4
02
fc
01
09
00
06
06
14
f8
fa
de
f2
fa
0f
11
f4
05
1d
1b
1a
1b
26
23
1e
07
f3
ea
fc
fd
08
06
06
0b
0a
0c
06
0a
fb
f5
04
01
ec
0b
fd
f3
05
0b
22
19
23
28
1d
0d
ea
ed
f7
f4
07
0a
06
0d
06
f9
0f
08
04
e2
ef
fa
fa
f8
f7
f4
fd
05
0c
15
17
10
10
f2
e6
f2
03
fa
07
0d
15
0a
09
f8
02
fd
f9
d8
ed
00
f7
f0
e9
fb
ff
06
01
fc
05
14
02
ee
e7
f6
03
15
15
15
10
0d
04
01
f9
11
f3
e1
fe
fa
f7
f7
ee
f6
f5
f6
f8
09
04
0c
00
ec
f6
02
0b
10
10
0d
0a
04
03
01
05
f6
f1
f5
eb
fa
f9
04
ef
01
fd
f4
f2
fc
00
02
f9
00
f3
02
0a
14
07
09
07
0e
05
01
f1
08
e9
e1
fe
04
0a
08
f2
f1
01
fa
fa
fc
02
09
00
00
0a
02
12
0c
03
01
ff
fb
fc
07
f8
e6
ea
f4
03
fb
fb
f8
f2
fa
07
0b
04
02
05
00
fe
0b
0d
14
19
07
0a
00
f0
f1
e7
fe
f4
d5
e9
f4
fa
fe
01
fc
f8
f6
fd
09
0f
07
08
12
fd
0a
10
06
0b
07
fd
f5
f9
e7
f1
e8
ee
db
f2
01
03
01
07
f8
f7
07
05
01
01
fb
08
0c
03
06
03
14
09
06
f8
ed
ee
f1
e7
dc
ef
df
00
ec
02
fb
ff
03
fc
f7
00
09
07
02
10
04
0a
16
07
04
00
fb
f2
f3
fe
e4
d6
d9
ed
ed
ef
fe
fd
04
ff
ff
0e
06
e7
f1
ff
fb
f8
f1
00
f5
f5
fc
00
fe
0a
fb
fb
ec
e9
fd
fc
fe
ff
05
05
06
fd
fe
0c
fc
ef
e9
f0
f5
fc
f1
01
03
fe
fa
fe
fd
ff
fc
f2
e5
e3
f1
ef
fa
02
03
04
ff
03
00
06
07
f8
fc
f8
f7
fd
08
0c
0e
13
02
fd
ed
f6
f6
ee
f2
e1
e7
fc
00
04
04
ff
03
04
fe
f8
01
fc
0b
0a
08
0e
17
04
07
ff
f5
ef
f5
fd
f8
f1
10
0d
0f
0c
f9
f2
05
fc
00
fc
00
f5
f9
fb
fa
f7
0d
fb
07
0b
02
04
fa
f2
f9
04
fd
ff
f9
0a
02
05
1c
0b
fc
fa
06
ff
04
f8
f6
f5
f1
f0
f7
01
fd
04
01
04
f8
00
f9
05
f8
fb
01
f3
04
07
0b
03
ff
fc
fc
05
fe
fa
e6
e5
e2
f2
e0
f3
e3
fe
f8
ec
06
02
f8
01
fe
f6
fb
ff
0e
fd
f0
0e
00
fe
02
fb
e7
fe
ee
d9
e3
e1
e4
e8
ef
f7
ee
f8
00
07
0b
08
08
10
03
14
19
1f
27
18
11
fb
fb
04
ff
ef
d4
da
df
e0
fc
04
fe
13
0e
09
07
10
0d
1a
0e
14
14
0e
05
0c
04
0f
f6
06
05
02
1a
dd
e7
f7
ee
f9
0b
f9
10
1c
1f
14
17
20
16
19
06
1e
12
1a
10
0a
08
0e
f8
e6
fd
e7
ef
ed
cd
fb
f6
05
f9
09
14
19
14
0e
10
16
13
18
13
1a
10
18
11
20
0f
0d
f3
fd
00
f2
03
e6
d3
f7
00
00
0c
11
0b
0a
02
08
06
12
1a
0f
25
1e
15
18
0f
18
41
2b
14
07
f8
f8
fa
de
cb
e2
0d
03
06
13
0b
0c
fd
0c
05
09
1d
1e
1c
16
18
01
04
11
33
23
1b
f1
fb
ee
ff
d0
eb
e8
fa
00
07
11
05
01
01
01
0b
07
10
0c
0d
0d
06
05
03
11
21
27
09
12
fb
f3
e6
de
e7
ed
15
0c
09
09
05
fb
04
f7
fe
06
09
10
04
f3
fa
fd
f9
0b
1c
11
2b
f5
fe
f0
ed
f0
f7
07
13
0a
08
fe
f5
07
f9
0d
fe
13
0e
09
01
11
05
04
fd
08
ee
f5
f5
f9
06
f9
de
01
01
0c
09
0d
05
fd
02
01
fe
f6
f0
08
0b
03
0d
0e
1d
0c
09
fa
e0
f6
ea
ed
02
f6
ed
f2
11
ff
07
05
fd
fb
08
03
ff
f9
f4
fe
09
13
0b
0a
13
02
0f
f7
07
ec
da
fe
04
fa
ec
04
fe
fd
03
0d
0b
0d
1a
12
04
ea
ef
ff
0e
0f
10
06
02
f7
01
02
f2
e0
e7
f7
03
fc
f9
f1
ed
ff
0b
06
18
0c
15
08
f9
f3
fe
0b
0e
13
08
02
f9
f3
fd
06
f3
dd
df
ea
ff
ff
f2
f0
ea
03
15
0a
17
19
14
0c
f7
f5
03
06
10
0e
02
03
04
01
f3
f9
08
d2
de
fb
fe
ff
08
f8
f6
0b
16
07
18
19
1b
0b
fc
f8
00
08
08
00
00
01
01
fd
f6
f9
e9
c4
e8
ee
fc
0a
13
fb
fa
0f
06
07
02
05
04
f7
05
02
03
01
f9
f8
f9
07
ff
01
fa
fa
0c
e5
de
f3
03
19
08
f8
ed
07
ff
fb
fe
fc
02
fb
fa
0d
00
fb
fa
fa
f8
f4
f3
0a
17
0b
f5
04
f1
06
fb
07
f5
ec
f4
f9
04
f3
f7
fe
ef
fb
fc
f7
03
0a
f5
fa
ef
f0
fd
fe
0a
01
f3
f8
fb
01
02
02
0d
07
ec
e7
f4
02
fd
fd
04
f6
01
0a
01
02
01
fa
f5
f7
fe
0b
05
17
03
ff
02
04
fc
01
03
0a
01
f2
ef
ed
f8
f9
0c
fb
09
0b
06
02
0a
08
f3
f8
04
0a
fe
0c
0a
ff
e4
fc
fc
05
02
fb
00
f9
f2
f6
f5
f8
07
fb
09
ff
fc
05
f9
fb
00
15
0a
f2
ff
32
fd
f2
02
00
fb
fb
fc
0f
07
05
fb
f6
e3
e7
ec
ef
d4
ed
e4
fc
fc
fe
09
01
06
fd
f9
37
1c
00
fe
06
fb
00
06
01
09
18
00
eb
e3
ea
ed
ee
fd
ed
ed
f8
fc
05
02
01
0a
fa
f0
f6
fc
01
fa
00
01
04
fc
fc
06
01
fb
f9
fc
f1
f0
ff
fc
e8
ef
fd
f2
0f
05
0a
fa
e8
f5
00
00
02
06
00
fb
04
fc
03
ef
ea
ea
e4
fc
fa
fa
03
ff
0f
12
14
14
0e
0b
f9
f5
fc
fc
f1
03
ff
04
fe
04
05
fc
0a
f2
ee
ef
f2
eb
04
0b
fb
02
13
10
22
1a
19
22
03
e8
f3
ef
f7
ef
05
fe
06
fd
fa
fd
fd
ec
f5
f2
ef
ed
f6
e6
05
f9
13
1e
29
17
0f
f7
07
ed
e6
de
f0
ec
ff
fe
00
fa
02
f8
04
09
13
fa
e1
e5
e7
fa
fc
00
08
22
1a
25
04
f1
e1
d6
d0
d6
e0
d1
f7
06
00
fd
fc
0b
f1
f2
01
ec
e2
f6
05
fb
f8
fe
20
1b
2a
29
0d
fd
dd
d7
c6
ce
c7
d9
f4
05
00
01
fd
ff
ff
f5
f9
00
05
f7
02
fe
ef
f7
f8
14
27
2b
2d
13
fa
d1
c4
ca
be
d8
e7
f8
fd
ff
fe
08
01
f7
01
ff
f0
ef
02
04
e0
d1
ee
fe
1e
2e
35
23
ff
d7
c5
bb
c1
d2
e5
f4
fe
05
16
ff
08
06
06
fd
f6
f2
f6
f9
dc
d0
da
f7
23
3a
3d
1a
ff
de
c6
c2
c1
c8
de
f3
03
fa
02
1c
33
21
05
0b
ff
f2
01
fa
d9
c4
d4
04
3a
40
2f
15
f5
df
c8
c2
bb
c5
d8
f6
fb
fb
07
23
12
13
f9
f1
f4
fe
e8
e7
d5
ca
db
13
45
3d
25
f9
f0
d9
cb
c9
c5
d0
de
fe
02
01
0e
1b
21
fd
f0
df
f0
e5
e4
e7
e7
e8
f3
1f
40
2f
17
fe
ef
d2
c6
ca
cb
c6
e8
f2
01
ff
10
1b
22
ee
e7
dd
e0
e8
f2
f7
eb
e8
f7
2c
33
17
00
fd
f1
d6
d7
df
d5
e8
fb
09
f3
03
08
20
00
d0
e3
eb
f9
f8
fe
00
06
f4
e5
0d
23
18
fb
eb
f5
da
d7
cd
db
0a
16
11
f1
01
05
fe
00
ed
ed
02
f9
fd
fe
ff
01
de
d7
01
18
f9
ef
e4
dd
ec
e4
e3
ec
fc
26
11
05
02
ff
f9
f4
04
06
f0
fd
0b
15
18
f7
e0
e5
0d
0d
f9
fa
e8
f4
f7
05
ef
0d
02
27
0f
fd
fe
06
05
04
10
0f
09
08
10
13
09
e0
cd
e3
04
10
01
00
f5
fd
ff
0d
07
00
fc
22
29
09
fa
03
19
0d
0d
06
10
1f
0f
18
f6
cf
d6
ea
0a
01
0f
06
0b
06
08
0a
0a
17
1b
1e
28
0a
ff
01
1d
15
11
02
01
14
05
02
e8
d4
d4
e9
0d
17
18
19
0d
03
0e
0c
0d
18
12
18
14
03
04
0d
1c
0e
0a
10
0b
ff
fb
02
ee
df
e6
f8
08
16
1b
25
0f
19
1a
17
1b
16
22
01
13
19
fb
0b
01
16
f5
10
10
08
f3
ff
f2
df
de
fd
15
17
25
29
14
24
12
24
21
13
01
13
1c
02
02
fe
01
29
04
fb
0c
09
f3
fb
f4
e7
e5
f0
fa
0c
10
23
16
27
28
1f
13
12
22
16
13
fa
02
09
21
22
f7
fc
f3
f9
f5
e8
e7
e0
d4
ec
f5
03
05
15
1d
1d
10
1e
1d
01
0c
0f
04
fc
04
fd
09
21
0c
03
01
f3
ef
f3
f0
e9
e4
e9
fa
0c
04
13
14
1f
1b
19
15
ee
10
08
09
02
02
fd
0c
0f
07
02
f6
04
06
05
04
fd
e9
f9
ee
06
0d
07
14
1b
17
03
fc
f8
fd
fa
16
06
ff
fb
07
0c
14
fe
f6
03
01
01
f8
ed
df
f8
f4
dd
f9
fa
12
0e
fb
fa
f1
f5
07
13
fd
fe
04
02
fd
00
05
fb
f7
ed
f3
f0
ea
e4
f5
e8
e8
cf
e3
f7
04
f6
e8
dc
f4
f6
f3
06
06
fb
03
03
fe
00
04
fb
f3
f0
f2
f2
f5
f6
ea
f6
f1
fb
f6
f1
0a
14
d9
e4
f0
02
fa
00
02
fb
ff
04
06
06
ff
ff
01
01
fa
f6
f1
f1
ea
07
01
0a
24
2b
fe
11
ff
fc
04
fd
fb
04
fe
fb
fe
fd
02
fc
fe
01
f9
eb
ec
ee
e6
fe
fc
f7
f8
0c
0e
0e
03
01
0b
fe
06
02
05
03
fa
01
04
04
fd
04
ff
00
ec
dc
dc
e3
d8
e0
dd
da
f7
f6
fc
f8
f4
f9
fa
e9
e4
fb
13
11
00
ff
fe
00
fe
03
ec
ff
ec
cf
ce
d2
d1
dd
cc
de
eb
f6
e8
f8
ed
fc
04
02
e9
04
07
12
00
fe
01
04
02
03
06
ed
cc
b9
b5
aa
cb
d3
d7
d3
f3
ee
f9
06
12
15
2b
1c
f2
e0
f1
04
ff
02
fd
ff
00
fa
f7
e7
ce
cd
ce
d4
e4
e9
e9
e5
e7
ed
ee
e9
03
08
0e
10
09
0e
2b
09
0e
03
fb
02
05
04
e9
f3
e9
f1
ec
e8
ec
e8
f6
ed
f6
f3
f5
f8
02
0a
08
f4
07
10
02
f7
f8
ff
ff
ff
0d
f9
f5
02
03
08
01
fc
fb
f6
f8
f1
f8
f8
f6
f5
09
17
0f
0b
0b
0e
16
08
12
ed
03
fe
f0
f4
fc
05
15
fc
fc
f9
fd
f0
f3
f9
01
ff
02
07
11
07
0b
f8
0c
13
17
1a
15
fc
01
fd
0d
0b
07
09
05
f3
ed
f6
f6
00
f8
00
f3
f6
00
03
07
11
11
02
16
16
1a
2d
0d
02
fa
f9
09
fe
06
f1
e7
ec
e9
f4
f5
00
fe
fa
f1
e7
f0
08
0e
07
0a
14
15
1a
1d
24
1b
0f
02
f9
06
0b
dd
f7
e3
f3
e8
e8
f5
ee
fc
ee
e9
f6
ec
fe
f9
01
07
02
ff
01
04
13
0f
05
ff
f9
f1
fd
d4
f1
f6
e9
e8
eb
e3
df
dd
d8
e0
e0
f4
fd
fa
fe
f4
f0
f1
d8
f0
ff
05
fc
fa
fb
f6
f2
e2
e6
07
f2
e5
ee
f3
da
e4
e3
fd
ef
ee
f3
ee
02
ff
f7
f5
d8
ce
e9
09
03
03
00
ed
f2
0b
08
17
0e
fe
fa
fc
f3
ed
fc
fe
ec
f9
02
07
02
0f
04
ee
e7
fa
f2
20
05
fe
fe
fd
15
2a
2d
30
24
1f
12
05
f1
f6
0c
04
04
09
16
ff
07
15
03
fe
f9
0c
fd
0e
fe
02
15
00
23
31
39
41
39
42
31
24
0b
0f
17
19
11
1b
22
0e
0f
11
08
05
ff
f1
ed
2e
0b
fd
ff
16
14
1c
3b
3f
42
40
45
38
24
24
0f
1e
1a
22
23
15
fe
0d
08
0c
fa
02
0e
1c
09
04
05
0c
10
0c
18
23
29
2a
2d
35
1c
06
07
0c
19
21
1f
1d
10
0d
11
fb
fa
db
fa
07
fa
05
08
11
18
0a
0e
06
14
ff
fa
04
fb
e7
e6
0b
20
1d
18
13
13
11
0b
fc
f1
ec
f0
fa
0d
fe
05
04
12
04
03
fa
dc
d7
c8
d1
d0
b8
da
ef
0f
1c
15
1f
11
0b
06
ea
f5
f5
15
18
fa
fa
08
06
10
f0
e8
df
bb
bf
b9
b6
c1
c2
de
fe
16
1a
16
15
0f
0d
0d
09
05
0c
2e
09
00
02
0d
09
02
f9
da
c2
c2
c2
c5
c0
dd
e9
fc
01
09
15
0e
11
11
0e
1b
03
1a
1d
1e
00
fc
06
fc
09
00
f9
df
ca
d0
dc
e0
db
f3
00
0c
07
0b
05
0b
0b
0d
12
15
13
12
33
18
02
fd
fe
07
00
03
0f
ea
fa
f6
ef
f1
f1
0b
11
1b
15
15
03
fe
07
13
1e
16
1d
1e
1c
19
01
00
fe
fe
02
17
08
fa
0b
02
06
03
01
18
14
26
1e
1c
0d
0e
0a
0c
18
28
23
1f
0b
0f
01
05
ff
05
fb
f7
fe
f4
09
00
05
f8
0d
fc
11
0f
0b
0d
0e
06
04
0c
15
19
2d
13
06
00
05
01
02
fc
02
06
fc
f5
f4
e3
da
e9
e0
cd
df
df
d9
ec
f7
eb
f0
06
19
0c
fd
09
fb
05
03
00
fb
00
01
ff
f9
02
f4
e9
e5
f3
de
e8
ea
f2
f1
fd
17
1c
16
1a
1b
f1
09
fe
fb
00
05
fd
fa
03
fd
04
09
00
00
f9
f4
fd
f3
f6
f4
ed
ed
01
fb
fe
f4
fe
0e
15
f4
f7
0a
17
fb
03
03
fa
fa
04
06
0e
fe
f9
fe
fa
f2
ff
ee
00
06
fa
04
00
f9
f6
f7
fb
02
e9
f3
11
fe
00
fc
02
03
fe
01
0a
fb
ea
f0
0b
f9
f3
f6
fb
00
0a
03
f0
f2
ef
fc
f7
01
ff
f8
0e
fe
fc
02
ff
ff
09
0a
07
08
fc
0a
02
f8
11
03
0e
07
f5
e8
db
d6
e3
ea
f5
0b
08
03
04
01
02
03
03
fa
09
f9
05
09
ff
fe
fc
f8
fa
fd
01
f1
f1
e8
e8
de
f1
fc
fc
06
0e
03
fd
f1
00
fc
fe
fb
0f
08
14
04
e7
0a
03
00
f6
fa
01
f8
e5
df
d6
de
e5
f6
09
07
ff
07
e4
e4
ff
02
03
07
1d
0e
17
14
fb
00
05
f8
fc
f3
ee
f5
f0
e8
ef
e7
fe
fc
06
f9
f7
d4
d3
e7
e9
03
f0
24
26
06
07
09
0e
f6
03
01
02
f5
f6
f7
fb
fc
f9
ff
06
ff
08
fd
f0
df
de
e4
f8
03
08
05
05
06
06
09
01
13
12
0a
0f
f8
e8
eb
f9
f2
fd
03
f8
01
fa
e8
01
f3
e2
e6
f4
07
0e
fc
ff
00
0b
0b
f6
fd
fa
0a
f9
ef
e8
e6
fc
fe
0c
06
ff
0c
f4
e6
f3
ed
d0
f1
fb
09
0c
19
e8
05
1a
05
06
10
15
14
0a
f6
e6
e0
ef
06
00
06
04
06
ef
ff
ef
e6
c7
cc
f6
05
15
28
f6
11
12
0f
29
18
25
24
1e
0f
e2
ea
f2
05
03
f6
fc
15
0f
16
f6
e2
b7
ce
02
0a
0c
22
0e
08
18
06
17
1d
0e
23
3f
11
e3
d9
e9
05
ff
09
02
0f
18
31
14
09
dc
ee
ff
fd
13
2b
02
0c
10
07
1a
10
0f
2d
29
10
ed
e4
00
0c
0e
07
10
23
23
26
17
0a
0d
10
14
fa
0c
25
ff
17
0e
0d
18
17
1f
2d
2e
fe
e3
df
f0
18
19
1d
35
29
1d
27
1b
ee
0e
16
fa
ff
ec
fd
26
f9
e6
01
0a
11
1c
28
14
e5
cf
ec
23
1b
25
2a
37
35
27
22
f8
ed
ef
2b
0e
fb
04
e0
00
f5
04
10
2d
2f
19
10
e2
c9
df
15
2d
2d
31
27
25
22
2a
14
e8
db
f9
06
14
fc
08
09
e9
e2
07
15
1e
2a
24
f6
c7
bd
07
32
42
2d
1c
20
1e
28
08
06
eb
03
11
04
00
01
03
08
f3
fa
0f
09
11
15
04
db
b3
c5
11
2a
1c
17
15
21
0e
13
f3
e4
de
e2
05
f3
fb
04
04
05
fd
04
00
06
0c
fe
ec
c4
bd
e8
1d
25
08
03
04
01
0b
f4
e5
f5
ed
f3
fe
16
fa
06
09
08
12
fb
02
f5
e7
ea
d4
c8
e4
00
14
13
05
f3
ee
f8
eb
de
df
ed
ed
0c
f7
00
ff
06
06
19
0a
06
06
e9
d9
ee
f1
ec
f1
14
0b
0e
02
01
fd
e9
de
cf
df
df
f8
03
e6
0e
04
00
02
0f
05
f5
fb
ee
ee
fa
fc
fe
0a
06
06
fe
fc
fb
ff
e8
e9
dd
e9
f3
f3
0a
02
09
00
fa
fa
fc
ec
f1
e4
f4
ff
ff
01
07
03
06
06
08
06
13
12
07
eb
f7
10
f5
ed
fd
ff
ff
05
00
fa
ea
f3
df
e9
f0
eb
fb
fc
02
f8
10
0a
fd
04
17
17
01
10
20
0e
0e
e9
f6
06
fb
01
ff
ff
fb
fd
eb
e0
e9
f2
e8
ee
f1
ff
fa
fa
10
15
0d
08
17
08
13
0e
f8
e1
f0
fa
01
04
00
fd
01
f9
f9
e4
f3
00
03
fe
fd
fd
00
f6
08
fb
fc
0c
fd
0e
fb
15
16
04
fd
03
fc
02
fa
fd
fb
03
f9
f8
00
fb
06
0e
16
f9
f5
fd
f4
fb
05
16
18
19
19
17
14
05
fb
fb
fa
fa
fe
00
00
06
06
0f
0d
0f
11
16
0a
f1
fa
ee
f1
ef
fe
fd
02
03
20
12
07
0e
fe
f9
06
ff
02
fe
fd
0e
10
15
0f
09
0c
08
00
fb
f4
f3
fb
f1
f9
fc
fe
06
03
0f
08
0c
0c
0f
fd
06
01
fd
01
02
06
18
15
fe
fd
ff
e2
ef
ec
f2
e7
e9
e6
eb
e9
f1
f2
f2
ff
0e
04
08
00
00
ff
06
fb
08
10
09
fe
04
fd
fa
ef
f3
ec
e1
ee
e5
e7
f2
ed
fb
f9
0d
08
f0
ec
14
01
ff
02
ff
fd
08
fc
00
00
fa
f8
f8
f3
ef
ec
f4
f1
f1
ea
f6
ea
f0
f2
f0
ec
e8
0a
05
07
fa
00
01
fa
ff
f1
f4
f5
fe
06
0c
06
10
0f
f9
fd
ff
05
fc
fc
f3
f4
fd
ee
ed
ee
08
ee
ff
fd
02
ee
08
fb
07
06
fa
06
10
fa
fb
fc
f6
fc
02
f8
f8
d7
f4
eb
fe
fa
04
07
04
03
f7
fa
00
1b
15
f7
0c
05
11
07
fc
ff
ef
ea
eb
f2
f3
f2
e5
f5
f7
f5
09
10
13
12
13
02
04
fd
0a
0d
11
fd
0e
0f
18
14
0a
0a
02
06
f6
01
f9
02
02
03
03
11
10
13
31
2d
2f
1b
0b
0b
09
07
0f
06
04
08
00
14
16
0f
0c
11
0d
0a
08
0b
10
0c
05
11
12
0a
23
1c
2a
29
14
01
05
13
fc
fe
fa
fa
00
02
11
0b
10
14
17
1d
15
16
1a
11
07
07
20
14
0e
18
26
28
08
01
14
13
f8
03
f7
fe
fa
f5
02
03
0c
14
0a
09
fa
01
04
02
0a
fc
fc
20
16
1a
16
26
ee
00
09
0f
0c
e1
e7
d7
ea
fb
fb
fd
05
05
fd
ee
f7
f5
02
06
04
01
04
09
ed
0a
1a
2e
f6
fd
0c
15
e5
d5
d9
de
dd
fa
05
0f
10
ff
ed
e9
ea
ee
00
04
06
06
fb
fd
f9
00
1c
30
0c
02
09
0f
e0
de
eb
e7
f4
f9
fc
0f
05
01
f7
fe
f2
f5
0b
fc
04
08
ee
06
f8
0d
0d
00
04
fd
f8
06
06
ef
f3
fa
fb
fc
06
09
08
fb
ef
ee
f5
00
0b
05
06
f4
fc
f4
01
0b
f2
11
02
06
01
f8
0b
ef
f4
0b
03
0e
0f
10
07
05
fb
01
07
0f
0f
00
06
ff
09
fd
ff
07
01
14
07
fa
06
02
ef
03
0b
1c
0d
05
0e
03
00
fe
0b
0b
0f
09
0a
05
f6
fa
03
fc
03
13
00
16
02
fe
ff
0b
f3
06
1d
11
0f
0c
06
04
fc
12
10
0c
00
0c
03
04
02
01
02
02
03
02
ee
fb
13
01
02
0b
fd
0b
12
0b
0f
08
fb
f1
f3
03
00
08
02
03
ff
fe
f2
fa
f5
f4
01
fd
01
15
03
00
0f
05
05
f9
07
09
08
05
f7
f2
09
f8
fe
f7
fe
f2
f0
eb
eb
f4
03
f6
fa
0c
f2
05
fb
04
10
0e
09
fa
03
02
f0
f6
0c
f7
f4
f9
f6
fb
fc
fc
f9
ef
f5
f5
f8
fe
0e
03
fd
01
ff
fc
fb
13
15
01
fd
00
0a
06
08
03
00
fd
00
01
01
fd
fe
f8
f5
f6
04
ef
0c
1a
0f
fe
03
00
00
14
f1
12
04
02
fd
fa
0c
10
09
04
09
03
0e
13
05
01
02
fd
fd
f2
07
18
18
fe
fb
01
04
09
fa
f4
0a
09
fc
ff
00
03
f9
04
03
0a
01
07
01
08
0e
fe
00
05
e3
fa
06
01
06
fb
fb
00
0a
02
e5
08
ec
ef
db
ef
f3
e5
e5
eb
04
00
0a
06
f2
de
fa
03
ee
fd
02
fb
ff
00
04
03
07
f2
e1
e0
f5
ef
ef
e6
ef
f4
e6
e6
eb
e7
f5
f1
06
fa
fc
05
fb
04
fc
06
05
04
01
fe
04
07
02
05
f7
fa
ff
01
e5
ec
05
ed
ec
03
1d
19
07
03
0b
03
03
04
02
05
ff
04
fe
01
f7
ec
eb
f4
f8
ff
04
02
09
04
0d
07
f9
ea
f7
f9
f1
e5
e7
fe
09
f4
f3
fd
fe
fa
03
fa
f2
f4
e5
f3
01
fa
04
0b
05
0d
03
f6
f2
f2
f0
f7
fb
06
01
f8
0c
fa
f3
00
ff
ff
fe
02
f9
f6
de
ea
07
06
fa
0d
0d
0d
f4
ff
00
05
f8
06
ff
f9
01
f7
ec
f0
f4
fd
01
fe
fc
06
f7
f3
f8
ef
0a
0e
15
1a
0e
26
17
0c
13
16
16
12
12
01
f7
fd
fc
10
f7
fb
01
fc
00
ee
f1
01
06
f8
09
05
08
21
1e
07
11
0a
0f
1a
1b
0f
0c
00
f8
ed
fa
e9
fd
08
04
ff
00
fe
fb
11
04
11
06
ff
0f
11
0d
02
fb
fb
01
03
11
0d
0f
0f
07
04
eb
01
0e
1e
01
fc
fe
ff
0d
10
04
05
01
01
05
fb
f8
ee
ec
e6
db
f1
f1
0f
0c
10
04
04
fb
0c
14
f4
16
05
0f
f3
0f
16
10
f8
f6
05
fe
ec
e9
e3
e2
df
de
dd
f3
03
09
0b
00
fc
f6
12
fd
10
03
07
0e
f7
08
0c
11
fd
f8
f9
fe
f4
f0
f4
fd
fb
f9
03
fc
f6
00
11
08
0d
f9
f8
fd
fe
06
01
09
f6
0f
23
0f
01
fe
fd
ff
fd
02
09
09
18
0d
12
06
f3
f1
f7
02
0a
fb
15
1d
f9
e9
02
0b
01
1e
23
0a
06
fd
fd
03
07
0d
19
2a
2e
23
1c
09
00
e8
fe
fd
18
2c
2d
11
29
11
f7
0d
13
0d
1e
02
f4
f4
f7
f5
02
07
0b
27
22
16
06
03
07
f0
f6
fd
09
26
2b
21
23
07
f9
04
01
0d
08
00
fb
fa
f3
08
0c
fd
08
0e
10
03
03
03
00
f5
f3
f9
ff
0c
1f
1a
1a
09
05
05
19
13
00
ff
0b
01
09
0f
0c
04
09
0c
fc
02
f8
f2
fe
fd
ed
f8
fe
13
13
01
e2
06
05
08
07
0c
ea
09
13
0a
07
15
1c
08
09
ff
fd
00
f9
eb
f8
fc
09
0f
07
0c
17
fe
f6
01
05
12
07
f1
08
20
0b
11
06
0e
05
f3
fd
f9
f8
f2
f0
f3
0d
11
16
07
08
18
34
04
e4
f9
05
06
0f
17
1b
ff
0e
0e
08
0d
ff
ef
ea
df
dd
f8
fd
0a
11
17
0b
04
0b
08
1f
fe
f2
e8
fd
ff
fd
1b
23
0d
0f
0c
f4
f2
f3
f5
e3
c9
d3
f7
08
0f
11
16
fd
f6
03
07
0d
f6
07
fb
06
01
fd
0d
12
05
fe
f8
fc
f1
f6
f6
e0
e3
ee
03
11
1d
0f
03
ed
ff
17
17
0b
0d
fb
f0
04
fd
fc
06
0e
03
fc
fb
03
fe
06
01
0c
04
04
14
12
06
00
eb
f3
ff
08
00
ea
f5
e8
f6
01
05
f6
ec
01
04
06
08
0f
17
15
0d
24
20
18
14
0d
06
f1
f2
e6
ec
e9
e9
e0
ed
f6
fc
fb
ff
f0
ee
f8
fb
0c
11
09
11
13
1e
18
1b
14
0d
01
ff
f8
fb
e1
e2
ee
ee
e6
f8
ff
fe
ff
fe
f1
ed
fd
ec
09
0a
00
11
17
0f
19
05
00
08
f7
f5
f3
df
e0
dd
00
dd
e5
fa
fd
03
ff
05
f8
02
0f
05
f8
fe
fc
02
08
0b
05
f7
f4
e6
db
d6
da
e5
e3
e1
eb
f3
f9
f0
e4
02
fe
fd
00
13
13
04
fa
fe
f5
03
fa
08
02
fa
f3
e6
dd
e6
e4
d8
e3
f6
ea
fc
0a
fd
fd
fa
fe
ff
fc
f4
fe
06
10
0e
15
06
01
ff
06
f3
f2
ea
fc
ef
ea
ea
e5
f1
ff
00
0f
02
01
05
ff
fc
fc
f8
f5
ee
f9
01
12
14
0d
18
16
23
06
08
fd
f7
ee
e8
ef
f0
02
fd
fb
00
06
fa
01
01
05
fe
f3
f7
f5
09
0f
08
19
16
13
10
0f
f7
e5
dd
ec
e6
ec
ec
ea
00
fd
fd
05
05
04
fa
02
fa
e4
ec
ec
f6
08
06
08
0c
10
0c
0a
fe
f5
01
ff
fc
f5
f5
0c
05
ff
01
06
fc
03
fb
02
f9
e1
d9
ed
ef
06
09
0d
16
0d
10
03
ff
00
fe
02
ff
08
0d
0f
10
11
f8
fc
fd
00
00
ff
fa
e3
dd
ea
fb
04
05
03
08
09
0c
03
fd
0a
fb
02
f8
fe
0a
04
07
07
fd
fc
02
05
fc
02
fb
f4
f9
fb
f8
05
01
14
12
10
11
05
0b
06
07
08
f8
f5
f1
01
fe
f6
0e
02
06
fc
06
11
f7
ee
e2
ec
f9
02
03
12
12
0c
0c
18
19
1d
0f
05
fc
ff
ee
f2
03
03
03
03
fe
fd
00
fa
fb
00
ed
f1
fc
f5
ff
0f
1b
12
08
05
0c
06
00
fb
fd
fd
fa
fb
ed
f3
0a
00
04
05
04
f9
00
fe
fe
fd
0b
f8
10
11
14
0c
0a
0b
05
fa
ed
ea
f2
f6
f9
ed
f3
19
12
10
f3
02
0d
f5
f5
0f
fb
06
05
1d
14
08
13
09
05
07
fe
ee
e4
e2
e7
fd
fe
02
00
0f
16
0a
00
00
fa
ef
f7
fd
00
06
03
05
07
10
06
06
07
06
f6
f1
ed
e6
fb
0d
0a
0d
0c
14
26
20
08
f5
f3
ef
eb
f9
0c
f2
f1
07
09
fd
12
09
f6
f8
f4
fb
fb
05
06
02
0c
21
19
25
3a
11
e8
f0
fa
e7
13
09
fc
fe
f5
f2
00
06
08
0f
0b
01
fb
fd
00
05
f5
fc
06
fd
0b
14
34
18
07
ea
ef
e6
fa
11
ff
f3
ea
ff
f5
fc
06
1b
15
0e
fc
f3
ff
fd
f7
e8
dc
d2
d7
f3
1f
21
ee
f2
fb
e8
fe
fb
e8
e6
e3
f3
fb
06
0a
18
19
14
01
f3
fa
f8
00
f1
e2
c5
b5
b6
f5
1f
eb
fa
fe
ee
f7
f4
df
e9
ef
fc
02
f9
ff
0b
11
11
fe
f8
f6
fa
fd
f7
e1
d0
b8
cf
d4
14
0d
fe
06
f4
f6
db
e7
eb
f0
ec
f9
f4
f4
f8
19
21
05
f5
fc
f0
e4
ea
dc
e5
cd
d8
e4
04
02
ff
ee
ee
f8
f0
fc
f5
ed
f4
f3
e7
db
ee
13
0e
00
f7
ea
f9
f0
ee
e7
e8
e5
05
0c
20
0b
ff
fa
fc
18
16
f6
f9
e4
e9
f7
ef
da
e5
01
0e
0c
ff
f8
ff
04
fb
04
08
01
19
1f
1a
16
02
f8
01
25
20
12
0a
f6
ff
fc
f6
e8
ec
f3
05
0b
02
05
06
07
08
0d
05
03
fd
08
19
01
00
fa
03
21
22
1d
16
03
05
00
f7
fe
07
14
0f
0e
0d
0c
06
14
09
08
19
06
17
13
18
19
fd
00
07
14
25
19
0d
07
08
0b
07
05
0b
17
0f
18
0f
1b
0e
08
fc
07
0f
18
06
09
14
05
ff
fb
0d
10
19
17
12
0f
0d
0a
0b
0b
0b
0c
02
0b
1a
13
10
0f
0a
14
1a
16
02
10
0f
fc
03
fa
fc
02
14
0c
0f
09
09
06
03
06
0e
08
03
0a
0c
1d
16
16
0c
18
1d
1e
16
18
02
ff
fc
fe
00
f6
1b
0a
0c
05
00
f8
fd
02
03
f6
f3
07
09
0d
18
00
12
18
16
1a
14
03
04
00
05
07
0a
13
0f
0b
fa
f5
02
04
f7
fb
03
02
f8
06
07
fd
04
03
17
06
33
1c
09
12
07
02
05
fe
15
0f
06
f6
f8
f4
f9
00
f7
ff
04
02
0d
09
06
10
1c
17
08
18
19
09
17
09
00
fd
05
fc
fe
05
ff
f9
fe
fa
05
fd
09
fa
11
10
0b
17
13
14
10
ff
0a
09
15
1b
0d
fb
03
02
04
05
fd
fc
02
0f
0b
f2
eb
fa
f0
ed
f8
fd
f3
04
02
f0
ff
f4
f4
03
0b
fe
fd
fe
05
fb
fb
fa
03
ff
f7
00
0d
12
13
06
f1
06
07
03
06
09
00
f1
fb
f6
f8
0a
11
fd
fc
ff
03
fc
01
ff
05
fe
ed
e5
ee
ef
eb
f8
01
fb
03
00
04
06
ff
ff
fe
00
f7
f6
07
03
f5
f7
fe
03
01
04
04
f6
e3
d9
db
e2
e4
f5
00
0b
10
13
19
16
1b
15
0f
06
08
0a
00
19
0f
f7
fa
fa
05
fa
ff
f2
e6
d8
d0
d9
e7
dd
05
0b
11
14
22
20
21
14
13
1d
09
0c
06
0e
10
f3
04
00
fb
fb
fc
f3
ed
e1
dc
dc
e7
fa
00
f0
0f
08
0e
1c
28
20
22
22
14
1b
11
01
07
03
02
04
fd
01
0b
f8
fc
e6
db
e5
f9
f6
02
0d
10
11
1d
18
21
21
15
fe
fe
06
10
0e
13
1c
07
04
00
fe
fb
ed
e8
f3
f8
fb
f8
09
18
16
12
15
24
1f
22
16
02
fb
f8
fd
0e
05
14
1f
0d
05
fd
fe
09
fb
fb
04
f8
03
ff
ff
18
14
24
13
15
24
19
01
ff
f9
02
f7
ff
fb
1a
27
12
00
fb
07
e7
f4
f8
fa
f9
fd
18
10
0c
0d
17
08
21
19
0b
f3
ea
e8
f1
f3
f4
f8
05
1e
18
fd
01
fd
f9
f7
e6
ef
f0
00
11
0d
02
09
04
11
17
04
ef
ea
d6
e0
d7
e8
e7
ec
02
15
19
07
fc
f6
f4
dd
dc
eb
f9
0a
10
07
f6
f7
01
02
08
01
e5
d6
d0
d0
c7
db
da
e1
03
18
11
03
f7
f7
e9
e9
db
da
e6
f7
fc
01
09
0e
19
21
1b
04
ed
e0
d4
d0
b9
bb
ba
c8
e1
14
16
ff
fc
f6
e8
e4
e0
e1
ea
e7
fd
00
0b
1e
2a
34
1b
fa
ee
eb
e7
e7
d0
c8
c1
b2
c4
01
09
0f
06
f7
e8
e7
e0
e4
f1
f2
02
0a
17
16
2d
20
0e
f2
ec
f1
fe
fa
f5
f0
d9
c7
b7
df
fc
0a
fc
fd
ec
f1
ed
ef
ed
01
06
0a
09
09
19
15
0f
f9
ef
fd
fe
ff
05
06
eb
da
d7
d0
f2
f4
06
fe
fa
ff
f3
fb
fc
f3
fc
0c
01
fe
f8
