07
06
fe
f2
e8
ec
f1
eb
05
08
1c
19
16
16
0c
0a
07
00
06
fe
00
00
03
07
fc
fc
fe
05
01
02
01
f4
e2
de
ec
ef
05
0d
17
16
20
14
0b
08
13
09
07
f5
03
05
01
11
0f
0e
04
ff
01
fc
03
eb
ef
e2
ec
ff
01
0f
15
16
27
0a
06
00
00
0e
15
10
08
0e
ff
12
1f
07
fb
fa
ff
03
f9
f1
ee
ec
e0
f4
fc
09
17
11
10
0c
07
0d
0c
0b
0a
fb
f4
fa
f7
00
14
1b
03
04
fa
fd
ff
f9
db
d7
de
f9
f5
10
14
19
17
0b
1a
13
0d
0b
fa
05
ec
ec
f6
0c
2c
1a
fa
05
fa
fa
03
ff
e9
dc
e8
ec
02
0d
19
1c
15
0d
fe
f9
04
fd
f1
f0
ed
f9
f4
00
10
33
28
fd
06
01
f7
f0
ea
fd
db
08
0b
13
15
12
08
f7
03
f9
f2
ec
e5
e8
e6
e2
f3
fe
19
3a
2a
08
fe
f9
0e
de
f4
f1
ff
f8
1d
11
1c
13
ef
e6
de
e4
f1
de
dd
de
ec
e7
00
ef
0b
41
30
fb
04
f0
ec
e3
f3
f4
f8
f9
0f
15
16
03
d5
ce
e1
f0
f7
ea
e3
f1
e8
f8
e5
f9
12
2e
28
11
04
f9
e5
e9
e4
f1
01
03
0b
19
15
03
d9
ca
d5
f4
06
ff
fb
f8
f6
f4
eb
0b
21
2c
12
f2
fb
ef
e8
ef
f8
00
0f
07
0d
25
23
fc
d3
b9
d7
fe
ff
00
f7
01
f2
fc
e8
fa
31
1f
20
02
ff
f6
df
e7
f1
0b
17
14
2a
29
19
f7
da
c9
e8
f5
f8
ef
fd
05
04
fc
e4
05
2c
33
27
11
01
f6
e4
e8
03
01
0a
12
18
20
19
07
de
da
e4
ee
f3
ee
ea
08
06
fc
f0
f4
04
16
10
05
04
00
e9
e7
f0
0b
f7
13
26
28
2a
0f
03
f4
fb
f8
03
f3
f8
fd
10
03
0b
fa
ff
04
2c
1a
ff
02
f5
f8
07
10
0d
10
21
26
20
19
06
0b
01
04
12
0e
f7
ee
fe
f3
fe
e2
fa
11
20
fe
00
eb
e8
0c
0a
07
0e
17
1b
2a
18
0f
00
0e
00
09
22
15
fb
f4
e6
e0
e6
e7
fe
2f
21
14
fb
fe
f4
08
fd
12
1e
0d
11
19
20
14
11
f7
0a
09
1c
16
f5
df
ee
f3
f2
ef
04
3d
28
12
ff
01
06
09
f4
05
0e
f7
19
1e
27
12
04
0e
fb
04
0f
07
f7
eb
f7
ec
f5
ee
05
21
1d
02
06
06
01
fd
07
05
19
16
0b
14
14
06
18
0c
05
fb
f9
fc
f8
f5
fb
f0
f1
06
18
1a
15
15
07
0e
10
f5
02
06
0c
11
11
05
12
0b
0f
15
06
fe
f9
f0
f1
f7
0b
f8
08
0f
fa
09
17
09
05
03
09
0d
06
04
02
06
05
fb
0d
14
10
19
0c
0f
03
fb
07
fa
01
16
12
04
f9
15
11
fa
04
0b
14
1d
09
ff
01
fe
08
0a
0a
16
1b
14
0d
0b
06
04
0d
01
0f
18
1c
36
19
20
09
fe
f9
04
0f
21
1a
08
01
00
00
fe
04
08
08
15
0c
04
01
02
11
02
0c
19
10
21
21
14
01
07
fe
04
10
ff
02
00
e7
f1
04
f6
f6
fb
05
07
11
06
0a
fc
05
0d
1b
2c
37
3e
2d
21
fb
fd
fa
ff
12
04
f9
fc
e7
f3
f6
fc
f0
f6
fb
f4
07
06
00
00
2a
1d
16
1a
32
13
23
10
04
01
fc
05
00
15
0a
f6
0f
12
fd
fc
04
06
04
ff
f9
0b
0c
0e
06
fe
11
02
15
26
04
fa
06
03
fc
ff
0b
0b
10
09
13
10
0e
fb
04
04
1b
fd
f1
fa
ee
e8
fa
ff
0d
06
fc
fe
00
fe
fc
00
03
f9
06
05
02
12
17
12
0c
11
0b
17
ff
f5
f4
0d
00
fb
03
1b
14
01
09
03
fe
04
05
fa
fb
01
fc
02
00
f6
f7
f6
fc
f0
f8
f1
f1
ff
07
f3
00
e9
f5
eb
e6
eb
ff
ff
fa
0b
fb
00
fb
fc
01
fe
f1
f8
f8
f1
f6
f1
ed
f5
fb
f9
07
1d
0f
fa
02
eb
ec
ee
ed
09
1b
13
fe
02
fa
fb
fa
fb
fd
f3
e7
ea
eb
eb
ea
f8
f5
12
21
25
04
f0
e1
e6
e3
ec
f2
fc
0f
10
fa
fc
05
05
01
fa
f4
fc
ec
fa
ed
f1
f0
fb
fb
10
25
14
f6
d6
d2
db
d9
ed
02
f5
fe
0a
02
fe
03
fc
1a
05
00
ef
d4
e6
e2
e8
f7
0c
05
2a
26
04
e0
d9
cb
e8
fc
04
0a
12
f7
f8
f9
02
05
00
01
f7
e9
e0
c3
cd
d8
e6
15
18
26
21
1f
15
e3
c6
d3
e5
09
0e
25
21
25
e2
e7
fa
06
fc
05
fd
f2
dd
c8
c8
d3
dc
07
20
2b
2a
16
f2
cd
c3
c5
d7
ee
01
11
0e
05
f2
1d
0b
fd
fe
f7
f0
f3
e3
d8
e0
de
f4
13
2b
24
2e
16
e3
cd
d3
d9
ea
f8
05
09
16
01
18
1c
05
fe
fa
fa
f4
e7
d7
d5
e4
ed
f4
09
1b
2a
13
0a
e9
d0
e2
f2
05
fb
fc
f3
02
00
14
fc
f5
f8
04
ff
e8
f0
d6
f1
e7
e9
eb
05
18
10
06
f6
e3
dd
f3
08
08
02
0b
f7
f8
0b
ed
fd
f1
f8
10
0f
fe
f1
da
ee
f6
ec
fc
0c
14
09
02
07
fa
e1
ff
09
07
fc
05
00
e2
fe
ff
dd
f6
05
fb
f9
05
e3
e7
ff
ff
fc
09
09
0c
15
0e
19
08
ed
e4
ff
06
f1
05
08
01
f7
dc
f2
13
05
fe
e1
ef
d3
e0
15
12
11
1b
0e
10
17
16
1c
11
f1
eb
fb
03
f7
09
0c
0c
05
d6
d6
14
04
00
ef
dd
e8
02
08
12
10
0b
0a
10
0e
09
1b
0b
e9
f4
fa
f5
0f
0b
14
02
e5
e7
fc
dc
06
fd
f4
f3
f0
09
0f
1e
1c
18
06
0c
13
07
16
01
ef
f4
ed
f3
00
07
0f
f6
1b
ea
e2
03
fe
f8
fe
02
04
03
0b
20
1c
0f
09
1e
1a
16
15
f4
f0
ed
02
f2
ed
fe
02
08
f9
f3
db
f8
ff
fd
0e
fd
10
1a
05
14
11
0f
0a
1e
22
0e
0e
e9
db
f0
fe
04
06
00
ed
fe
f5
d9
d2
ec
07
05
07
f9
f5
0e
fb
fb
02
05
0c
1b
2b
29
17
f2
de
ec
fe
00
f5
fe
07
f1
f3
c9
da
ff
06
01
12
f7
fd
fb
fd
05
04
0c
0b
1e
36
29
1f
fe
e6
f1
f3
0a
f1
fc
ec
e8
f0
c7
f5
f0
06
09
01
05
f4
04
0e
13
05
13
0e
26
2a
19
04
fe
f0
e6
ee
e8
f6
ed
ce
c2
0b
f0
f1
fe
fb
0e
05
04
f7
f9
02
04
f9
fc
0b
1a
16
09
09
f4
ed
ef
e6
f1
dd
ed
cc
dd
dd
e5
19
02
07
03
f9
05
f7
08
fb
f0
f6
02
fa
03
08
06
05
05
ea
eb
e7
e3
ea
de
d7
e3
cf
dd
09
04
fa
02
fe
00
ef
10
0b
fc
00
08
10
0d
0e
0d
04
fa
fb
ed
e2
f1
d1
d6
c8
e2
e2
ea
05
01
fc
00
fd
e4
e8
06
0c
01
f7
13
1d
20
1f
10
0e
09
0f
fc
e7
db
cc
ce
d2
f3
e2
2b
19
f9
02
fb
02
e1
e2
e2
ef
ee
f0
07
05
0d
09
fb
ff
dc
d1
da
be
c4
b7
cf
03
e6
f1
0a
04
fb
fd
00
ff
f9
d3
b7
d3
ba
c7
d6
e1
e5
d2
d3
cf
bb
b1
b9
ad
c0
cc
d0
e3
00
f1
ff
02
fb
fc
02
06
00
e9
d8
bd
c4
d2
e6
d6
e6
de
c7
bf
d7
cf
ce
ce
ee
e7
dc
fd
f8
02
06
ff
ff
05
00
fa
fe
05
02
fb
dc
e4
e3
d0
ea
ed
f8
e6
f7
f9
02
f4
0c
0d
e4
fd
00
fc
02
04
01
fd
06
fc
04
12
12
fb
f3
f7
f6
e5
f5
f7
f5
ff
05
fd
fb
12
15
0a
05
f9
ee
fe
05
ff
06
02
f9
fc
08
12
1f
fb
00
f7
00
f5
f8
f7
fd
0c
0f
1a
0e
09
0c
0e
0b
03
00
eb
f2
fa
06
01
00
fc
fc
f9
16
0a
fe
03
f3
fc
f9
ed
fb
05
13
12
07
01
f9
01
fd
f6
f2
f0
f3
00
00
f9
01
fd
ff
07
11
ff
f5
ff
02
fd
01
fb
04
fe
05
0c
03
00
f6
f0
f2
0c
02
f8
ee
ff
03
05
00
17
fc
e4
04
01
eb
01
00
03
f4
f5
07
00
fd
02
07
0a
fb
0f
e4
ed
dc
e6
ed
0a
ff
fd
ff
03
0b
0e
0a
04
fc
e6
ef
f3
e9
00
04
08
06
15
0b
0b
01
12
0b
12
f2
ed
00
f3
06
00
06
f9
10
f6
04
f3
f6
e3
01
04
fe
04
ff
fa
0c
0b
09
0a
10
05
00
0d
fd
f6
f3
f2
0f
fc
1f
17
16
0d
f8
06
fd
00
fc
0b
f8
fe
0a
fb
04
0c
04
0a
0d
0c
13
11
03
ff
fc
fa
05
01
20
2b
22
10
f0
01
19
06
fe
03
f9
12
0e
10
ff
03
15
0a
10
0c
0c
1b
0d
eb
ee
10
12
05
1f
15
1b
07
01
0c
10
05
0a
f6
05
fe
fc
05
fd
09
0f
00
11
0e
12
22
1d
fb
0c
26
17
04
0d
12
0a
f6
ee
0b
fe
11
07
ee
dd
d0
d0
dc
e7
06
07
06
12
01
18
0c
f6
ef
02
08
14
0a
02
03
f1
ce
e0
d1
fb
e7
df
c9
bd
a8
a8
e1
fd
09
0c
0d
08
fd
05
18
07
fe
fb
07
fb
05
01
f0
db
c9
b6
b3
c4
cf
d2
d8
bf
b9
c0
ef
0b
0d
0b
10
00
1a
08
06
0c
23
0f
19
04
04
00
fb
e0
bb
b6
aa
b2
cd
d5
d4
d2
dc
f6
15
10
0e
01
03
04
04
04
07
01
18
26
0a
08
fe
fe
06
de
cb
cf
d6
d7
d3
c8
de
f1
04
0d
25
13
03
00
f1
00
00
04
00
f6
fe
0a
15
02
06
f8
e8
da
e6
ef
f2
e9
e5
e2
f0
0c
0c
33
26
1f
04
fc
fe
03
f5
ee
f9
e3
09
ed
03
0e
f9
02
0d
0d
00
fc
10
f7
f0
f9
08
0e
1d
2f
2a
0b
06
fc
06
fc
f2
ea
f5
ec
07
05
10
03
03
04
19
18
14
01
0d
02
11
15
07
1c
2a
1e
13
ff
0e
07
fb
04
ef
e1
ee
f3
0b
11
1b
03
fc
04
0d
04
00
11
01
02
ff
08
08
13
10
15
09
11
08
0f
0a
11
0e
fd
f4
fa
19
14
10
03
06
fc
ee
02
15
08
0b
20
11
1d
0e
fb
fc
08
09
fe
03
0c
0c
05
ef
ec
00
0b
11
15
0c
0a
fc
fa
ee
0b
1f
06
22
23
2c
10
0e
0b
fd
03
09
08
03
ff
f9
ff
f5
fb
f8
0e
1a
f9
0f
f9
02
03
09
1a
0d
0e
1b
23
2e
18
17
05
f4
06
0e
03
f9
fd
fc
11
07
08
0c
0c
0c
03
05
fb
04
06
f7
f0
16
2b
2a
20
19
09
00
04
fc
fa
0b
03
00
fb
f8
01
08
0d
16
fd
0a
f3
05
f9
07
05
09
eb
17
0e
28
1f
1b
0d
f9
02
04
0d
06
fa
06
ef
ff
fd
10
0f
0d
0d
f0
f3
1c
ff
ff
02
1e
0b
fc
08
15
04
fb
fc
f6
07
06
03
0b
00
07
01
04
f5
0f
21
12
f2
0d
13
fc
05
07
05
05
02
fb
e4
10
0c
09
09
0c
09
ff
01
01
0b
fa
fb
f8
00
14
0b
06
e2
eb
fe
02
fd
07
ff
03
01
03
fb
fe
08
02
07
06
fe
06
fc
f8
05
f2
00
00
02
0b
08
03
f8
07
07
07
05
fa
fc
05
fd
05
14
11
15
15
07
14
05
04
0d
09
fe
00
f6
fc
fa
00
17
fd
04
01
02
ff
fe
03
06
00
f9
fa
f0
eb
ea
df
e3
eb
e8
ec
e3
ee
ef
f3
01
0e
0d
f7
08
fb
f8
01
09
05
fb
ff
06
04
ff
ed
ef
e8
e0
e2
d7
d5
e5
e5
e8
fb
00
f9
14
16
0a
01
03
f1
fa
ff
04
04
f9
fd
fb
fe
f8
ef
e0
d1
cb
d3
d5
d7
dc
e4
f0
f8
06
07
12
10
22
17
19
fe
05
08
11
03
02
06
04
01
00
f9
f3
e6
d9
c9
db
d9
e6
df
f1
03
f9
fc
06
11
11
16
1d
0f
0b
08
e8
05
01
00
06
07
02
e6
01
00
f5
e8
dc
d2
e3
e0
ea
e5
e7
f7
0b
02
fc
05
f5
01
0d
ec
ee
f8
01
f9
03
06
f6
ea
17
11
ee
e4
d3
d8
ca
d4
e1
01
01
00
17
10
fd
f5
fd
01
00
01
e7
df
fc
03
02
ee
f1
ec
06
f1
e5
dd
cc
c0
c7
cb
de
fe
08
0e
14
1d
f3
f0
ef
ff
f1
ed
fe
10
0e
fb
e2
0a
ef
d7
db
e1
cc
cd
be
c4
d3
ea
08
16
15
0b
1a
0e
fc
01
01
0a
ea
e6
04
08
f7
ff
fa
fd
eb
d9
e2
dd
c7
c5
c4
c8
e2
03
16
16
18
03
0a
04
f4
fb
f5
06
e3
e8
f3
f2
fa
f1
f8
f3
da
d7
dd
d5
d0
d6
cf
da
dc
ff
11
1c
0e
f7
ec
f3
f7
f3
f4
e0
e5
dd
cc
fb
e3
fa
fc
f4
ef
d9
de
c6
d3
d7
d9
d9
eb
fa
0c
0a
0f
f1
f4
e9
ee
e0
d3
d7
d0
ca
e9
de
e9
02
f3
df
da
d9
da
d3
dc
e4
e8
01
10
14
21
0a
00
09
09
fe
07
de
ed
ce
c4
c7
c9
e1
fe
fa
f9
e6
c7
d0
d2
d6
f2
e5
f9
13
26
28
1d
08
06
0c
0c
23
25
0c
f4
e9
f1
fc
e7
d3
06
02
f7
df
cb
cc
dc
de
f0
f5
fe
17
24
1e
12
10
0e
1e
22
25
19
16
f0
fb
f8
ec
f6
0a
0a
03
f7
f6
eb
e4
e7
e1
fe
fe
10
1d
23
0f
19
05
0c
21
18
1c
20
f6
e0
02
fd
0e
1c
fa
06
02
06
07
e6
f3
df
e0
f7
f7
11
1a
2a
20
1a
0d
13
23
21
11
10
de
de
e1
f1
f9
27
1b
0d
00
ff
e6
f0
e0
02
f3
05
f9
f9
14
1f
13
0e
15
16
24
1a
02
f2
0a
fe
fa
ff
01
25
2e
11
fe
04
0c
e2
e5
06
fd
fb
fe
f4
ff
fd
0a
1b
1e
28
1b
f5
f4
ee
fe
0a
05
02
00
26
2c
fc
00
fb
0b
f1
07
03
06
fd
df
ea
ec
f8
fc
14
15
16
0a
fb
fc
01
10
1d
1f
1c
2b
3b
1f
18
fd
04
08
fb
24
0f
0a
08
e1
e9
e7
fa
ff
05
08
05
08
fb
06
0d
18
1d
1f
39
34
1a
29
17
fc
06
0f
02
13
f2
ec
ec
e2
d2
df
fb
01
f6
fb
fc
fc
02
10
16
12
12
15
10
2b
00
15
f9
01
06
0d
13
f7
f3
dd
e4
dd
dc
dc
f3
f8
f6
f8
f1
ef
fe
05
01
00
15
0c
0b
1a
f7
09
fa
02
06
06
19
05
ea
e1
d9
e2
e6
f6
e8
e2
e5
f3
f2
eb
fe
17
1b
07
0e
07
0b
04
fe
0f
fa
fb
fa
01
f3
f8
e1
ec
e4
f1
ea
e2
e7
e4
e1
e4
eb
f2
00
0d
12
0c
13
0b
02
ee
ec
19
07
ff
fc
07
f1
fa
f7
fb
f0
f1
00
ff
e8
eb
ea
ea
e5
eb
ec
05
01
f8
fa
0e
04
02
15
02
ff
fc
fd
03
06
04
ef
d7
ec
e7
ec
f6
ff
fc
00
09
f0
ef
dc
ee
e2
ee
eb
ed
fd
eb
00
04
fe
03
01
06
02
1a
05
f7
ff
ea
f5
17
08
09
03
12
1e
20
04
0a
02
ed
f4
fe
07
fa
fd
fb
ff
fa
fb
02
ff
ff
01
01
f0
e6
f9
e2
0a
fc
01
0a
27
24
19
fc
0e
01
ed
fa
05
05
fd
06
05
02
fd
fb
06
03
fa
13
17
08
fd
04
0d
06
06
fa
01
11
0d
0c
08
fe
00
11
09
09
05
01
fa
05
fd
ff
0d
ff
08
fa
f9
05
02
0d
09
00
f5
fa
02
09
08
15
1f
16
0f
10
1a
14
15
00
fe
ff
04
07
04
f7
fa
0a
1b
0d
fd
0f
0f
05
fd
f8
03
04
13
0f
24
16
22
08
05
04
04
fb
f9
00
fb
ff
00
fb
ef
f3
11
13
0c
11
02
06
0d
03
0a
12
01
18
0c
fe
07
f4
0a
09
09
03
04
06
03
fd
ff
0a
02
03
03
1a
0c
0a
18
15
f8
f7
0a
f7
fa
00
f9
f4
01
03
0e
03
16
17
05
05
fb
ff
14
ef
10
1d
04
00
08
12
0c
0d
0a
fc
fd
fa
03
0d
06
fe
ff
10
03
0e
28
22
fb
06
01
10
0a
15
05
01
1b
02
07
04
14
09
0e
06
01
0d
ff
0a
09
09
01
0c
09
12
24
27
fb
06
06
de
0d
03
fe
10
17
18
10
0c
0a
1a
14
1d
01
06
01
ff
f5
04
f9
ee
e3
fb
23
20
05
00
05
ef
fc
01
0f
ff
0b
12
00
0c
14
10
20
24
fd
ff
f9
e5
ee
e7
f4
ea
ea
e6
07
0f
00
f8
0f
04
00
20
08
0b
13
02
03
00
15
10
0f
0f
ff
ec
e7
e5
d4
cd
de
fb
ee
ee
f6
fe
06
f7
ff
00
24
01
0b
07
06
04
fc
f5
02
f3
fb
fc
fd
f4
f8
e7
d3
d0
cc
d3
d9
cf
d9
00
05
f9
f6
05
0b
03
06
f8
fc
f5
e1
e0
e4
e6
ed
f2
ef
00
10
0d
f6
d6
e2
e4
d3
df
dd
fb
f0
fd
f4
02
00
f1
01
ff
f2
e7
ee
e1
ea
ec
fa
ff
f6
07
0c
08
fa
00
09
ec
eb
c6
df
ef
f4
00
09
01
f4
f0
e8
f1
fc
fb
fe
ec
eb
f4
f4
fc
f8
02
12
08
f9
0d
15
0f
02
f9
dd
f4
fc
01
0c
ff
f1
cc
bd
e7
f8
09
04
02
f1
ec
ed
03
02
fc
fc
0e
f8
04
fd
11
1d
0d
f4
0f
03
04
0b
06
e3
b0
bd
db
f3
fd
09
08
02
ee
ec
ff
f9
fa
07
10
0b
00
09
06
14
28
f9
26
f8
fa
06
00
d5
ad
a8
a0
ab
c0
dd
f0
07
04
f0
fb
04
08
fb
16
1a
14
14
19
1f
36
25
32
11
05
fd
f0
e0
b4
98
93
85
a1
9b
bd
cd
d0
d4
fd
02
ee
0d
13
09
18
0d
10
1e
0a
1b
1e
ff
ff
00
f2
ea
be
ab
95
95
a1
88
89
84
87
94
e5
16
14
1a
1b
18
14
12
1f
08
22
19
0e
05
04
05
fa
ec
ec
cc
d4
c5
be
b4
b1
a3
a9
cd
10
3c
35
25
17
18
1d
18
03
fe
14
0d
0d
f9
01
fb
f0
f3
fc
ff
f8
f7
00
fc
01
09
f7
09
30
38
2f
2f
18
1a
08
12
20
19
1a
10
01
02
fd
02
f1
fb
08
1a
1a
23
2a
1e
33
33
2c
27
26
2c
1f
0f
0d
15
0c
12
08
1e
01
17
0c
fa
fc
05
f3
0b
27
10
22
20
30
32
27
22
1c
0f
13
14
0c
13
0f
0d
1a
09
07
08
0d
e7
02
06
05
12
03
16
20
17
29
29
29
30
26
17
0e
0a
06
11
f6
f2
f8
fa
fc
ef
f9
f6
f5
e1
fd
fa
00
fc
0e
05
0d
16
27
25
29
22
0f
20
0b
00
06
0b
f0
f6
eb
e9
f9
fa
ee
0a
dd
03
05
fc
fd
01
f9
f5
06
1e
21
24
20
0a
15
09
1d
09
0a
07
08
ee
ea
fe
f8
12
0e
1d
06
03
06
05
05
01
fe
fb
e9
0e
11
fa
0c
03
04
01
01
19
1a
19
11
11
16
15
1e
1c
13
11
fe
f9
fe
06
fe
fc
fa
01
fb
f2
ee
02
fb
f8
f3
03
fa
01
08
06
f2
e2
f1
e9
f8
03
fa
00
fa
03
03
fe
fd
05
05
01
09
04
03
0c
fe
00
fd
08
19
19
1b
28
2d
19
07
10
14
0e
fe
f2
09
02
fe
fc
07
01
01
01
16
16
11
0c
0d
1c
10
20
23
30
2a
2d
3b
16
0b
03
06
f1
f0
ea
f0
04
01
07
06
fb
fb
02
0a
1a
0d
0b
08
18
19
14
1b
23
21
1a
21
1a
09
00
00
f5
f9
fc
ea
06
06
00
fc
fc
fb
02
1c
13
00
ec
f5
06
14
0e
04
03
1e
16
1a
26
10
13
18
fc
f7
fe
e1
fa
01
00
fe
fd
01
ff
05
02
fe
fc
04
06
16
0c
19
0c
16
20
22
0c
1e
10
21
02
10
ec
1f
ee
fb
fc
01
fb
06
1b
f9
06
fc
f7
f9
fd
06
0e
13
1a
0f
0f
16
0e
16
13
16
0e
16
06
f4
da
fd
05
03
fa
0c
19
fe
06
f1
f6
11
18
14
0e
0e
0c
19
0a
1b
19
1b
1a
15
19
0f
0a
da
cb
f0
f8
fb
1b
0b
1f
06
f4
04
fd
fb
f7
07
f6
03
05
0f
07
09
14
24
2b
1d
17
22
ff
04
db
e1
01
04
05
f3
1c
01
e7
f3
f2
f2
ea
f7
e4
ea
e9
ed
07
0a
1e
27
25
29
10
18
0d
f2
e1
da
f2
0b
0d
03
0c
fe
e5
e7
e2
ce
d4
f1
e0
da
d0
cb
e7
07
22
33
2c
28
0d
1b
00
f1
e9
d8
00
0a
f8
f6
1d
d0
f4
e4
c6
c6
d7
d7
e1
d6
c0
b7
d4
f5
17
17
33
2b
19
04
fd
eb
fe
ec
fa
0a
04
13
06
cf
db
cb
c3
d1
e0
ea
e1
e4
da
c4
dd
e7
06
13
38
30
1a
0c
e6
f4
f0
ec
f7
fc
09
08
00
c9
bf
de
cf
eb
f8
0d
f4
04
e7
ef
f3
fe
fc
13
23
20
05
03
db
e9
ee
07
02
fe
0b
27
08
ec
d1
fc
f2
11
0a
0f
02
09
06
01
f5
f8
09
10
15
17
fe
e9
d1
f3
0a
02
fd
fe
03
fe
0a
fd
f6
1d
23
16
14
08
00
0d
0f
04
f8
fc
1a
13
12
0e
eb
e1
e0
f3
0d
1d
fa
fa
0d
02
04
21
1f
2a
0d
0e
02
fd
f3
fd
f2
f2
fe
1c
26
12
0b
f6
ee
e8
e0
f3
04
0e
09
fe
fa
1c
21
21
1c
12
0e
08
0e
fe
ed
dd
ec
e8
0d
1b
26
14
f2
fb
fa
fe
f7
00
10
22
0d
fa
0c
0c
2c
20
0d
fd
f9
05
fd
f8
f2
ed
00
ff
1a
1a
1c
0b
f7
f6
f0
f6
f3
eb
1f
11
04
03
09
13
1c
18
0a
03
0a
01
f7
01
f9
f5
fe
0f
12
1b
0e
0d
fc
f3
e8
f4
e1
f5
28
0b
05
fd
0d
fa
28
0e
04
01
fe
02
00
ed
f8
ff
13
09
0a
07
03
fc
02
fd
e4
f0
e2
f2
1e
10
00
fc
19
f5
27
11
0a
fd
ec
e2
f2
e7
f7
0c
00
09
ff
07
00
ff
fe
fd
da
e2
ec
0e
07
11
01
fb
08
0e
17
09
f9
e5
e5
e9
eb
fc
00
0c
02
fa
fa
05
f4
eb
03
00
04
f4
04
0a
fc
08
02
04
01
0c
0d
fb
d7
e2
e2
f3
f4
ff
1a
13
04
00
00
fb
fd
ee
f5
f6
fd
08
fa
0e
01
fd
fb
fb
fa
06
10
f1
dd
ec
ff
01
f5
07
0d
07
f6
fb
f4
eb
fe
0a
0b
04
03
0b
04
0e
ec
f9
fb
ff
ff
02
11
17
08
03
0d
0c
fd
14
17
fd
f9
f4
f5
f0
fd
ec
fd
13
10
06
f4
10
12
fb
fa
fd
03
07
f8
12
30
1c
21
16
17
0f
11
ff
f3
f4
e2
f3
f3
f0
fc
01
13
04
ff
00
06
fa
ff
07
04
05
01
13
03
16
0c
19
07
04
f2
df
ee
ea
ed
ec
ef
ef
02
0f
11
13
0d
03
05
ff
01
fe
fe
fd
f8
06
01
fd
0e
0a
f5
fe
f7
e6
f0
f1
ef
fa
fc
fc
03
1f
13
10
05
01
fc
01
ff
fa
00
00
0e
1d
19
24
24
1d
28
1c
0a
13
05
fe
fa
ef
ff
f7
07
1e
17
0b
0d
05
06
00
03
fd
03
04
0c
1d
2b
22
34
37
24
1e
18
10
14
09
00
00
06
01
03
01
14
19
12
f5
fd
00
fc
ff
03
fb
0f
17
27
28
1d
19
1d
0d
1c
18
01
fa
f3
02
01
08
ef
fc
f7
12
07
f0
04
fc
05
fb
02
03
0a
0e
17
0c
12
04
13
0c
08
02
ec
ed
df
e7
eb
e7
e6
ea
00
1d
ff
03
0f
05
fe
f9
fd
f9
0d
fd
04
0f
1f
15
21
1c
0c
fb
f1
ea
e8
e3
fb
ff
ff
01
09
07
ee
f3
f5
05
01
fd
03
01
fd
0d
f9
0f
0b
14
25
21
1d
12
10
fd
f0
f8
fa
fd
ff
16
1a
16
0c
f0
01
e8
fb
fe
fd
ed
0e
00
11
1f
14
25
29
2d
29
20
18
12
04
05
01
ee
00
05
18
19
0a
00
e8
e1
e7
06
f8
1d
17
fe
0e
1e
0f
1d
20
24
31
1e
17
0e
0b
04
01
06
04
0a
17
19
12
18
e3
e5
09
08
02
0f
fc
04
11
f9
0e
15
20
21
2c
2e
29
30
25
1f
10
15
13
1d
0c
13
23
16
fa
e6
ff
0e
11
fb
f8
fd
fc
f6
05
fe
0f
1a
22
34
37
33
25
1c
22
18
0a
16
0a
07
09
0a
f2
de
03
0b
0a
0d
f4
fd
fa
e6
e9
e8
f5
03
03
06
13
14
0c
12
14
07
08
05
0c
04
f6
02
e4
f8
09
04
0a
08
ee
f5
ea
fa
fa
eb
e4
e2
ee
ed
de
d9
ea
fc
01
02
01
00
ff
0e
0a
05
03
08
e8
07
0b
f9
eb
ef
dd
d8
e3
ec
e4
ea
f2
e6
d3
c8
de
eb
f5
04
f8
01
0b
fb
fc
0c
10
12
ef
06
09
12
df
da
d3
d1
d8
e2
ed
01
f8
ed
d7
cb
cd
e5
f6
fc
03
f3
f9
fd
06
06
19
13
18
01
01
17
de
d1
de
d8
e8
e8
ea
13
f9
e2
c9
d4
d8
e0
fa
eb
f9
f9
f1
00
f8
0f
1a
0f
01
06
e5
f1
ec
d7
e4
e5
e8
f4
08
0a
f7
e0
cc
c1
e0
e2
f3
f0
e8
e1
fb
f8
fb
13
0a
25
0d
05
01
f6
f5
e6
d2
f8
ee
03
11
13
01
f2
e0
e1
f2
f5
fc
e8
e7
ea
12
fe
05
0d
18
1d
12
fe
09
fd
f8
e8
ed
fa
ee
fc
0b
ff
01
fe
fb
ed
f5
f6
f8
ef
e2
f3
fe
fa
f6
16
1b
19
05
02
07
fc
e5
ec
f0
fa
ff
15
0f
03
02
01
00
fe
f5
fd
03
f6
f4
f4
f5
0c
05
07
14
0d
0e
00
fc
fe
e9
f2
02
f9
04
1a
0e
0b
09
0d
19
11
07
00
04
f7
f2
fd
ff
00
f4
f2
11
21
02
04
00
f4
f4
f6
0b
00
12
10
0d
0d
15
1d
16
0f
0a
fb
f0
f0
e0
ed
fc
fe
f5
f6
f7
07
fe
00
f2
ff
05
fd
f8
06
05
14
1e
0a
1b
15
0f
04
01
f1
00
ec
f2
df
eb
ff
0d
eb
11
08
02
fd
04
fa
f3
f6
f6
14
1e
21
21
23
14
1b
13
03
fb
fc
fd
01
fc
e6
f2
fc
fe
fd
0c
fc
04
05
07
17
e8
12
0a
0c
16
0e
21
25
21
13
0d
00
fe
0a
04
fa
fe
fb
0b
0b
01
00
17
ec
06
03
fb
10
f3
ef
07
06
fd
01
fe
04
f7
0c
17
0e
02
fa
01
0f
03
12
17
fc
de
0e
07
02
fb
02
06
07
07
08
ee
13
11
03
f1
ee
fb
f2
02
02
0d
04
12
0a
f7
f1
17
0c
d9
f7
07
06
fe
fa
04
0a
08
03
e5
f5
08
0e
01
fc
f5
f3
fd
f5
21
08
03
03
08
fd
0d
11
ef
ff
02
00
fd
ff
03
ff
0a
0c
02
0d
0e
08
01
08
eb
f1
04
00
01
00
fa
ff
04
06
17
f6
fe
ff
ff
04
f9
fb
fb
03
06
1b
1a
1d
1e
1e
1b
16
08
f8
f8
f9
00
00
00
19
18
15
13
0d
09
fe
01
02
06
fe
05
fd
12
16
24
22
25
33
1c
0f
09
fa
fa
05
0c
12
11
08
1a
1b
17
1f
19
06
04
fc
fd
00
fc
fc
08
0d
2d
34
2f
1d
12
10
fe
fa
06
0e
1a
22
1c
08
11
0f
18
1b
15
07
0d
02
04
ff
03
f9
09
16
30
32
23
1a
26
12
0a
0f
18
10
1f
23
1a
18
11
fd
03
19
fa
02
29
04
fa
04
02
12
05
0a
25
2d
1c
25
01
fb
0b
19
22
12
0f
11
09
15
08
10
0d
25
0b
f5
fb
f1
fb
06
03
fa
09
0d
18
1a
07
0e
07
06
12
0a
11
0c
02
03
ff
09
ff
06
10
12
08
fa
e7
e8
03
fc
04
f1
02
fc
11
0f
01
0c
08
1c
19
14
12
07
0a
0f
10
14
03
f3
fa
f9
ee
f8
c8
fa
eb
fc
ed
1d
09
f2
02
fe
08
0a
0e
1a
0c
18
23
1a
0c
18
17
0d
17
0b
fc
f8
f7
e9
d9
e0
f7
07
04
fd
01
01
07
07
03
19
13
0e
0d
11
18
28
24
12
12
0b
12
08
fe
02
ff
da
e3
f3
ee
06
0a
fe
07
09
0e
0c
11
19
19
12
05
13
0b
20
18
10
11
06
09
fd
f5
e9
e6
e5
d6
ef
10
03
04
09
f5
08
19
17
0b
1f
14
0a
f4
e8
f7
11
20
25
1c
14
06
ea
f0
e6
e0
fc
fc
0c
eb
fe
05
08
f9
0d
0b
14
0d
26
13
f4
f1
d8
e7
03
18
1b
18
18
fe
e3
db
db
ec
e8
f1
e0
04
08
05
08
ed
f9
f7
ec
ef
f4
e0
d7
c7
ca
ce
f9
08
04
03
07
f1
e2
de
d9
df
f3
12
e9
01
06
02
00
e8
e3
db
c6
bf
d0
bf
c3
cb
de
e1
04
04
0f
0d
fa
e1
e1
e1
e1
f8
f8
fe
1b
17
ff
01
fe
e3
ca
c1
84
a2
a6
b7
c4
ca
e5
ea
06
05
09
10
fa
e0
dd
d4
e2
f4
e2
fd
08
fd
fa
02
02
da
c2
ac
94
a0
a1
b0
dd
f0
eb
00
0a
0a
00
f0
d9
c5
c5
de
ed
de
ff
e3
0b
0e
04
04
05
da
b4
bb
c2
ce
d9
ec
f5
fa
11
25
14
00
02
d4
c6
dd
e7
f3
fe
f4
06
16
1f
10
07
04
fd
d6
b2
e2
04
f5
0d
12
14
13
18
2c
27
0a
dd
d8
d2
e2
ee
e0
fb
06
0a
20
1d
fe
fd
07
f2
cf
f4
0f
0d
25
1f
18
22
21
39
46
2d
f3
ca
c6
e7
ff
fc
f1
0e
22
21
09
1a
0e
01
ff
fc
02
0b
10
2f
26
26
36
23
36
33
31
15
ed
cd
de
e1
f3
f5
02
0d
11
14
1b
22
0c
fc
fc
00
0f
05
01
16
15
24
20
0e
29
30
1c
0e
db
de
e5
ec
f9
f6
0b
03
15
1a
29
14
fb
ff
fa
0d
1f
1a
10
ff
08
15
23
2a
16
0e
03
f5
f3
f5
f4
fd
03
10
19
19
23
2c
28
0a
fb
00
fc
02
0f
25
1a
0e
fb
05
08
f3
f7
ee
db
ef
ee
fe
f5
00
04
0c
09
0b
0b
13
1c
01
01
ff
06
0c
fc
0d
22
1f
fc
ea
f6
f0
ea
e1
e2
e7
dd
d8
f2
ea
dc
ed
04
02
f8
0e
0a
14
fe
05
04
0b
ef
0f
1a
0d
fb
f9
de
e0
eb
e8
de
de
df
cf
f7
e1
cd
e6
f1
f6
e4
11
1c
05
05
05
f9
0b
11
19
09
00
09
0e
14
00
13
0d
f8
f2
f7
de
da
da
d3
df
16
0d
dc
f3
04
02
ff
ff
fd
09
0a
0c
fa
fc
05
19
27
1a
19
01
09
07
f6
f3
fa
ee
f0
ed
f0
01
f3
00
fe
03
07
02
05
03
00
0e
0c
02
fd
00
f5
13
fd
fa
f1
f1
ec
f9
ff
e9
f8
f6
07
f2
ff
06
fe
fc
ff
fc
fc
05
0f
26
1d
26
2a
22
1d
1f
fa
f0
ea
12
12
0a
11
1e
24
0c
0c
07
04
03
02
fd
fc
00
fd
fb
13
29
27
27
3b
27
0c
05
e3
fc
ec
0d
0f
10
04
12
12
12
17
04
f9
ed
02
ff
07
06
04
f9
0e
18
27
40
42
30
37
1c
0f
0c
20
34
20
1f
03
02
07
13
08
20
fd
f4
f8
ff
00
02
06
04
14
10
1a
3f
47
10
21
16
09
fa
04
13
1f
1a
02
08
0c
0b
08
0d
08
06
fb
f9
06
05
fd
0b
10
fc
1d
2d
10
13
11
05
05
02
09
18
0a
0a
09
05
0b
00
fe
e3
e7
e5
f9
f8
02
fd
05
ff
f0
ef
fc
19
14
28
18
02
f7
08
07
0a
0b
19
00
fc
05
02
f3
e8
d9
e6
f8
0e
01
02
ff
f5
ea
cd
04
0c
14
0b
06
09
04
fd
f9
fd
13
0c
0b
0a
fd
f6
e8
dd
d8
e3
f3
fe
01
04
01
03
d8
c6
ef
fe
08
f7
09
02
04
08
07
06
0a
17
0f
0c
f0
ee
de
db
d2
d5
f9
12
00
fc
03
ec
e0
dd
fb
08
fb
07
fc
09
f5
09
fd
15
19
0b
07
f7
e8
e1
c4
d4
e4
e0
f1
01
11
ff
06
fe
ee
e6
f7
fb
07
1b
f7
fb
f2
ef
fa
10
0c
01
f9
e9
d5
c9
d4
c7
e5
fa
ff
1e
1b
07
0f
01
ea
d1
f3
fc
f9
02
f5
eb
ef
ee
06
08
06
f9
e7
e9
d3
d9
de
e3
ef
18
f3
1f
eb
fe
ff
04
e3
e3
f2
ed
db
fa
e7
db
d5
db
f0
fe
08
0d
dc
ce
db
e8
01
01
1f
00
e5
d7
0c
03
01
08
07
f8
fd
f1
e5
f5
df
ca
c2
d8
f9
07
15
07
f0
ea
db
f9
1b
15
06
08
fd
0d
0e
04
00
01
05
ec
fb
ef
de
dc
d6
cc
d8
fa
0b
14
1b
03
e7
f0
fe
07
29
18
1e
24
16
fc
22
07
01
ff
02
ec
e4
e9
f3
df
e3
ef
08
15
1c
1f
18
fa
f9
02
10
18
1b
1f
1f
2e
22
0f
06
03
fa
ff
f7
de
e1
f1
f6
fb
f4
01
2e
2e
2f
12
02
e4
e9
fb
06
09
0a
10
21
36
24
01
11
00
01
fb
fa
cf
dd
e7
da
ed
02
13
38
37
33
0b
e8
e0
dd
ff
06
0d
11
06
19
1a
3c
1e
0c
01
04
f4
ef
cb
ca
ce
c2
c3
e5
22
2c
2e
1e
08
e1
ee
ed
00
0c
1c
19
27
21
2e
42
1b
06
fb
00
ee
ee
dd
c9
b6
c0
ba
e3
03
1d
23
1e
0d
fa
eb
ef
10
14
1b
16
18
1d
21
30
0b
0f
fd
02
fb
fa
dc
dc
e7
d7
bb
e4
07
23
25
17
0c
06
02
ed
ef
ff
11
0b
06
fd
1d
22
10
0b
fc
f7
05
f7
f3
cb
d6
cb
ba
d6
05
1f
30
1d
26
17
1a
ff
fe
fb
03
fc
f4
f9
03
03
18
00
03
fa
f4
02
0a
de
d8
cc
d1
ee
f4
10
1d
22
21
1a
0d
f8
e9
f6
11
01
03
fb
f8
04
0d
fe
fd
fa
f8
07
00
fd
e2
dd
dc
e9
f1
f5
08
0d
12
1c
ff
e7
ea
df
fe
f3
ee
d8
de
fc
09
ff
06
01
12
e9
f3
e9
e6
ec
d5
e1
e0
f5
07
08
0d
1b
1b
ed
dd
d7
db
df
fd
e1
d5
eb
13
03
01
01
02
e3
e9
e8
de
d9
e2
e6
de
f5
02
ef
fc
02
f9
ef
e3
d8
d0
d9
dc
cc
ff
17
06
04
fe
00
09
0d
fd
ed
de
f2
e8
fc
e5
fc
f4
d3
d7
e9
ca
da
e1
c5
d4
e2
f1
f5
f9
01
02
02
00
fb
01
0d
fe
fd
fc
15
f7
0c
13
21
f4
f2
fa
f8
db
e5
d8
e9
dd
f1
03
02
05
ff
07
fc
01
02
ff
0a
10
0e
10
fb
f1
f9
f4
f7
ea
f1
f0
03
fd
ff
e7
fc
ff
09
06
ff
04
02
fc
ff
03
00
00
fa
ef
e4
fa
f6
01
fc
01
fd
fe
fd
05
f9
fa
f7
02
02
ea
ee
0b
0c
f8
fa
07
fd
02
f9
03
f8
e6
d9
e8
e1
f5
f7
08
01
fb
03
14
13
1e
19
1b
17
05
09
04
0e
0d
0d
03
fa
ff
01
fe
f2
ea
da
e9
f1
f9
f1
06
fe
01
18
1d
20
29
1e
24
20
1b
0d
09
fe
01
03
fa
02
07
ff
01
ff
f2
d7
e7
fd
02
12
08
ed
fe
15
fc
0c
1c
1a
1c
12
10
11
f4
fa
08
1c
03
06
fd
04
13
fc
07
e7
e4
02
0d
0c
0a
24
0f
16
0f
18
15
04
06
01
f8
07
00
05
08
0c
13
04
05
07
fe
08
e0
0b
04
06
0a
10
23
0f
0f
0f
16
1d
1a
05
02
ff
f7
01
07
06
07
27
14
fb
fb
01
08
f9
f9
f8
ee
0a
00
07
1a
18
1b
0f
04
1e
17
ff
07
0c
0c
04
12
0c
25
3c
1a
0f
05
f9
dc
e9
df
da
e7
0c
00
14
17
1b
15
14
1b
1a
0d
04
08
18
1e
0d
0e
1b
27
26
17
fd
06
fe
d7
e1
cb
c1
dc
fa
03
0f
15
1b
17
26
2d
1c
03
f7
ec
0b
05
0f
10
15
16
21
0f
03
fd
fc
df
da
f3
d6
e9
06
14
20
07
20
14
29
29
0a
d9
ca
d3
d8
de
e7
f9
fc
12
14
fc
03
fe
ee
df
02
03
eb
f7
11
13
11
1f
1b
2a
2f
1a
ec
c4
b7
b9
b5
ba
b4
c0
c3
d5
ff
13
11
f8
ef
ec
fb
fa
0e
11
fa
0d
11
18
16
19
1e
f6
ca
bf
c8
cc
ba
96
91
8d
aa
b5
e0
21
13
03
f8
ec
fe
fa
0b
25
04
11
10
15
0f
19
18
ff
e4
d9
e8
e9
de
b9
a2
90
99
a6
cf
02
1b
05
f7
f5
f7
fc
14
1f
07
08
09
fe
ff
11
06
05
f4
f8
ff
ff
f7
ce
b2
94
9d
af
d1
f8
f6
04
00
fe
ec
f1
ed
f6
ef
08
fc
ff
fb
0b
ff
07
06
00
f6
0a
eb
df
c6
b4
ae
bd
d0
eb
fd
03
1b
15
da
d9
e0
ce
f6
f9
00
f0
e9
fc
11
0a
05
04
f3
03
f4
ed
f0
d0
bc
c0
cb
dc
f7
04
00
0e
d5
c2
be
ba
e5
e7
00
f7
03
f2
06
12
0d
0d
fd
fe
04
f5
03
f4
b0
b8
d5
f3
f0
06
00
04
ee
dc
c0
d1
dd
f0
f5
06
ef
f6
0a
0c
07
09
07
fd
ff
06
0f
fb
de
d1
c3
ec
fc
00
01
ef
fb
ed
d6
d5
d4
ee
ee
e4
ee
f1
06
18
0b
03
11
12
14
13
0f
04
eb
dc
ca
fb
f0
01
fc
00
fe
01
f0
f0
e5
f2
ec
db
d8
ed
ff
12
0c
10
11
1d
1f
14
0a
fc
f6
06
e8
e7
ee
fa
ef
01
f9
0b
fa
f5
ff
05
f8
e6
e9
f5
ff
f9
07
0e
1d
22
27
0d
06
1c
0f
f8
fa
0d
01
f9
f0
ea
f7
1c
17
0d
08
0e
0b
ef
ed
05
fe
01
03
08
0f
23
1f
16
1b
1e
fe
fa
f8
06
02
01
fe
f1
f2
25
1d
0d
00
02
fe
02
fe
ff
f5
f9
07
0c
1b
21
1b
27
18
1c
f4
db
f2
00
02
07
08
07
0f
03
0d
07
fa
f9
00
03
01
fb
04
02
05
fd
0b
20
15
24
f8
08
ea
e6
f4
1e
06
fa
fd
00
10
11
f9
08
03
19
15
05
14
09
02
09
0f
fd
22
20
22
f9
f9
ed
fd
fd
e8
ff
fe
04
03
01
fe
0f
fa
0c
02
19
1e
2c
1f
36
21
15
11
23
10
0b
1c
02
fb
0b
1c
1c
00
00
fc
04
03
f4
fa
e5
05
fa
e6
04
10
19
16
11
11
0c
17
18
fd
08
06
ff
00
01
f9
02
fe
01
03
04
fd
f6
01
fd
f7
f7
fe
f6
fd
08
0f
14
17
0c
0f
05
f1
f4
e0
ea
ed
f5
ff
00
00
04
06
01
01
fb
04
18
10
04
03
f8
f9
ef
f5
ee
e5
f0
f5
f5
f2
f1
f6
ef
f8
00
fb
03
00
02
ff
01
f9
fe
04
17
24
11
0e
f8
ff
fa
e6
df
e7
ef
fe
f6
f8
fc
f2
ef
f1
ef
f2
f2
07
07
fd
06
03
fa
01
08
20
10
06
f6
f1
e9
d6
d7
fe
05
0c
06
fd
f8
ed
ee
e4
f2
ea
ee
f8
fc
fe
fe
fb
ff
0a
07
1e
07
fc
f7
ee
fb
fb
01
06
fc
ee
fe
ec
e8
f3
eb
ec
ef
f3
01
f8
fa
04
fb
fb
0d
0d
24
31
23
fd
0d
0a
0c
03
09
0f
fd
eb
f1
e1
eb
fb
fa
f9
e5
e1
dd
08
10
03
f9
00
02
10
21
2c
20
27
13
0c
0a
01
10
0e
02
0b
03
e6
ea
e1
e8
fa
f5
e7
07
11
07
07
06
fa
10
19
26
08
1c
08
14
18
12
12
fa
04
f8
0e
fe
ff
ff
ef
ef
ef
dc
fe
f7
09
01
13
06
15
04
2e
2a
0a
15
15
07
06
ff
f9
f9
06
02
15
00
06
09
00
f8
01
f0
fa
fb
ff
06
05
03
09
ff
26
35
06
07
11
ff
02
fc
f6
0a
16
1f
19
00
fe
fe
ff
01
00
03
fe
e9
f9
03
ff
03
0c
10
2d
2d
0d
05
0f
0e
01
ed
eb
f9
1e
2a
1e
fe
f6
f0
fe
1a
0c
01
f2
d9
f0
0c
12
0b
10
02
25
1f
11
17
fa
f3
ef
f0
f5
fc
21
1a
fb
f5
e9
fc
1a
23
1a
05
e1
d6
e5
f4
06
07
14
10
1c
1c
fe
fc
e9
dc
e8
f7
ef
f1
13
06
e7
d8
f2
10
1e
38
0b
fd
e5
cf
e1
e7
00
08
15
fc
03
00
00
ee
ea
f2
f8
ed
ef
f6
00
01
ed
f8
0c
25
11
00
f1
e9
ef
e0
f5
f2
fe
02
02
11
01
e2
f0
ef
f7
f3
ed
e4
dd
df
02
01
08
ff
16
06
e6
d2
dd
e3
fd
02
03
f5
fa
02
05
0c
0b
f4
e3
ec
ec
ef
dd
db
d7
fa
19
05
14
0b
fe
f6
f4
d9
f1
da
07
0c
0d
fd
fc
05
0b
19
ff
ef
df
e4
e2
e4
e1
dd
ed
02
23
26
0f
f5
f8
f4
f9
fb
04
0c
02
0a
ee
e1
02
06
02
18
08
e9
df
df
eb
e0
d9
e0
fa
11
29
1d
0d
f5
f5
f9
0a
0f
0c
05
fe
02
f5
f8
0a
ff
01
0c
01
03
db
d5
dd
c5
dd
e4
fe
17
16
23
06
0b
fa
f5
06
11
1a
14
00
fb
f4
f9
06
02
04
02
0a
fa
f9
e9
d6
cf
f1
fb
00
08
23
19
15
01
05
00
15
10
16
09
f1
ec
ea
fd
0f
fe
03
ee
04
f7
de
de
e9
dd
f0
05
0b
0f
13
14
11
03
07
14
05
0e
16
0d
07
00
fd
ff
05
02
fe
f4
04
02
d3
ef
fb
e8
07
10
02
16
13
1e
1a
06
0d
11
18
0e
0a
f4
00
11
f7
fc
fa
05
fd
fc
12
fb
ec
ef
f8
df
ea
03
09
04
09
0c
14
06
0f
0b
10
02
fd
03
f4
f2
08
ff
f9
fe
fd
00
ff
fc
fa
fa
fd
f1
f9
00
12
08
0c
10
12
0a
08
04
0b
03
fb
0d
03
0d
0f
00
06
03
03
fa
fc
00
f4
fb
ff
fb
fa
01
04
0e
13
04
21
0b
0a
0e
0b
08
f4
07
fc
05
04
0f
fc
02
fa
fc
0d
0a
10
f8
fd
eb
f1
fa
07
0e
04
0a
0e
09
fd
f5
04
f9
f8
db
e3
ef
fb
04
fd
ff
fc
fb
f4
f7
f5
fb
fe
0e
06
fc
0b
09
05
12
08
0f
03
01
11
f7
e9
e7
f4
02
04
01
fb
06
05
ff
ff
ef
e7
e5
00
17
fe
0e
10
ff
fd
06
13
19
21
1d
25
0b
f4
f8
fb
00
fc
03
03
04
fd
00
03
fb
fa
fc
f6
ff
fb
05
e7
05
16
0c
06
13
14
05
f2
f7
ed
e2
04
fd
fd
fc
02
01
00
02
fa
fd
01
00
04
0b
0c
0b
07
0f
0b
fb
fc
eb
f4
f8
ee
fb
fc
ff
fc
f9
f8
04
00
00
fc
fb
f3
0c
15
19
1b
13
25
1c
17
15
fe
e8
e2
e8
e5
e7
f4
ff
fd
fd
f5
f7
f2
fb
05
03
06
04
f1
fa
06
17
25
1e
11
1d
18
0f
e9
ec
e7
f6
e7
ea
dd
e2
fb
f0
ee
f4
f2
03
fd
00
01
06
fc
fb
03
f9
1e
29
1f
23
1b
1a
01
ff
fd
f9
0b
06
03
fc
ea
f6
f7
0d
02
fd
07
04
00
f1
f1
f9
08
f7
13
09
0f
16
05
08
f3
fb
fe
03
0e
11
02
fd
f1
eb
df
e3
f5
07
f9
05
00
06
11
1b
ef
08
fb
00
f9
01
f3
fa
fa
eb
f1
00
09
0e
03
0f
fc
fe
e6
ee
1b
1a
03
ff
f9
02
12
0f
fe
00
f6
09
02
f4
e8
ea
ea
e6
e8
f0
f5
06
05
fc
04
ff
f4
10
0e
f8
15
00
1b
19
13
1d
13
00
ef
17
ff
ef
f0
e7
ef
eb
e9
e1
f2
fe
f9
fc
09
0f
f7
19
01
00
04
07
02
0b
2a
20
0c
01
04
fc
02
01
00
00
06
0a
0c
0e
fe
00
0e
1a
19
19
0b
05
06
03
1b
06
10
10
2b
22
14
fb
fc
f8
05
03
0a
0a
0a
19
13
13
0f
0f
10
18
13
11
17
17
12
fb
19
09
00
0f
21
13
02
f0
ec
ee
f7
fb
fb
fc
0c
13
04
12
06
0b
fa
09
14
18
1b
30
0f
1d
fd
06
0d
0e
00
06
ef
e2
e7
f0
f7
e9
f2
f1
f6
fa
f0
e7
f4
f7
03
fc
f1
06
0c
12
1a
fd
f0
fb
09
03
f6
ef
de
d5
db
df
ef
fb
f4
0b
05
fa
eb
dc
e4
e1
e9
ee
e0
e6
e8
05
1f
1c
f4
06
03
0e
f6
dd
e1
ef
ea
f0
10
0d
0a
0c
11
f4
e7
f0
e9
f2
ea
e5
e9
e1
fa
11
0d
07
19
fb
07
11
f7
e4
f9
02
fb
02
0c
19
07
12
05
03
f4
f4
fb
f4
e1
f3
f5
fc
02
17
06
1d
ff
02
12
05
04
0f
1a
14
08
f5
09
03
f0
fb
f0
fb
f4
06
0a
07
fc
fe
fb
0a
0f
36
1d
0f
05
fd
04
18
26
26
14
1b
07
00
fe
fa
ef
e5
e9
f4
fc
08
19
12
12
11
0a
12
16
2a
1e
13
0d
fa
fd
04
2f
2a
24
19
06
ff
fa
eb
e7
dc
c4
d6
fe
10
18
14
07
fc
f7
0c
0f
02
11
16
ff
04
ff
fe
14
1f
20
12
0d
0d
fc
00
f4
e9
df
e7
03
11
21
0f
0a
f7
f1
0b
01
10
21
0b
0e
07
fc
02
0d
24
1f
0f
0e
12
10
11
16
15
0f
0e
1a
0e
0e
0c
ed
f3
e7
02
fd
e8
fe
11
06
fd
07
f8
0a
1c
20
0c
1a
21
1f
27
25
2c
2d
1b
1e
0e
04
fe
f8
e4
f0
f6
f4
e3
ec
f9
06
07
fa
f9
03
06
0a
14
17
12
13
21
25
2a
27
1d
18
13
0e
00
f9
eb
eb
09
f3
df
06
ff
fb
04
fa
fb
f8
f8
ee
0c
0e
13
17
18
14
19
16
03
0b
09
03
f9
f6
f5
ea
0d
f4
e5
fa
fb
03
fe
0b
06
05
14
09
09
0d
09
13
0f
18
08
09
08
fb
fc
f2
ee
ef
e9
ea
f4
03
f5
12
e7
fc
05
03
0e
19
16
04
06
0b
f2
00
ff
01
02
0b
0c
01
fb
fb
ec
ea
eb
fc
f4
ef
18
0c
03
02
00
fc
02
fd
03
fc
16
13
0f
07
fe
02
ff
03
ff
02
f8
f6
ec
e6
eb
03
07
f4
15
fd
03
03
fd
04
06
fa
f2
e4
fb
0d
07
07
fc
05
ff
01
f9
f8
f7
ea
ea
f0
f1
04
0d
fd
04
fe
fa
fd
fe
fc
fc
03
06
ff
0c
08
08
0e
16
04
15
11
03
f3
ec
e6
ee
f2
f1
00
ff
04
00
fb
fc
04
03
04
03
fb
e4
e9
e7
e1
ff
ef
05
0e
0f
07
13
0a
05
0c
07
06
f3
03
f5
f3
f9
05
04
06
fc
fd
fb
ee
e3
db
e9
ec
f9
09
07
11
1a
17
14
06
0b
03
02
f2
07
f9
fb
fb
f1
f8
ff
07
fa
03
07
f0
e8
dc
e0
ff
02
22
11
1d
21
12
15
06
02
ff
0c
0a
08
11
02
0a
11
f6
03
05
02
03
09
f2
e9
ef
fb
06
07
18
15
1b
19
18
0b
19
0c
0d
06
0e
fa
0d
01
07
20
e7
fd
04
05
01
e5
ea
ed
f5
fe
f6
f3
fd
0c
00
17
18
14
08
0c
03
fd
02
fe
fd
06
fb
05
04
02
fc
01
06
fb
fe
06
f1
f5
fb
f5
f5
ef
fb
06
12
0b
08
07
04
09
f9
f7
f9
f6
05
14
0f
07
02
03
fa
e4
f5
ed
f8
ea
fa
f1
f2
ec
f8
f9
08
0f
0f
02
0d
04
00
f9
f0
ef
f8
f6
07
fc
0f
fd
f2
09
e2
00
ef
03
df
f6
f1
f6
08
09
0a
ff
0a
0b
fb
09
f8
fe
f6
fb
e2
fe
14
00
00
fb
ec
ec
e1
fd
f9
fb
f7
03
f4
00
07
fb
fb
fc
f6
fd
f1
f5
fb
e8
f4
eb
e8
00
f9
fe
02
f7
ec
ef
e0
e8
fb
04
f6
fa
fb
04
fd
03
f5
f2
f2
ff
fb
fe
01
ff
f3
e7
f6
ec
f9
f3
e9
f3
ef
e6
e0
ef
01
07
fc
ff
00
05
fe
fe
e6
e5
f4
e7
f3
ff
03
f8
ed
f1
f4
ed
d8
eb
ef
fe
e9
db
e6
f7
0f
0b
fd
0c
0e
08
07
01
ea
e6
ee
04
05
f8
08
06
02
f8
f9
05
de
df
0d
f8
ec
ea
ed
04
10
05
0c
02
ff
05
07
f4
01
f1
f9
06
0f
fa
04
07
0a
19
25
1e
ed
d4
0a
05
f9
d9
02
00
04
f7
0b
16
12
16
0b
08
0f
11
1a
1c
0a
fc
0c
19
12
20
21
17
f9
03
13
02
f8
f4
fa
03
06
0a
11
0d
15
11
12
07
1c
14
19
19
05
0f
0c
10
06
0c
fd
e0
0d
14
03
03
f0
e0
09
01
ed
0c
03
0a
17
13
18
0e
22
11
15
16
12
10
0e
0b
04
fd
e6
e3
31
19
13
01
05
dd
f7
f0
02
06
0b
18
15
1b
12
09
17
0c
05
0b
15
11
03
fa
04
01
ef
f4
2d
1c
11
ff
f6
f4
f4
dd
f2
f9
06
0d
0d
0f
02
0e
0f
0d
04
11
0e
0e
09
ff
fa
fd
e8
fc
24
1c
00
fe
fa
f9
f0
e7
ee
fe
0e
02
0b
0a
07
01
10
07
0b
12
0d
13
07
0a
fa
e4
fb
02
27
0b
0b
06
fe
02
ed
f7
f9
06
11
06
0a
19
12
08
10
16
10
0a
0e
14
0d
07
01
01
0f
ec
ef
0f
13
fa
ef
08
04
01
01
ff
0f
07
0c
12
0c
06
11
13
1b
17
09
16
02
0c
02
09
fe
f7
01
0a
fb
fd
fa
11
05
0d
fd
f9
ff
13
0f
0e
0f
16
10
13
0e
1c
1a
00
05
07
00
02
19
17
f9
09
ff
03
ff
fd
09
0b
ff
ff
04
09
07
10
0c
0f
07
08
0a
02
fc
0b
f5
06
06
01
0e
13
f8
f7
02
fd
f6
f4
f6
00
fe
08
08
11
10
fd
06
0c
09
fc
ff
02
06
0d
0a
14
1b
27
27
16
06
ea
ff
05
05
fe
f0
f1
07
07
0b
10
0f
0c
04
04
fd
f7
07
14
0f
27
12
1f
15
2c
1b
0e
19
01
fa
f9
02
03
04
07
16
1e
1d
02
0e
15
08
fa
0d
19
1c
12
18
16
0e
2b
1b
fa
ff
fc
fe
03
ff
fd
fd
0b
0b
23
2a
29
21
15
04
08
f6
0b
fb
13
fa
0e
ff
0e
fd
16
1b
00
09
fb
f9
f9
06
02
06
02
fe
00
09
15
17
15
14
03
08
f2
e6
f1
0c
09
f9
07
1c
1c
09
1e
fc
03
00
f9
06
04
02
03
03
1f
21
16
09
f8
f7
e9
f9
f8
fe
0d
14
1d
11
14
09
07
08
ff
f7
08
01
fb
fd
fe
ff
ff
13
25
2e
17
0b
ef
fb
f2
f5
08
0f
07
02
01
06
09
fe
14
fb
fb
ed
ee
04
01
04
05
fb
06
0f
1c
23
0b
0b
fd
f6
fd
08
01
0b
fe
0d
00
0c
0d
19
22
1b
0c
09
02
fb
01
fb
f9
03
07
11
08
11
15
09
06
f9
0a
09
02
f4
09
ff
f0
03
0b
15
27
20
0c
06
04
fd
07
03
fe
04
ec
15
2b
1d
15
09
09
03
07
12
11
05
01
e6
ec
e3
f6
fe
02
fd
01
0b
08
f5
f9
03
fc
04
fa
11
0b
12
16
0e
06
09
01
fb
01
fd
f5
f6
ea
e7
ef
f3
ef
de
ea
02
ff
d4
e4
04
06
02
0e
00
25
fd
08
03
09
08
07
01
06
03
fb
fe
fa
fd
04
fe
f7
ef
ef
ea
e4
e4
0c
05
02
1a
f7
0b
06
06
f7
f6
f9
08
06
fb
03
04
12
13
0f
02
fd
02
fa
ea
ee
ea
eb
01
02
00
02
fd
0a
0d
0c
ff
f1
fd
01
0c
fa
fd
f3
13
18
13
07
04
fc
f5
f6
fb
fd
e2
e3
f5
e7
ef
fb
00
16
04
0c
f4
f9
02
09
05
fc
ee
f8
16
16
16
02
04
00
f6
fd
fe
fe
e3
df
e0
fb
15
fd
fa
f4
0c
fe
f1
f6
fc
08
f8
f4
f1
f3
07
02
fd
03
fd
f8
ff
0b
fb
0c
e6
c6
e1
ec
e9
02
01
fb
1a
ed
ed
ef
f2
f9
0a
16
19
17
06
14
07
02
04
06
0a
12
07
07
d6
b7
b8
d5
0d
06
02
fb
f0
ee
f5
f3
02
09
01
13
1d
16
1c
22
11
0b
04
0e
17
04
01
0b
03
e0
c6
d0
04
01
f8
ea
f5
08
fb
0d
0e
09
0d
23
19
0e
1c
28
16
1c
13
11
10
0e
14
fc
e8
d9
ce
db
ea
04
fd
f7
06
02
fd
e8
ee
0c
0d
1b
14
1d
16
21
10
0f
0b
0e
04
05
12
f6
e4
c5
d7
df
00
05
0e
07
f8
ed
eb
d6
e5
01
0f
11
10
16
0f
1b
15
0c
0d
04
02
0c
04
08
f6
c4
cc
f9
f1
fc
06
08
e8
ef
dc
d8
e8
f7
03
07
13
10
18
19
ff
05
fe
02
00
fa
f4
f9
f0
d7
d2
dc
f5
fc
01
f8
e8
e8
d2
cd
f3
f5
03
00
fc
f4
01
0e
fe
f6
ef
ff
f4
f3
f5
f8
e2
ca
d9
e2
fe
00
ff
09
f7
ec
e2
db
e6
e0
ec
ec
ed
f2
fa
fe
ff
fc
ee
f9
ec
f7
f3
d8
d8
c2
d8
f9
f2
02
0c
02
0a
f2
ec
ea
e3
ef
f2
f0
fa
f0
f5
07
06
02
fc
02
04
f1
f2
d8
dc
d0
e6
ee
f9
00
00
f7
0e
09
fa
00
f6
f2
fa
f5
f0
e6
ed
08
08
fb
fd
02
07
fb
e2
d0
ea
d9
ee
fb
05
fd
0b
0a
11
0f
13
07
07
02
f9
fd
ef
ee
fc
03
f8
01
04
f5
f5
eb
e1
d6
d2
d4
ed
fa
04
fe
fc
04
10
13
02
00
fb
08
02
04
01
00
01
03
0f
ff
05
05
00
e8
d8
e2
e1
e4
e4
fb
fa
01
fb
ec
11
0a
02
0c
0e
0b
03
08
0e
04
ff
09
fc
fe
03
03
02
dd
e8
dd
e9
ea
f0
f7
00
04
01
df
09
0e
08
fd
12
13
07
14
1b
08
09
0c
00
0c
06
e6
f0
f8
e9
f3
06
f8
e9
02
f9
01
03
02
ea
f7
11
fd
fb
10
13
0b
17
07
10
09
f7
00
f0
ea
fc
f3
ea
f0
05
fb
fc
f9
fb
05
fe
f7
fb
fa
03
fa
f6
03
fa
0b
f8
f3
05
0e
fa
0a
0f
01
fa
05
06
ff
15
00
fd
05
05
03
ff
01
fa
00
fe
f0
f4
f9
01
f7
fd
f9
f9
08
fb
0e
06
05
f5
f1
fb
f6
07
02
fb
04
02
ff
fb
07
fb
fc
09
0c
11
11
0a
f5
ed
f8
f4
fa
02
20
08
06
fe
0d
10
0a
08
00
fd
07
03
fe
07
fc
00
0c
0a
ff
fd
f8
f7
f1
06
fd
fc
f9
ff
0a
17
17
23
1c
f3
f4
09
0b
0d
05
fa
04
fd
02
fb
fd
ff
fe
e9
e4
e5
ec
01
f2
f7
f8
21
06
fd
09
10
0c
06
00
0a
0e
05
fc
fb
06
fb
04
00
02
eb
d5
db
ca
d2
e3
e7
cd
cc
f0
f2
fb
0e
ef
fc
0b
07
04
04
01
02
04
ff
ff
fc
01
05
07
e4
d8
e7
e0
c3
c6
d7
d9
d7
e2
e6
f6
ed
f8
f0
03
09
11
12
1e
0d
fa
01
fe
fd
fb
f3
ec
f4
f2
f0
e6
da
ce
ce
d5
ca
dc
dd
e4
e1
dc
de
fa
f7
04
0e
09
07
03
fb
fe
06
1e
03
16
fc
0f
0b
fd
01
f2
f7
ef
e6
eb
ee
e1
eb
f0
fb
11
18
1b
13
0c
0b
08
e9
fc
18
06
12
ea
fe
0b
16
0f
19
22
13
16
07
08
01
02
07
0d
01
12
05
0f
14
1b
28
11
fe
08
1f
1b
01
fa
09
07
09
06
08
16
16
08
17
01
f9
ff
02
08
04
15
08
19
19
30
38
0f
f4
0a
15
23
09
02
fc
fc
0c
fc
0e
0f
18
1b
16
0d
f5
f5
f8
fe
06
0a
26
21
16
26
12
1d
1b
0c
07
19
17
fe
11
0c
16
03
ff
03
02
00
f3
f0
e9
f7
fb
ff
09
15
0f
02
ed
f0
28
14
0d
06
1b
2a
14
fd
17
22
19
09
0a
06
f0
f3
eb
df
ff
f2
f9
fc
02
03
ef
02
e5
dd
0d
27
fa
ff
19
20
10
fe
14
26
16
06
00
09
f8
e8
f2
fa
fa
f6
f7
f5
09
f8
f8
01
e8
e3
01
1c
fa
03
00
23
f5
1c
30
30
20
07
06
10
ff
e4
fb
13
02
0b
04
07
0e
18
0f
0a
f0
fa
f7
05
ed
05
09
18
14
37
2a
29
2e
20
22
19
0a
09
23
30
12
16
19
03
15
1c
12
14
0e
07
e9
ef
fb
fc
15
35
1a
11
2b
34
1f
2f
2d
32
27
28
2b
39
21
1c
18
0d
10
23
2f
23
10
f0
d7
0f
f0
01
03
06
08
fb
06
0e
0f
20
24
2b
1c
2c
19
28
11
13
15
0e
07
14
1b
0c
0f
03
f2
e7
f9
01
fa
0e
ea
e4
e3
dd
e5
e8
fd
04
ff
f1
ff
f8
08
fe
16
14
fe
0d
21
02
08
fe
f7
d8
00
fd
03
0d
ed
d6
ba
b3
b0
ae
ab
be
ce
c3
cc
e1
e4
e8
eb
f7
f3
09
01
ef
e8
d8
ca
f8
ef
fb
09
fd
df
da
b4
a8
aa
a0
ab
ac
c2
d4
dc
dd
f0
e6
ec
f4
fb
f3
f4
e0
e0
f0
07
02
fe
04
0a
fc
ee
dc
d4
bc
c7
d3
e4
db
03
01
fc
02
f1
f9
fd
f6
fc
f7
fd
fa
0a
15
1d
ef
fa
02
09
fe
eb
f1
df
df
f2
e7
f8
15
12
17
f8
f3
f6
f4
f4
f8
f2
fc
15
07
1a
00
f6
05
02
fa
07
06
fd
0b
f9
02
fc
12
0b
14
22
1d
0a
f9
f7
f7
f5
f3
f7
05
13
15
0f
14
f3
02
fa
01
06
03
16
21
2a
11
1f
19
21
21
23
0c
0f
0e
ff
fc
f8
f1
fd
0d
01
0b
11
16
f7
05
03
04
fc
09
1e
24
1f
22
2c
1e
12
1d
1b
0d
0b
05
00
03
05
f6
00
1c
1e
1c
36
0b
eb
fa
03
fd
fc
01
fd
1c
20
16
10
18
0b
09
09
fe
fb
f4
03
f9
0b
17
14
1a
1c
1f
2f
18
03
04
01
02
05
00
fe
fd
03
03
fe
07
03
f7
fc
ef
ff
01
f7
03
03
fb
12
11
06
16
02
fa
fb
ff
fd
01
06
fb
f8
02
fe
ee
ed
f3
f0
04
f2
f9
fe
f7
f3
fd
19
19
06
0c
03
02
fb
00
ff
00
fb
ff
02
01
07
0f
09
f9
fe
fb
f4
ed
e9
e9
fa
f7
0e
0f
0c
1a
14
10
10
f6
f2
07
fe
fd
fe
04
fc
fc
02
03
0f
02
f7
ef
e8
f3
f6
f4
fa
0a
0c
14
22
24
25
16
01
02
f2
e3
ee
fc
fa
fc
fd
fe
07
04
0d
ef
e4
ec
eb
ee
eb
ef
f9
fb
1d
18
24
25
1f
0c
08
f8
f5
f5
f2
00
05
fd
01
fe
06
13
1c
00
ed
ea
e5
f9
fe
fc
fa
01
0f
21
20
1a
11
03
fd
f8
f9
d7
f0
fc
03
fd
05
1e
03
06
0d
04
f2
ff
05
f7
05
0d
17
05
17
16
0a
13
0a
0b
03
fc
e9
e8
f9
fe
fe
06
01
f9
0b
fc
2b
13
0d
0f
13
fd
01
0f
07
08
0b
12
fd
06
0d
0a
ff
f6
e2
e1
d7
f5
04
00
fd
1d
18
14
06
0a
03
0d
13
09
08
fc
fb
f9
00
08
08
14
11
23
0c
eb
d3
d9
e0
f7
f6
fd
14
f0
18
0c
00
00
ff
f0
03
02
ec
fb
f5
f9
fe
07
1a
15
27
25
0c
ee
cf
ce
d2
ef
fe
ff
12
11
10
15
ff
06
fc
fd
fb
f8
eb
ea
f2
fd
11
11
1a
13
17
01
fb
f8
d5
b8
c7
e4
fc
01
10
1b
16
0c
01
f6
f6
f6
e6
ee
ec
ed
f3
09
24
1a
1d
11
13
fd
f7
f2
dc
cd
d5
ee
ff
03
18
0b
24
f8
f2
01
e5
ea
e4
f4
f2
ee
f6
0f
21
1b
1b
0e
13
f8
ea
ec
d9
ba
de
f2
05
05
10
21
34
ec
e8
e4
e7
d8
f0
0d
10
f5
02
15
24
12
12
0d
04
f4
e5
f6
d7
ca
ed
f7
00
01
10
18
21
e3
e4
e9
fe
f2
08
14
10
f4
00
26
2e
27
0c
07
f4
eb
eb
e9
f5
fa
fe
ff
04
04
04
22
0a
f9
e1
e7
03
ff
0d
1b
06
de
fb
23
22
20
0a
0c
f2
e6
e5
f5
f3
01
11
16
03
fb
01
10
19
01
e3
de
00
07
11
0e
ee
dd
fd
1d
22
1b
16
0b
fb
fe
0b
fd
22
0b
23
ec
02
02
0e
21
0a
f1
e6
f0
f9
09
fe
00
d9
cd
f4
24
20
13
19
01
fb
08
19
23
2c
17
04
25
fe
fe
01
18
f6
f3
f4
f8
ff
f6
fb
e5
b6
c6
f5
17
15
15
04
09
f7
09
06
17
2c
26
0b
06
fe
06
0e
08
fc
fb
ed
f3
03
f0
e8
d7
b5
bc
de
10
07
0a
06
fd
f2
ff
f8
0b
22
00
ea
f2
00
ff
0a
06
f9
ec
f3
ff
fa
ec
e4
c9
c5
c7
f6
0c
17
1a
11
02
f9
f4
02
09
07
f0
d4
f1
11
fd
12
00
05
e1
f4
ff
fa
f2
eb
cc
c9
d5
fd
18
21
2c
18
01
05
fa
0f
06
11
01
f3
fc
f9
00
01
f9
0d
f6
db
08
01
fa
e6
d3
cf
cd
f3
15
24
22
24
0c
10
fd
07
fa
0a
0e
ff
ef
fb
fa
0e
08
03
f7
f2
f1
f3
ec
dc
e0
dd
de
f4
0b
1c
18
1c
0f
06
f9
08
f4
e0
01
0c
f1
fb
06
02
f5
f6
fd
fd
f3
ed
e8
ed
df
e8
e7
08
1a
23
19
1f
1c
17
05
ee
e3
e7
f7
05
01
ff
03
02
f2
f9
f9
e2
e8
fb
e6
e0
eb
f4
f9
0d
15
22
0f
21
24
1e
e5
e5
e6
dd
e5
ed
03
04
01
f9
ec
f7
f9
01
f7
e7
e8
dd
ee
fc
fb
0b
07
02
0e
05
fe
06
f0
dd
ef
ef
e1
f7
06
06
04
00
fd
ec
ec
f7
e7
d9
f2
f1
f5
06
15
0b
15
f7
07
04
16
14
f2
ff
00
03
01
05
05
f9
fe
fc
fe
fd
ec
f6
e8
e2
f8
e5
fb
f6
f4
fc
08
1b
1b
20
1c
2b
11
f6
01
08
01
05
01
ff
07
04
f7
00
f9
ff
e9
e9
e8
eb
f8
e6
f2
0b
06
03
19
29
0c
f6
f3
ef
f6
06
f9
fc
02
ff
05
00
05
fd
eb
de
ec
e2
ec
f2
ec
f3
f6
f0
f5
ff
06
fe
f4
f7
fc
ff
fd
fd
00
f8
07
03
f9
f9
fb
01
df
dd
d9
d8
ea
f4
e9
f2
ec
f6
fb
0a
0c
03
04
11
08
0d
08
0d
0f
f6
06
01
fe
03
ff
03
ed
e5
d3
d8
d1
d1
db
e5
e2
f3
02
07
12
12
11
17
0e
18
0d
10
06
fe
05
fa
02
fe
04
f5
f4
e8
e0
cd
c5
c2
c3
d4
ec
fa
0b
17
22
22
2c
2d
20
1b
0c
f6
f4
19
fc
fc
fe
07
09
f4
eb
e2
ce
cd
ca
c4
d5
e8
fc
08
08
11
15
15
19
14
00
00
ff
19
18
0c
0a
ff
fd
07
03
02
fd
dd
dc
d4
d3
ce
d2
ea
f7
0f
1a
10
1a
1c
13
0c
ff
f5
10
17
0c
13
0b
04
06
05
fd
0b
00
e4
da
da
cb
c6
c8
ea
09
12
12
1b
1e
06
11
0b
f3
f7
f6
f6
1f
2c
17
00
fe
fa
04
f3
f3
e8
db
d0
ca
c1
cb
ee
05
1e
1f
10
19
16
05
f4
f2
f3
fe
ea
00
06
20
fb
fb
fd
f8
ed
f7
ed
e3
dc
d4
cd
d8
f4
09
20
2d
20
1d
20
04
05
05
f5
f7
ee
fe
26
13
0b
02
f7
ff
e5
f0
03
e3
ef
dd
e5
d9
e3
08
1f
24
20
12
0d
04
f3
fc
fd
f1
f6
1b
30
1a
fc
f2
f9
00
ea
f2
f9
e5
ee
d8
e1
d9
e1
02
0d
10
1e
02
f7
ed
ea
eb
eb
e8
e1
fd
12
18
01
fb
f9
f9
ef
fd
04
e8
e6
e8
cb
d4
da
03
0c
0e
f9
ef
ea
f1
f4
d2
d0
c2
c7
d7
f6
f8
01
fe
fb
fc
f8
02
00
ec
f2
f3
d6
ec
e2
f8
f5
10
f5
df
ed
e4
e8
e3
d4
bc
af
b9
eb
fd
fb
03
fd
fc
ef
02
02
03
ed
fe
f1
ee
f8
06
07
07
f1
e8
f8
ea
ec
e6
d8
c9
b1
cb
fb
13
0f
fc
04
f8
05
fc
10
0c
07
0b
11
0f
f6
09
05
0a
f5
f0
fb
0b
f1
e9
e0
e9
e0
f5
0f
1f
04
fa
eb
fc
17
06
2a
0b
12
19
0c
fd
f9
18
0c
00
ec
f8
07
09
08
de
f5
f5
d6
07
38
31
0b
06
fe
0e
1f
1a
13
09
02
f4
fd
eb
00
ff
00
f8
00
0a
14
0c
0f
0c
23
15
fd
29
3f
25
1e
00
0d
1c
28
15
13
09
01
07
f2
f8
f7
f2
02
0b
1a
27
25
19
ff
11
07
0f
11
0d
20
30
fc
02
06
0a
21
1f
1f
14
fc
f9
01
ed
e2
f6
0f
19
2a
36
29
14
09
13
02
0f
1a
29
34
1c
10
04
0d
0f
12
22
1c
13
08
fd
0a
f9
f1
f9
17
15
2e
2c
1b
19
0e
15
07
0b
0b
11
2b
23
07
03
f2
14
14
0f
16
05
14
0f
09
f9
fe
fc
f3
01
0b
11
15
20
1f
1d
24
1d
2a
16
2f
17
00
fc
f7
0d
11
17
19
00
10
0d
0f
09
05
ff
f3
ec
f9
fc
0b
0f
21
1b
20
27
1b
18
23
0d
ff
02
fe
09
0f
27
13
01
f1
01
02
fe
f7
f2
e3
ec
f5
f6
02
11
17
0c
1c
0b
09
15
21
01
05
02
00
fc
09
0c
10
08
ec
fa
f8
fe
f9
e1
dc
e9
eb
e8
f3
10
ff
0a
fc
fc
11
22
31
0e
05
01
fd
08
fd
01
f7
f8
de
e5
ed
e2
e5
de
d8
dc
db
da
e7
fa
df
e0
ef
e5
db
17
13
03
07
fd
f9
fc
07
03
f5
f7
e9
e0
dd
e9
dc
e9
d7
d9
d8
d2
d8
cc
c8
d5
eb
f9
03
10
fc
fc
04
fe
f9
fe
fc
07
04
00
fa
fc
f9
fe
f7
07
05
f1
07
08
f0
e1
e6
ee
ff
f9
f6
04
00
00
fd
fd
05
06
02
04
07
0b
17
12
05
10
16
08
15
16
18
1e
17
ff
0b
0b
08
ff
05
ff
05
fe
02
05
04
f9
00
f5
fb
ed
ed
e5
eb
f1
f2
ed
ee
ed
f9
ee
f1
f6
06
f8
02
f0
f2
ff
fa
07
04
07
02
f9
02
f6
fc
ed
f0
e9
f1
f3
ea
f9
f7
02
f6
0b
f7
fb
fb
f3
fc
f8
f9
f3
00
fd
06
03
01
f9
08
f3
f9
f7
fa
ff
04
f9
fc
fc
05
fe
fa
fc
f2
f1
e9
f9
f5
f5
fb
f6
ff
fb
01
fc
01
fc
07
0d
0e
0d
01
ff
04
f7
02
01
f7
ed
e5
ec
d5
d4
d3
dc
df
e8
07
09
02
fd
01
00
fb
1d
ef
f5
fc
28
05
0c
f2
01
f9
f9
f6
f9
f2
ea
ef
f5
e9
03
ed
dd
e3
e4
f5
f8
05
ff
04
06
f1
16
00
fa
fe
f0
e3
e2
e8
ec
fd
fe
04
05
01
fc
ff
f6
fb
02
f2
f5
03
f8
fe
fb
fb
fa
04
f3
00
01
f2
da
e6
df
e8
f7
0f
18
11
27
1a
0d
eb
dd
ec
e0
ea
01
01
f9
fd
fc
08
0c
0c
12
ec
fe
db
ec
e9
f4
fc
09
1a
23
21
1d
06
09
f1
da
de
ee
e7
f1
f7
f0
05
03
fa
ea
f6
0f
f4
ec
f0
f6
ee
11
0c
1e
2c
23
15
ff
f7
f7
f9
e6
e6
f3
e4
f3
f2
1c
08
fa
f7
dc
ed
f4
08
06
01
0b
11
19
1a
1e
11
0b
fb
01
04
17
12
f0
de
e0
f2
eb
06
22
ea
fb
f7
ef
00
06
0f
2d
17
1b
21
16
03
f9
ed
ee
f6
06
13
24
1e
f7
ea
ee
e9
f6
fc
04
09
fc
f2
ec
fa
02
1a
1f
20
1b
fd
ed
e7
d6
d8
dd
f9
08
1f
24
16
0e
f4
f4
e7
f5
f6
f0
fd
04
fa
fa
f8
1c
1d
0c
05
ff
e7
cc
c3
c1
cd
fa
0e
15
21
14
18
0b
ff
fe
ef
f1
fd
0b
01
fb
07
fd
fe
f0
fd
f9
f4
ea
de
cd
c6
c7
e6
08
07
17
1c
13
04
00
eb
f2
ef
f8
f4
07
07
01
fd
f1
05
ea
e5
ef
ed
e1
d2
dc
df
e0
f9
fd
10
18
0b
f9
f0
df
e5
e8
f8
ed
ea
09
02
02
f5
e7
ed
ee
df
f2
e7
f5
eb
eb
f1
f6
12
12
0e
00
05
f0
e8
f4
e0
e4
d4
e2
ed
07
08
03
fd
f5
fc
f2
e4
d9
e1
ec
f3
11
0b
05
0a
04
f6
fc
f7
e3
dd
e9
ef
f9
f2
f6
f9
17
0e
fb
fb
fa
f1
f2
dc
d4
dd
f2
11
15
13
09
0b
00
f2
05
09
ee
ee
e0
e4
f0
f0
fe
13
22
fb
ff
fa
ec
e8
e0
d9
e3
df
f9
0d
18
0e
09
0c
0a
10
0b
0e
fc
eb
e5
df
f4
fb
04
0f
05
02
fe
fd
dd
e7
cf
cd
da
f5
03
0d
17
06
07
10
0c
08
05
0a
f6
ee
d7
db
e5
00
fd
01
12
05
06
fc
e5
e7
e9
c6
e7
08
13
19
11
07
12
09
10
09
0b
07
07
f4
ef
e8
e9
ff
11
02
0d
fa
00
01
ef
fa
f0
e1
f3
fe
15
1c
18
10
0e
0d
0e
16
16
0b
0a
19
13
0e
fb
08
0e
09
03
04
05
fc
f4
f8
fd
0a
12
17
0f
18
0c
08
03
fc
11
0e
05
06
0f
14
15
0f
11
1a
11
16
ff
01
fa
01
05
f4
fa
03
17
21
21
0f
04
0f
11
0d
0a
0c
13
15
14
13
1b
1e
20
27
04
06
15
fc
fc
01
0f
fd
fb
18
fb
00
f3
f9
ef
00
f9
00
03
13
19
11
29
1e
1f
2b
21
14
19
12
03
06
fd
05
01
0f
05
09
0f
11
10
05
f0
fb
04
07
22
0a
20
23
21
1b
1f
2d
12
01
fb
ff
06
01
fb
ff
0e
0c
1b
0e
1c
24
22
1f
24
1c
12
23
30
21
28
21
38
22
1e
35
16
17
04
01
04
05
02
00
03
07
05
11
18
11
17
09
0a
09
02
f5
01
02
02
ef
f3
f6
fc
17
1b
00
04
fd
fc
fb
f9
f9
05
fb
f5
f5
ed
eb
eb
f4
fe
fc
f7
ff
06
f6
f3
ed
ed
ef
f0
f0
fa
f9
f8
ff
fa
ff
07
fb
fe
f8
f0
e7
e4
e3
f3
f5
f5
f6
fb
f3
ff
06
fb
f5
f7
f4
e3
e4
e9
f6
f4
f3
fd
01
ff
00
fd
00
f6
ec
d1
db
e0
f3
f2
f6
fd
06
17
0f
ff
fa
f8
f3
ea
e1
e2
e7
f6
f2
fb
03
fc
04
08
f9
f9
e7
ed
e4
e2
fb
f0
e2
f1
ff
f6
02
08
09
01
f6
e9
02
09
09
04
e2
05
01
fc
fe
0d
fd
f8
ed
e9
da
e1
ec
f2
ee
ee
03
fe
fa
03
10
0e
12
0d
06
fe
fa
f9
f4
09
06
05
02
00
e9
db
e1
d1
e5
ea
ea
ea
eb
00
f6
f7
f8
f7
f9
08
11
17
1d
1d
02
19
03
fb
04
fe
07
f1
e8
d6
e7
df
eb
e4
ea
e7
f4
01
fc
ff
f2
e6
e7
f2
0c
0b
0f
13
10
1c
1d
06
1f
fc
ed
03
e4
f9
ef
db
eb
f4
e9
fa
f8
fa
00
f6
f8
f1
f2
06
03
07
10
10
11
0d
0d
0d
07
06
f8
00
04
02
ed
f6
fd
ea
f8
f2
ea
04
0c
12
01
f6
00
03
01
05
04
ff
0c
12
0a
2b
17
03
f4
02
02
e8
05
04
f7
04
f6
ea
f7
f0
fe
ff
f5
fb
f9
fa
ff
00
01
f7
08
18
19
05
e5
04
13
03
eb
10
0b
18
05
f1
04
03
05
f2
f7
f1
da
dd
ed
f9
09
fc
07
fc
02
09
08
fe
0a
ee
ed
ef
ee
1b
3c
29
19
13
0b
07
f9
00
02
f1
d3
df
e6
f8
0b
01
f9
f8
02
08
00
0c
04
f1
f3
fa
09
36
40
32
38
33
17
08
fc
08
01
f7
e9
eb
f8
02
0d
12
09
02
f4
fa
03
ef
08
04
f5
f5
18
0a
28
30
0d
0f
06
e9
e6
fc
08
05
08
f3
06
fb
fd
06
f3
f8
dc
ed
01
10
11
fd
fa
02
16
21
05
12
f7
e7
d9
d0
e7
f5
0d
19
0d
05
00
e9
da
d3
d0
cd
c9
d8
02
09
f9
02
f7
f4
13
05
f5
ec
d3
b9
bb
c6
e5
0e
1e
1b
10
fc
f7
eb
d6
c6
b5
c0
cf
e0
09
10
09
ff
fe
fb
0d
f0
df
ce
c5
ac
cb
e7
06
14
1d
12
fe
f1
ea
dc
ce
c5
cb
d3
fa
08
1a
20
0e
00
fd
f8
0d
ee
dc
ca
be
c7
f1
0b
1d
21
1a
04
e1
00
ea
f0
ef
e3
ef
ec
f7
08
01
14
fd
fe
01
f1
00
e0
cd
c8
c8
e5
0b
15
16
25
17
10
f5
fb
f8
fb
03
05
f8
f9
0a
25
19
1c
1b
06
f6
f0
e4
c7
bf
c4
e9
f6
0e
19
1a
26
26
10
0b
0f
0e
1c
06
0a
16
12
14
17
14
22
0d
ff
f3
f6
d8
ce
d4
df
f7
01
09
19
1c
26
1a
0c
1d
20
24
28
22
22
1f
1b
0c
0a
ff
15
01
fa
f7
fa
f3
e3
dd
f1
f1
08
16
11
17
1e
24
1c
1f
20
2c
28
2f
1c
20
29
23
15
1c
07
fc
fa
04
f8
f5
f1
f5
fc
00
f9
03
11
14
15
1a
20
1a
16
1b
2d
1c
1b
2e
19
1e
11
1d
09
00
f9
fd
04
f1
fa
d6
f1
f0
fa
12
04
0e
12
23
18
23
2b
15
23
23
21
26
2a
1f
04
20
05
04
07
ff
02
e7
e4
c0
da
ce
e9
08
0f
13
23
11
16
1c
1c
0d
28
11
19
17
1e
f4
08
12
01
fe
fd
ff
02
fd
d6
b7
d4
bd
c0
cd
ef
f7
fa
ff
0e
0e
fc
01
ee
dc
f3
e5
f7
e6
f6
fc
06
06
06
ff
04
fe
ef
f1
e9
eb
e4
d9
e3
f2
f7
f4
ef
e7
ec
df
e7
df
e0
e2
eb
fb
04
00
fc
03
f9
01
07
06
02
00
00
03
fe
fa
e4
ee
07
17
14
10
06
03
f9
ee
e4
ee
ff
02
ff
05
05
ff
06
02
fe
fa
ee
e9
ec
ee
fc
09
0f
13
17
0d
0c
0e
00
ff
f3
ef
f7
f6
f7
fd
01
05
fb
01
fb
04
fd
f9
e0
e3
e9
ee
01
07
13
11
22
16
0c
0b
0b
fc
f5
eb
f8
f1
f0
02
02
00
fa
ff
fd
fa
04
f0
f0
df
e7
f7
ff
0d
09
17
19
09
0f
fd
06
fb
f9
f7
fd
05
ef
f8
0d
0e
04
fd
ff
01
01
f2
e9
eb
f1
eb
f2
fc
01
12
0b
08
0a
15
08
02
f8
f7
f1
f0
ef
06
03
ed
fb
07
00
01
e6
f1
ed
e8
eb
f5
e3
f4
02
f9
0a
0d
0c
08
14
13
00
02
fe
ed
e6
e3
12
06
0c
ff
03
05
fc
00
f7
e7
e4
ed
e3
eb
f4
06
04
04
10
0b
1c
1d
12
0a
02
fd
fb
07
14
18
09
fa
f9
00
ee
ef
e7
f0
f8
f3
f0
fd
fa
fc
02
ff
0d
06
06
0d
01
0a
f4
fb
02
13
14
11
03
17
04
fe
00
e7
07
fd
fe
ef
0a
03
fd
0b
f8
ff
ee
fb
f6
fa
00
06
f8
00
19
0c
16
26
07
04
01
f2
fa
ff
13
01
ff
08
08
02
fd
01
fd
00
f5
f9
f9
f3
f7
00
fd
04
fd
12
0e
00
11
0d
f3
f3
ed
eb
f6
fb
04
fb
fd
fb
02
fc
0d
ff
f7
f2
02
fe
06
09
07
08
04
21
04
07
fc
ef
f9
ed
fd
f7
fa
03
f9
ed
eb
05
fe
06
0b
02
f8
f4
f2
f9
fc
f7
f4
01
f7
f2
00
e6
ee
10
ed
ef
e1
ee
f6
00
f3
f6
fb
f6
fa
01
11
ed
f3
f6
ed
f9
f3
f9
f2
f0
f9
f7
11
fc
04
06
fa
f8
e8
e0
f8
f9
f8
01
f4
f7
05
08
06
fb
f2
ee
f4
09
f3
0e
fc
08
07
0a
2a
0a
fe
0b
04
f8
dc
f1
e9
f7
f4
f8
05
0b
0b
17
0a
04
fe
06
02
fd
04
07
09
fc
10
17
0f
24
3d
20
03
f8
f5
e5
fd
07
09
17
14
19
14
22
10
1c
0e
15
12
13
0d
fe
09
ff
fa
e6
02
1d
17
fb
06
f3
df
0c
02
fb
10
15
15
14
1c
12
10
1c
0d
15
1b
15
09
16
f8
f0
e6
e6
00
2a
2b
06
02
fb
fc
0a
fd
0e
15
0f
0c
12
18
14
11
06
11
17
1c
19
18
0c
f8
08
01
fd
0e
30
31
0d
ff
05
16
13
f4
01
07
0f
0d
14
0b
08
0e
0e
0d
18
1e
19
15
0b
04
00
f9
fd
ff
17
22
04
00
04
11
0d
09
0f
23
12
0c
0a
07
0d
10
12
16
1b
18
1b
0d
0d
16
00
03
07
10
17
06
19
ff
04
0b
0c
07
1c
1b
1f
0d
07
0a
06
02
1e
1a
1f
0c
13
1b
08
0a
0f
14
0f
ef
ee
1b
0c
01
fb
1c
24
21
1c
12
23
08
06
0a
01
03
0b
0b
1a
0e
0b
14
fc
13
18
13
f5
e9
e7
0c
fd
ff
08
24
22
1e
12
11
14
09
07
08
14
0e
0a
0f
10
0d
0e
07
0b
0c
0a
1b
17
ed
f2
03
04
05
01
18
1c
11
07
12
10
0d
0f
0d
14
0b
0c
0a
0c
02
0b
08
fc
08
0d
0e
0d
f8
fc
fd
05
04
f6
0c
01
00
00
ff
03
19
11
13
10
0f
0e
07
0b
15
03
08
0a
13
1b
16
24
f9
0a
e9
06
fb
05
15
f6
ed
e3
fd
f7
03
05
fc
0a
18
07
12
10
1b
03
16
0b
fe
0a
0d
f2
ff
14
fc
fa
fc
fe
fb
02
f2
e6
f3
fa
e6
e5
ff
ec
ef
f5
03
fe
fd
fa
e7
e8
03
fa
f3
dc
e2
fd
03
fd
05
04
01
06
03
03
0a
fe
ec
e4
ef
db
ec
dd
db
e2
e5
de
e1
dd
ff
fb
f8
ff
fb
ff
fd
01
04
fa
08
fd
fa
05
11
11
0d
13
f3
09
07
ff
fe
15
0d
0d
12
1e
12
00
0d
06
02
04
fa
02
07
fe
03
fb
e8
e9
e5
dc
f4
ff
0b
0b
0b
12
0f
08
f8
03
07
07
05
05
eb
ed
01
fa
ff
fe
fd
06
00
f0
e1
de
df
e2
f1
fc
06
12
13
1f
32
31
21
14
14
03
ef
04
00
dc
ea
f1
06
fa
fa
fc
04
f5
ed
e2
da
de
e5
0a
10
0f
1a
42
46
46
38
29
0e
02
ef
ec
e7
e5
dc
f0
fe
04
03
fe
08
fa
ed
e5
eb
e4
ef
f3
ff
1d
30
48
3b
3f
3e
15
10
f7
dd
db
ec
f1
fa
de
fd
01
01
fe
11
f8
e7
e5
f1
e8
df
d8
db
f7
06
2a
37
38
25
2d
0d
fe
07
e1
e5
dd
c7
dc
01
07
02
04
fb
f8
ff
f4
f5
ee
dd
d5
dc
e3
fa
22
21
1c
1a
1a
14
0e
04
0b
ff
dd
e7
e2
e3
02
00
ff
fb
f5
e4
e6
e4
df
d3
e0
e8
eb
00
09
16
0a
25
20
19
10
11
05
06
ee
cf
d1
e1
04
fc
f3
06
eb
02
d9
f2
eb
e4
f9
fb
07
13
0f
05
13
1a
16
19
11
17
1a
13
ff
e6
db
d1
02
f9
f3
ef
e6
de
de
ea
f0
06
07
07
f6
05
f8
07
0d
15
13
13
17
10
1b
0a
04
f2
c3
f1
f7
fe
f2
d8
f1
dd
de
08
04
0f
0d
12
06
fa
fc
fd
02
0f
03
12
17
10
0a
07
04
ed
d8
db
e9
ff
01
f7
dd
00
f4
12
10
14
0c
0b
f7
f9
ec
00
04
fd
f3
09
ff
02
07
12
11
f9
b9
e1
09
f9
fb
e5
03
07
f6
0e
14
19
fe
fb
f5
e0
ea
f2
fa
00
ef
f3
f7
0d
18
12
10
05
eb
e8
f0
f7
fe
f2
01
1c
18
1d
13
0f
09
ec
f6
ea
f2
0d
09
08
10
00
fd
02
17
26
22
1e
f8
05
f2
02
fd
ef
23
0d
fd
0d
0d
12
06
fd
f4
ff
04
03
10
09
02
f3
fc
fa
12
16
1e
17
16
03
1b
04
fa
f0
06
02
fc
17
0e
11
10
03
09
fa
11
ff
0e
fd
fd
f7
ea
f0
08
0f
03
12
1b
21
01
00
f2
df
05
18
0c
10
19
1a
16
0f
0d
07
f9
f9
02
f8
f0
fb
e6
f1
f9
03
f2
09
07
f8
0d
ff
fa
f1
0b
09
0f
13
19
1c
24
29
27
05
f5
e8
e7
02
f7
ec
d7
db
e2
e2
ea
da
06
15
13
fe
fb
e8
0a
07
fd
0f
0c
1c
23
1c
1a
0d
ef
f2
fa
fd
f0
db
dc
dd
e7
f2
e8
ee
10
29
ff
00
f6
e9
fa
05
f9
f9
07
0d
18
1a
03
e7
e7
f6
03
fc
00
f6
f0
f4
f0
fb
fe
14
31
26
1b
fb
f6
d9
e7
f9
f7
04
09
0f
17
14
09
f4
f4
f8
ec
f8
f6
f3
f7
f2
fb
0b
14
03
14
27
03
fb
fc
eb
ec
00
07
09
0e
0d
14
16
03
0a
fa
f6
f7
f4
f3
05
f9
ff
f6
ff
f4
08
ff
1f
fb
04
f1
f3
ff
0f
10
16
19
15
0f
0a
0a
fe
05
00
f7
f4
f9
ff
fd
02
ff
00
f4
1d
0b
0e
fd
04
05
f5
f8
04
22
1f
1a
17
17
10
ff
0a
05
03
f9
fa
f8
01
f4
fa
f7
0a
0a
fa
0a
0d
06
fc
fa
03
fa
f1
01
0c
0d
1b
0b
08
0b
12
11
00
fc
05
06
f2
fa
fd
00
15
04
ff
f4
1a
fd
fc
02
03
e6
f2
04
f5
f3
f4
fd
0e
ff
02
fa
f4
03
0d
ff
0f
01
0b
0e
0c
0b
0a
09
07
03
fe
06
01
0a
f9
08
05
0b
10
0c
0c
10
05
11
12
fb
0c
0c
1a
10
1a
06
f0
f5
fd
fd
07
fe
04
fe
0b
03
16
1c
1b
1e
1a
24
27
29
30
1f
3a
1d
1e
08
19
0c
13
20
f7
01
00
06
fb
06
00
fe
fe
06
f9
fd
05
12
1f
14
0c
19
05
fd
10
0a
fc
df
e9
fa
04
18
13
01
01
00
fb
fc
ff
fb
fd
02
02
04
03
0b
fc
04
fc
04
01
ff
f1
fc
07
07
fa
f5
fc
04
08
06
06
08
05
fe
05
04
fe
05
09
07
fc
f7
f9
f9
f2
f5
f3
f1
e0
e8
03
ea
e6
e1
ed
e1
e5
f5
f1
0a
04
03
01
03
05
fe
ea
00
fb
fb
f7
ff
00
fb
fb
dd
f7
ee
f1
e7
de
dc
fb
fb
f0
f2
fe
13
00
fe
fa
03
01
f9
fd
04
f5
fb
f6
09
0d
0a
f5
f2
fc
09
f9
f2
e8
ef
01
f1
e5
fb
05
e7
fb
04
00
fc
f4
f8
de
fd
f1
01
02
1f
2a
13
1e
f3
fd
02
05
f2
f9
00
0d
f5
ff
f5
f8
04
fc
06
fc
ff
fa
09
00
00
0e
13
10
0e
0d
10
14
0f
0d
0a
03
03
0d
02
12
02
0a
f5
05
f1
02
fe
fe
06
e8
07
04
19
17
14
fd
11
f7
03
14
02
08
f3
02
f8
fc
02
fb
0d
01
ff
e4
e9
ff
12
ff
14
08
10
1b
04
10
0c
03
f1
f8
01
fc
0b
0e
02
fc
0a
08
11
fa
0b
0f
e8
e9
e1
ee
fd
fc
09
02
14
21
05
e9
e7
d7
e3
e6
f2
ee
f8
02
18
05
0f
02
02
06
ed
f1
e5
d2
d4
e3
ef
f6
0a
05
10
0e
eb
d2
c7
c5
cf
d8
c2
da
ed
e9
f2
f9
f6
fb
01
08
02
f4
e7
d0
ce
f6
fa
f6
01
04
02
d3
cf
c5
bd
b9
be
c6
ce
d7
e2
e7
f0
ef
fa
f4
fa
fe
f9
ec
ce
cb
e2
f1
ff
ff
02
03
f6
d4
d0
bc
c2
cd
d4
d6
ea
08
f9
e7
e4
e6
eb
e5
03
fd
fb
fd
d2
c2
d3
d3
f6
03
06
05
eb
bd
bd
d1
d6
f3
f3
06
0b
1a
00
02
d6
e9
de
e2
e9
f9
fa
0d
f5
f4
e5
03
ec
fc
fd
f8
e6
d3
dc
f7
ed
06
11
1f
23
11
04
f2
e9
ee
dc
de
dd
01
f2
fc
0d
12
15
23
23
fb
04
0a
fd
08
05
0f
1b
1b
23
1e
18
1b
03
fe
f5
f2
f1
eb
fa
0a
12
10
1e
23
29
23
03
00
f3
08
16
0a
14
1c
07
1b
1b
22
17
1a
11
0e
08
ff
09
f3
1b
0f
1c
1f
1f
21
1a
38
12
03
fd
09
0f
0b
1e
05
27
2c
30
22
16
1c
19
13
0e
12
1e
19
22
2a
36
23
0f
19
12
2f
13
fd
09
1a
1a
06
0b
10
21
30
23
2b
1c
18
20
23
17
20
1a
1b
14
16
1a
19
0a
00
1b
1f
05
fa
04
12
16
1b
0c
1b
1d
18
13
0f
f4
08
0b
13
13
29
27
25
1a
1a
11
06
02
05
17
13
18
fd
0a
0b
14
0b
13
11
0f
13
07
04
f5
f5
01
0b
17
15
16
21
16
19
15
11
f1
f2
03
21
08
03
06
07
29
0d
07
f6
f3
f6
f8
f5
f3
f3
ea
ff
05
04
06
10
18
1e
17
0d
fd
0a
f4
ff
04
04
10
27
27
11
fa
e5
e2
ed
ef
f9
f8
f4
ee
f9
f3
ef
f8
fc
17
17
27
14
1d
01
fe
09
fa
00
03
1a
16
09
f5
dd
d4
f1
f8
05
13
01
05
f7
f4
ec
e7
fe
0a
06
0c
04
f4
03
e1
fd
fa
02
ff
f8
00
00
eb
e5
ec
f6
f2
06
0e
07
f8
ed
f7
ed
df
ea
e4
f4
08
fa
f7
f3
ea
03
fe
04
04
f8
f3
ee
f8
dc
ee
f2
fe
f5
0b
11
01
05
f6
f7
eb
e9
d5
eb
f7
ed
db
09
14
f9
04
fb
ff
ff
f1
f1
fd
f7
f5
ec
e5
e8
f3
ec
f8
14
0c
03
f2
e4
d8
df
f3
fb
e9
f6
ff
00
00
fa
06
03
05
03
fc
f7
fc
f0
e4
ed
e1
d6
e2
e1
f0
fb
fd
f8
fe
ff
fe
f6
f8
06
fa
05
03
05
ff
fa
fb
09
03
06
f7
ec
f7
f7
f3
f8
03
f2
08
1f
25
22
25
24
19
09
00
fb
fb
04
ff
02
fb
fc
fc
f9
fd
f3
fe
f9
fd
f7
ed
f3
ed
ed
f7
f6
ec
f9
fa
f8
02
02
fa
fe
f5
06
fe
fa
04
fd
ff
f0
ed
ee
ed
e9
e7
eb
f3
f2
fa
f6
fd
00
fc
f5
f2
f7
fe
fd
f8
fe
f6
07
ff
04
03
05
f5
f7
f3
f3
f4
ed
ef
e8
f3
f7
f7
fd
f1
f0
ed
f7
f6
f1
e7
eb
f2
f5
f7
00
fc
05
fb
fe
01
fe
f0
ee
f0
f1
e7
e6
df
f2
e7
dc
dc
d5
e0
ee
ed
dc
eb
ef
e9
ea
16
fa
00
fe
fb
10
f8
f3
eb
e7
dd
e2
d6
cd
d0
db
d2
d4
d0
ca
f0
f3
e2
e8
f8
f6
14
fe
f6
f3
fe
06
f9
ff
f2
fb
e9
e6
da
da
d8
d6
e6
d5
dd
d0
e3
d8
f0
fa
0e
15
12
f8
f2
fb
0e
07
fe
06
00
fc
fc
ee
e9
ec
e2
ce
ce
d6
ca
cb
dd
f2
f3
fd
0d
1d
26
28
21
18
fd
07
16
fd
f4
ff
e6
f5
f4
ec
e5
ea
d2
c7
d1
c9
c7
ea
f1
0d
0e
1b
2b
24
22
2c
27
12
12
00
02
fb
ff
05
fd
ed
f3
ed
e3
db
c7
c8
c5
d4
dc
fc
10
1f
1c
29
14
29
38
23
1d
12
1a
20
0e
0a
0a
ec
fa
f2
eb
e1
d7
cd
b4
d7
e0
ee
ff
09
14
17
17
1b
05
13
10
13
0c
04
0c
30
15
fc
e4
fb
ff
01
df
da
c2
b7
ba
df
e6
fa
f9
0b
15
11
0c
fd
df
f3
07
03
11
09
33
3c
20
14
0d
fb
f8
ed
d7
e4
c8
e0
f1
01
f8
fb
f1
f8
0d
06
ff
fb
ec
ef
f1
01
19
04
2d
4d
40
30
00
01
fe
01
db
f4
d7
fd
00
02
00
ff
06
01
1e
1b
0e
f6
f6
eb
ed
02
06
f5
fc
ec
10
1b
ff
fd
ff
f6
f9
f0
ea
f9
0a
16
0a
f8
f2
13
14
13
14
06
00
e4
ec
f3
06
ee
ec
d6
dc
e9
f9
05
00
f8
ef
0a
ee
00
ff
0f
14
05
fa
f9
1d
07
12
05
fb
ea
e0
f3
fe
f2
e0
fb
df
05
ff
fc
00
f0
0b
0e
0b
07
fe
06
1a
0f
03
03
04
fd
fd
08
f1
f0
e7
fb
f5
ec
e7
04
e8
df
f1
01
fb
e4
ff
02
08
12
f8
06
07
17
2c
10
02
fc
f8
fe
f8
e6
f1
f3
f0
f0
e5
ec
e7
f0
f0
fd
04
cf
02
eb
fe
15
12
14
0b
18
04
f7
ee
f5
03
fd
f1
ed
f9
f9
ff
f0
dc
07
ef
f6
01
ff
02
ec
fe
f1
f5
10
11
23
0c
02
ff
e4
f0
f8
0d
03
f5
ec
04
0e
ef
f4
e9
f7
05
01
fc
07
fc
e5
cc
ef
fc
fd
0b
02
fd
fc
ec
f9
f5
fe
06
fa
f8
04
19
09
f3
e8
00
09
10
00
fa
00
10
e5
cc
dd
f6
02
fa
0f
07
f2
fc
01
12
01
fc
00
09
12
04
05
fb
fb
f7
fe
12
07
05
04
f5
e6
d6
ec
dc
f5
fd
08
0e
fb
fc
12
06
09
00
03
0e
12
0f
17
ef
00
03
fd
17
fc
fc
00
00
e5
e0
ef
d8
f2
f6
02
05
0d
0d
0e
11
0c
ff
0f
0c
16
fb
08
e8
01
0c
02
0b
0e
06
06
01
f0
e7
e9
ee
db
e0
f0
00
0c
05
13
15
16
0e
17
06
f4
f1
ef
f3
17
13
0f
0f
13
06
06
fa
f7
e4
dd
d6
d4
db
eb
ed
fa
f9
02
08
0d
22
11
03
0d
fe
f6
06
03
33
19
eb
ff
00
f9
03
ff
fd
ef
eb
d4
e2
d7
db
e6
ea
f8
05
fb
07
23
23
17
09
13
14
12
1a
20
03
01
01
00
04
01
04
1c
22
09
fa
ff
09
09
15
1d
24
30
25
29
2a
28
0e
17
01
07
fb
fb
fa
07
07
fb
06
04
01
fe
f2
ed
0d
fe
fe
f9
0f
13
eb
0c
14
f8
d3
fd
ec
e5
f8
fb
07
ff
fc
fd
06
fe
00
01
f9
f3
fc
f5
e7
fc
00
ff
f7
07
fe
01
03
01
06
fc
06
02
fd
ff
fb
02
09
fe
06
00
00
fe
02
fc
f8
ff
e7
eb
fd
ff
fa
fb
f5
f9
ff
01
05
06
fb
fe
f6
eb
fc
fc
05
fd
fe
01
02
07
fc
e7
fe
f7
eb
f5
fb
e2
eb
f0
ef
e5
ea
ef
f4
f4
f4
01
f0
e7
00
0c
16
01
01
ff
fb
fb
fc
04
f9
f7
f2
f7
f0
e8
f5
ef
eb
f1
e2
fa
f6
f0
e8
eb
eb
eb
f6
ec
10
fc
04
04
03
13
fa
eb
de
ee
e6
e1
e7
ec
f6
f7
07
0d
06
10
12
06
ef
f0
ec
e1
e6
18
14
1c
fd
fb
fa
00
06
ee
e9
db
fc
e1
e9
f3
07
04
f7
09
01
0f
14
0d
fe
f3
f6
00
08
ec
19
f5
fd
06
03
f6
ec
e1
f7
e3
e8
f3
f6
f4
f7
fc
ff
f9
02
ff
03
f7
00
f0
f4
04
0c
18
17
10
ef
fd
fc
06
dc
f7
ee
f5
ed
0b
f4
0c
fe
f7
00
ee
f8
fd
fa
04
fa
f2
fd
0e
19
1d
21
06
fe
ff
f4
06
09
09
f7
f7
06
f3
f4
07
06
03
06
f7
f9
f8
fa
04
01
02
05
02
25
1f
2c
29
0e
f9
f0
f9
ff
f0
fb
ff
f7
f3
ff
00
13
1b
05
f6
ea
f7
ff
0f
17
0d
15
15
24
14
2e
21
eb
f4
f3
06
11
08
03
fd
f2
fa
0f
08
0e
22
fc
e8
d6
de
fe
fc
0b
06
15
0b
fd
0a
0d
09
18
02
ed
e6
0c
00
0b
07
01
02
10
f9
03
09
f5
e9
de
e1
f7
fd
fc
f8
04
06
f8
0c
14
26
00
04
fc
00
04
0c
0a
fc
fa
0b
07
ff
f6
0a
07
f3
e2
f4
f6
f4
09
10
16
0c
f7
11
18
1e
02
ff
03
e2
fc
fc
fa
f6
f2
05
0d
fc
07
17
1b
07
f3
eb
f9
fe
07
14
04
0f
f6
ff
1c
41
21
fb
03
fe
f4
0c
01
06
fc
fb
ff
0d
10
16
21
21
05
01
03
f8
fc
fd
01
f9
ec
f8
0e
0a
fc
05
ed
ef
17
10
f6
00
f6
f7
01
15
13
17
31
1d
12
15
02
f4
fa
e3
df
f2
f0
ec
04
22
0f
07
02
0a
15
03
00
0d
fc
fc
06
14
14
24
1d
26
24
1a
0a
f0
d7
e8
ef
f8
ea
01
11
2d
11
fd
06
1c
14
fe
03
19
10
10
10
05
0c
18
1e
1d
18
1d
00
ed
ee
f4
ed
ec
ef
fa
04
28
05
07
0d
15
19
0e
1e
21
0c
13
0b
0b
13
0d
14
13
14
10
f9
ee
fe
06
fe
01
11
16
ff
08
13
fe
05
0f
0e
0b
24
25
19
0a
03
ff
ef
f1
0b
02
fc
fe
0f
09
06
fd
07
0d
1c
fc
00
25
09
06
03
17
1a
10
0b
13
16
09
ff
f3
e7
e3
f6
f3
fc
fc
0b
08
05
0d
21
19
11
fc
fa
09
06
05
0d
27
1a
0a
0d
0d
06
09
02
e7
e8
e9
f1
e7
f6
f6
0a
02
0e
09
1d
29
2d
0d
07
05
fd
01
03
0d
11
14
08
08
fd
fc
f7
fa
ff
f6
02
fc
fa
00
08
0f
0e
1d
2c
1c
17
1d
0c
fb
06
fe
fa
19
12
0e
ee
e8
e7
ff
0d
07
0c
0e
13
12
09
14
0d
0e
19
23
22
2a
25
04
1d
ea
01
01
fe
1c
0c
f7
ce
cd
d7
e8
fe
fd
04
05
04
0d
07
13
f1
14
0d
09
1e
14
ff
06
0f
fc
fc
ff
00
03
10
e6
d3
e7
d5
d0
c5
df
d7
e3
e9
f0
e7
ed
da
d3
d6
ef
d8
e2
f5
ed
00
05
02
01
07
01
00
02
05
fe
ef
e4
ca
c4
ca
df
d5
c8
d2
d9
e3
eb
e4
e1
d8
d7
f6
ff
06
01
fb
01
04
05
04
fd
08
00
f0
f2
fb
d8
fe
f8
f0
e6
ef
04
13
fc
0e
f8
f3
fc
01
02
07
f9
06
fb
01
fd
06
02
0c
09
0f
17
05
f2
ef
e4
dc
e3
f1
f9
f6
01
15
1f
19
09
0c
0a
07
fd
fa
fb
00
01
03
07
06
06
0b
fa
ec
f0
e9
dc
e7
ea
f5
f6
06
12
0f
12
11
13
0f
08
0a
fb
04
fa
fa
fa
02
02
11
11
e1
e5
f2
dc
d3
d8
e6
e2
fa
fb
02
07
08
0e
fd
10
15
fb
11
05
06
fd
01
fd
04
fd
0b
e8
cd
cd
e5
df
e1
de
dc
ea
eb
f7
f5
f5
03
fc
21
0f
11
f9
1b
02
fe
fd
03
17
fe
ef
d7
cc
d7
ef
e9
ee
e0
eb
e6
e6
e6
f2
f2
09
04
17
2c
1e
17
21
10
0c
ff
fd
04
ff
f4
e3
dd
cf
da
f5
e2
dd
fb
f7
f3
e7
ed
eb
f2
fc
0f
10
1a
22
0f
04
0c
0a
03
fa
03
f5
0a
e6
00
f7
f1
e5
ea
f3
ff
f9
f2
fc
fc
02
03
10
12
13
1e
03
0e
0d
1b
21
0e
02
f2
15
20
f2
f9
f9
f0
f8
f3
fe
f6
fa
05
01
05
11
11
1b
18
14
1d
0c
16
0f
1d
19
fb
01
11
06
0e
ff
00
15
01
05
f4
fe
fc
f5
f7
04
0a
00
0e
08
05
0a
09
0b
1a
31
38
29
f7
08
12
07
07
ff
10
10
00
04
fb
fd
04
08
ff
12
14
0f
0a
fe
f3
f0
02
09
1d
28
49
2a
07
0b
14
04
f7
01
24
12
0a
10
09
14
14
1b
0e
06
0b
0c
f2
fa
03
04
0d
00
04
0b
3d
38
17
07
15
1f
00
11
28
29
1b
16
23
26
1e
0b
f2
e9
07
fd
ec
ed
02
03
09
13
ff
ec
19
25
ff
06
0c
1a
20
1a
2f
22
2a
1f
1d
1d
09
e6
dd
ec
00
f9
f5
ff
01
18
1c
1b
f8
e3
0a
22
04
04
05
2a
14
26
1c
1b
25
0c
03
f9
e1
c7
da
13
0c
04
fe
05
06
28
19
17
e8
f6
f3
19
08
03
06
1a
13
1d
1e
15
05
f1
ea
e2
bc
b3
ef
13
ff
0c
15
0c
21
16
19
10
0d
e0
f6
fe
06
fb
e3
fb
21
0c
04
0b
e8
eb
da
d9
b1
c0
04
1e
27
1d
24
26
10
17
18
10
06
e3
d5
03
00
02
f9
eb
18
06
06
03
f4
de
cd
c5
bf
dc
04
2b
2b
2a
23
14
f5
f9
0b
0c
f9
fc
05
07
04
03
07
fe
07
05
f1
ee
db
e1
cc
cb
d2
db
1c
20
1d
23
17
0b
fa
f1
f6
f4
e6
f1
0a
06
05
ff
00
06
f8
f5
d9
e3
dc
cd
cd
c8
e0
f1
1a
22
12
00
f8
0a
ec
f9
f1
e0
e4
e7
f9
ef
0f
fa
0c
ff
ee
e8
d2
bc
bf
cd
c8
d0
f5
06
2a
25
16
07
01
fc
fc
e6
d2
cb
f0
0f
13
fd
05
01
03
fd
e7
bc
c2
ac
a9
cb
c6
dc
04
1a
28
22
1c
11
0f
01
f3
e8
e4
e5
fb
29
22
fe
05
ff
04
0d
eb
d7
cb
c5
b0
d0
df
ff
06
1d
17
16
22
17
13
09
0e
f1
f7
e2
09
21
15
08
01
01
fc
f6
da
e1
e6
c7
d9
f9
f3
fd
15
18
11
17
0b
15
23
1a
0a
08
05
f3
15
32
27
04
fc
fb
05
f8
e0
e8
ea
e9
f6
fa
03
0b
09
14
1a
14
0d
27
26
1a
29
0e
19
27
21
20
0a
04
01
fc
fb
fc
d9
d4
fa
fc
fd
15
08
14
1a
15
14
11
1d
17
19
36
38
46
27
37
18
ff
fb
06
06
fc
ff
fa
f1
fa
f3
fa
fe
03
05
0c
0f
08
fc
1d
18
15
23
3c
35
3d
2b
1b
11
03
fe
fe
fe
ff
06
fb
fb
f8
05
f6
0a
0e
0a
0c
0d
08
0b
14
0f
ff
06
10
2a
10
0e
22
05
fb
fb
00
05
fa
f9
fb
f9
ff
0f
f5
07
05
fc
0b
f9
f0
f9
ff
f4
05
03
02
0d
05
0a
0f
fc
06
05
05
07
fd
fc
03
01
01
f7
fb
f7
f6
f0
f7
f9
fb
02
f7
eb
f2
ec
f4
f5
fe
00
09
0a
fb
00
fb
03
fb
ff
ff
fd
fa
ef
ec
ef
eb
eb
f2
fb
f1
e6
dd
ec
e2
f0
fd
ff
fb
08
01
17
20
19
fe
02
ff
fd
f9
f6
fa
ee
e7
ec
e3
e2
f9
f4
f2
f5
ea
e4
eb
07
06
13
f8
ff
02
03
07
09
03
05
00
fd
f7
ff
fd
dd
d5
dc
ec
f2
dc
e6
ec
f8
f6
f5
f9
05
06
04
12
00
f3
f4
fd
24
fe
f9
04
fc
04
f8
f9
e9
cf
e2
e9
f4
e4
e5
e7
e5
e9
f7
fa
ff
03
06
ee
0e
06
0f
0e
0b
fa
05
fc
01
fe
f3
e1
f0
ff
ec
f2
ea
ee
da
dd
ef
fc
fb
fb
01
04
00
ff
fa
fb
01
fe
1a
0b
fb
06
fe
1c
d5
fa
11
fa
fe
f2
eb
f1
ef
fd
07
f8
fe
fe
f9
05
03
02
07
08
0f
0e
23
16
f9
07
ec
e5
cd
ce
12
06
10
f9
fb
ff
0c
07
15
14
06
04
0c
11
05
02
fd
0c
03
12
15
10
03
05
06
fb
da
bb
fe
fa
f7
fd
ef
f8
fa
17
13
1b
16
0c
04
08
09
09
04
0a
07
19
28
04
0a
06
05
18
f3
fb
fe
f7
f7
02
fb
03
0c
1c
26
15
01
e9
f9
05
01
fa
06
00
13
23
21
04
02
0e
06
0b
f3
fb
f3
f0
02
ff
04
fb
0a
20
1c
0f
f4
e4
ec
00
f6
fd
07
02
12
20
2c
1c
09
00
fe
17
e9
f0
f0
0e
0a
f7
f8
09
13
1b
09
e8
d2
e2
f5
02
fa
e2
00
ef
0f
08
11
13
f0
04
f3
0d
f9
03
fd
11
fe
00
0c
11
1c
1f
05
e5
e6
ee
f7
03
f1
ee
f4
f3
f8
eb
f3
03
f5
02
0a
1d
ee
fa
06
07
06
06
0b
1f
1a
12
f3
df
de
f1
f7
f6
ef
e9
ff
0d
06
e7
e1
e6
ea
04
ff
0c
f0
f7
00
fe
09
11
16
0e
fe
ee
e6
e5
ee
ed
e8
ee
e7
ef
fc
1c
1d
36
f0
e7
06
fe
0e
28
ee
f4
05
ff
0d
08
0a
fd
f6
ef
d5
cd
ef
db
e5
fa
f0
f2
fd
09
20
21
e1
d0
f8
02
fe
12
f5
f1
fc
f3
ec
fb
ed
dc
ed
e4
c3
c9
d9
dc
ec
00
00
05
0f
0a
14
0d
d8
da
e5
fe
01
fc
03
02
07
fb
ec
f7
e1
f2
fe
df
c1
c8
e7
f6
04
07
0b
14
14
1d
14
0b
e3
e7
04
fa
06
0c
15
16
0e
0e
fd
0f
06
09
ff
eb
d3
ed
0d
19
14
13
19
11
26
2b
0e
fa
f0
ec
e9
03
06
1a
24
1a
18
17
10
13
13
0d
05
01
f6
0a
1c
25
14
19
17
24
1c
0d
ff
1a
05
e2
f0
fd
04
0e
05
06
0d
10
0c
19
19
19
12
1c
0e
14
13
19
12
1b
12
17
1a
29
1e
15
f9
fd
02
03
06
e1
fe
f4
01
ff
04
0e
0d
0a
0c
17
0f
0c
0f
0e
04
29
20
1e
28
1b
fd
f2
00
04
00
fd
fa
f6
03
f4
f0
e1
ed
02
02
ff
04
0e
07
0c
05
10
15
18
2a
21
22
14
fb
e6
f4
fb
fd
04
00
fc
f4
df
f8
ed
dd
e0
fd
07
02
03
ff
14
0a
17
16
18
13
17
17
ee
e8
ef
f0
03
ff
07
fe
07
fe
fa
f3
ea
e2
ee
fb
03
ff
0b
02
07
15
0c
2e
22
22
01
f6
06
02
05
f6
06
fb
05
01
0b
08
04
e7
ef
e4
f3
f1
e1
f9
09
03
f0
fd
1a
22
1a
26
01
fe
0f
21
18
fb
07
04
fb
01
fb
fa
fd
df
e4
d6
e8
ea
e5
f9
03
05
f5
10
09
f6
05
2e
fc
ee
f6
02
00
01
ff
fa
02
01
01
06
fa
fb
f9
f1
f0
ea
f6
fe
f3
f8
f3
ed
f8
0c
0a
07
f9
ed
f5
ff
06
06
06
fd
05
fc
00
f9
e5
e7
db
d4
cf
ea
ec
05
fe
fa
02
0b
14
0d
fd
fd
ee
f7
ef
f9
01
00
ff
03
fe
06
02
ff
e2
d8
d9
d7
d7
f1
fa
02
f6
ff
ff
16
0b
15
1b
0b
f4
f4
e4
e4
eb
f7
fa
fa
05
07
fd
f8
ec
de
d2
db
de
d8
eb
f3
f3
f4
02
2d
19
18
09
1a
03
f0
d8
df
dd
06
06
06
05
fd
fd
fd
03
ec
df
d7
cc
c3
e7
e2
f6
ef
1e
29
2f
15
1a
05
ec
de
ca
d9
d2
e0
06
06
06
04
18
f7
e5
da
c9
d7
ce
d8
da
e4
da
ee
ff
1c
36
25
11
0a
fb
e8
ed
d9
c8
e9
f4
fb
03
ff
07
02
cd
cc
dd
d6
da
ea
f4
d8
d1
d0
08
17
38
39
2d
15
fb
e9
01
f0
db
c7
ef
ff
fa
f9
ec
f1
db
d5
d4
e5
df
df
e8
c6
bd
dd
f5
15
3b
40
33
1a
07
fc
ff
fe
d4
be
dd
ed
fd
18
db
e6
f5
e9
eb
eb
e5
e6
ec
cd
b0
d4
ef
27
3b
40
2d
14
02
00
fb
03
db
b7
e1
04
f3
fa
14
1e
05
fe
f6
f6
ee
03
eb
cf
c1
c2
f3
3d
54
43
17
01
01
ef
f6
f2
d1
ba
de
fb
f9
f1
19
0f
fc
02
fb
08
f7
fd
ec
c9
bd
cb
f9
47
54
3b
0c
02
fe
ed
fd
fd
f1
c4
de
fb
00
00
13
1c
07
00
eb
fd
0d
0b
e7
d8
c7
c4
11
52
4e
30
00
f1
f2
f5
16
03
fc
d5
d7
fb
ed
f3
0c
fa
ec
f4
f3
01
ff
ff
f0
e0
c3
d5
14
3d
3b
15
fc
f6
f9
fc
0d
11
f5
f4
ee
02
f0
f5
04
ee
d8
f4
06
02
f8
f8
ea
e0
d6
cd
0b
35
3b
0e
f7
f2
e5
f7
02
10
1e
fc
0f
04
07
f4
e2
f5
fc
fa
08
ef
fd
ef
ea
ea
d6
d0
fe
1b
14
0e
fc
f4
f5
f9
03
08
06
23
15
f8
02
f5
04
02
f1
f8
e7
f7
03
00
f5
ef
e1
dc
00
10
19
0b
ff
f6
05
08
0a
10
21
0d
f3
fe
fd
1b
2c
03
0b
06
e0
f6
01
0d
04
ef
e2
e3
f3
06
0c
09
fe
f9
ff
06
17
16
0b
13
25
e9
02
07
25
ff
06
08
e7
fa
f6
06
05
ea
dc
e4
f6
01
09
02
13
15
0e
19
f6
10
13
f0
17
04
fa
0f
20
07
13
fc
e6
ed
00
07
02
fa
e6
dd
f3
03
04
10
0b
10
01
04
0f
12
0e
08
0e
ff
fd
0b
20
0d
03
00
f4
f2
07
14
07
e9
eb
ec
f1
01
0a
10
04
0d
fa
09
07
0b
07
04
03
18
fa
0e
01
1b
f5
fe
08
0c
06
0f
00
f8
f7
03
16
14
0e
14
06
03
0b
1c
10
f4
fe
0a
1a
03
fb
19
fb
1a
06
f3
15
17
1a
0d
0e
01
02
fb
07
0b
08
0e
11
0f
1b
19
07
07
0f
1d
12
06
ff
0b
fa
2a
03
0b
11
23
15
06
10
01
f0
03
03
ff
05
00
0f
05
00
19
0c
ee
fe
07
fc
fd
03
03
10
20
08
20
21
07
0c
11
03
07
fb
f4
07
09
ff
04
02
1a
05
1a
03
eb
f3
0e
0a
fa
fe
01
02
18
f4
07
12
15
15
11
11
08
06
05
fd
09
08
09
18
03
0b
f4
de
eb
ef
e8
19
00
02
07
e9
fa
13
fc
fe
06
09
0e
fb
f9
fb
06
0e
f4
01
0c
17
fb
f6
fd
e3
e9
25
08
f9
fa
f9
02
00
fb
f5
fa
ea
e3
f9
f3
e8
f7
ff
fa
f7
ec
03
07
12
03
e9
f0
e7
f4
f3
fd
02
fe
fb
fd
f9
f8
fa
ee
f2
ff
02
02
07
14
08
11
0f
17
16
ff
08
1e
f4
f3
f9
ff
fb
f9
05
fc
06
05
fd
fb
f9
ef
07
0c
f7
01
04
12
12
24
18
14
23
2f
1a
21
22
02
f9
01
fd
fb
ff
03
fa
03
01
f7
e6
eb
fe
fe
fa
05
11
12
10
17
05
01
ff
02
f8
f2
08
07
fe
00
ff
ff
07
06
04
fd
02
f7
ea
eb
e6
f3
0b
0e
16
1b
1c
13
12
09
fb
fe
f3
f4
f7
fc
fa
fc
09
f4
05
fd
ff
04
fc
ee
eb
de
e5
fb
06
15
17
17
25
20
14
09
f4
f1
f2
ef
f3
ee
fb
ed
ed
f9
fb
07
fa
fd
02
f3
f0
de
d2
ee
f8
06
00
11
20
27
20
15
fd
f2
ff
01
f4
ed
e8
de
f0
0a
ff
06
fa
f9
fc
f7
e0
d8
e2
ea
e8
05
13
11
13
10
1c
17
00
0b
0d
f7
ff
ff
ef
f5
e2
ea
04
05
02
fa
fc
04
ec
cd
ee
f2
ee
fa
10
05
f8
0d
08
03
ff
10
0f
0a
13
0b
04
fc
f0
fe
12
02
fb
06
fb
04
e2
f4
ee
01
fc
f7
f2
ee
01
14
1f
10
18
11
15
11
0d
0b
05
e7
0e
1e
0f
f0
01
f0
06
fb
01
f8
08
fd
04
fa
f1
fe
05
0c
1f
16
21
1a
0f
10
19
07
07
f5
0b
05
0e
01
01
fa
da
f8
fb
16
fe
f0
00
f9
f8
ff
01
00
1c
16
22
18
07
15
17
01
fc
f1
f7
f8
f9
08
fe
fd
dd
f1
05
04
fe
fa
fa
ef
04
04
01
08
0b
0d
19
17
1b
07
03
f4
f4
f8
fb
e7
de
fd
02
fb
f2
fa
ec
03
0c
fd
ef
f7
05
03
ff
f1
f2
f8
f3
f4
03
f7
f7
f7
ff
00
fc
f0
f9
06
f8
f6
e5
ed
05
fe
02
fa
fb
fc
fb
eb
e2
e1
cd
d7
d8
e4
f9
fe
fe
00
ef
f7
f2
ed
0d
f4
f2
fd
e8
f2
fa
ea
f6
e2
f0
fb
fe
e4
f0
ec
dc
e4
e2
e8
ef
06
04
f0
ee
ff
dd
f2
05
f5
00
fc
f5
f7
fd
ed
f4
f5
fe
0b
08
f9
02
02
fd
e7
e8
f1
f7
07
04
fe
f3
e8
e7
e8
f0
00
f9
fe
eb
fb
ee
ed
f2
01
fd
0a
0c
fc
08
01
fa
f2
e4
ec
f6
ed
0b
fb
03
ef
06
ee
0f
06
fb
e6
e0
fe
fa
09
05
13
12
05
00
01
0a
f6
e3
e7
ee
f5
f6
f8
01
f5
e6
ed
0a
f3
0d
0b
fd
05
f9
0a
f5
fa
f6
ff
fe
02
fb
0c
04
ec
da
db
f1
f4
f6
02
fa
05
f8
ec
f8
0c
09
10
05
fd
e1
04
f3
f1
f0
f7
f3
e4
fb
fa
f3
e1
db
f0
f1
fa
02
00
01
f9
fd
f0
ef
1e
08
f9
00
f5
e0
ef
f3
f0
ea
f1
f7
e8
e9
e6
dd
db
e7
ff
0f
12
08
09
fa
fd
fe
eb
09
1c
09
15
03
fb
ed
e1
fa
f9
ef
f5
f3
e8
dd
e1
f2
02
f8
08
06
0b
0c
fd
07
f5
f1
e1
f2
23
11
09
fc
f2
eb
df
f1
03
ff
f9
f6
fd
00
07
15
10
1c
0f
1c
0f
11
05
00
ef
fa
ed
fa
0e
fd
fa
fe
f5
ed
ec
00
f6
0a
14
13
14
20
25
30
2f
34
2a
2e
1b
16
05
06
0c
06
15
fe
17
0b
fc
fd
02
f1
fb
ed
ec
16
19
21
1e
21
2d
38
31
2f
31
2e
21
0e
08
14
05
25
1a
fa
12
00
f9
01
08
03
02
f8
11
1e
19
24
1f
2c
32
35
22
20
19
18
16
08
0c
0e
0f
18
13
0c
20
0e
04
fa
fb
10
fe
04
0d
08
04
fe
0f
07
0e
10
12
0d
11
0a
1d
19
0a
0b
17
22
21
27
16
01
01
fe
fb
05
0a
01
16
15
1b
0b
10
10
19
1c
1a
01
f7
fe
0d
11
fd
0c
11
23
22
18
00
fd
fc
fd
02
05
f8
0b
0d
15
15
16
1c
18
27
20
16
0a
fc
f2
ec
f9
e8
00
0a
05
03
fa
fb
f9
04
fc
05
05
fc
01
fb
07
10
0a
07
0c
11
11
fa
03
f3
e9
d7
e1
f2
f1
21
10
01
fa
03
fc
fd
fd
fa
ff
05
0e
10
0e
1b
16
05
f5
f2
fa
fb
f9
f1
f5
f5
fe
09
0d
02
00
f6
fd
03
07
01
fb
ff
fe
06
14
1b
1d
18
0d
00
08
0e
0c
06
fe
f1
eb
f1
f9
fa
fd
fe
0d
ee
f1
f6
01
ff
fe
fc
05
12
0f
24
19
1c
11
08
0f
17
1d
14
05
04
ff
e7
ea
e7
e6
fb
fb
e7
e7
f9
fe
06
fb
06
05
06
0b
20
33
26
29
14
16
27
2d
25
0e
05
03
f7
f5
ef
f3
fd
ff
fa
04
03
ff
fb
fd
fc
1a
08
24
1f
2b
0f
13
0e
1f
21
2b
15
15
16
0b
09
0b
f6
00
ec
e8
e4
e3
f4
11
fa
03
02
03
05
19
23
07
06
00
fb
fb
0d
0f
1c
03
ff
f8
f4
fb
f9
f5
f5
e4
d4
e1
0b
04
00
06
05
17
0b
21
e1
ff
f0
e6
f2
02
0f
10
0f
10
06
0e
08
18
ff
07
03
de
df
e5
08
f5
fc
03
14
f8
14
0f
df
f5
f8
f7
04
01
01
12
fe
0c
11
15
12
12
0a
16
07
ee
f0
e3
ea
f1
02
fe
08
ee
06
f8
e3
f6
01
0a
fa
0c
01
09
09
15
0c
1c
22
15
16
10
1d
13
04
f4
f2
16
14
07
0f
02
1d
00
f5
07
04
0b
09
08
09
14
0a
23
18
19
22
0f
13
11
0e
29
09
0f
3b
17
10
06
0c
f6
20
12
09
1b
00
fd
01
04
ff
06
19
1b
11
18
10
1b
10
23
1c
23
2b
17
30
2a
08
fc
11
1b
21
21
13
04
f3
ef
e8
f4
f7
08
2a
17
0b
07
12
14
09
1f
14
1c
10
1f
22
1f
f6
fd
12
15
25
15
16
f2
df
ee
f8
e2
e4
fb
1a
1f
11
0e
0e
14
04
1b
08
02
ee
e6
12
1a
f2
fd
02
1d
1d
00
ee
f8
f1
f3
f5
db
ce
ec
09
07
01
13
11
0d
03
ff
fc
ed
da
f5
e8
e8
0e
fb
01
0f
11
f5
e4
f5
f7
f7
ef
e6
d4
da
fe
f4
02
f9
fb
fc
f6
fc
ff
f9
f4
df
e9
f1
04
fc
10
06
e0
fe
fd
0d
02
fd
f6
ed
db
e8
fb
01
fa
fa
f7
00
ee
0e
02
fc
f0
fe
e5
e6
02
02
03
05
f1
07
fb
fa
05
ff
09
05
ec
f2
f9
f4
ee
01
fc
fa
fe
04
e4
04
00
08
ec
fe
05
04
f2
ea
04
13
f3
07
01
03
f8
00
08
09
ec
e7
f2
fa
ff
07
06
01
f9
f5
fb
f6
fa
1c
00
fa
f7
ea
fe
ff
03
03
f1
f6
f0
0c
0b
f7
f8
e8
f8
fc
01
13
0f
fc
06
0f
01
02
12
10
1a
f9
fd
e4
f8
ff
ef
ff
ee
f8
e9
f6
db
f0
ef
ef
ed
fc
09
f8
02
f3
fd
0a
13
0a
18
05
fe
fa
f8
f4
e9
fa
03
04
fd
03
f9
ed
eb
ed
fb
f5
f7
fd
08
07
09
f0
e6
fc
05
0f
0d
e7
fa
fe
f3
ec
e0
f2
f3
09
13
0e
fb
06
0d
14
14
15
0a
0a
05
0a
08
fe
f2
f5
f1
18
19
ee
fd
f9
05
ee
e0
fa
f9
fd
0e
01
fd
03
0c
1b
11
11
0a
0b
02
04
f1
03
ee
fe
11
0d
fe
ff
05
01
01
02
0e
14
10
00
08
f9
fa
fe
00
06
12
09
f9
ef
f4
00
ee
f8
f7
13
10
08
eb
ea
fd
07
fd
f7
0e
1c
14
f3
f9
f8
ea
f9
fe
f5
f9
f5
05
05
0f
00
fc
00
11
09
17
1c
f1
fe
02
07
fa
f8
f8
0b
0e
05
13
22
15
07
1a
1d
0e
12
11
16
19
1a
1c
20
23
11
1b
1f
04
04
fc
00
03
ff
f7
02
fd
06
19
25
23
29
36
21
3f
30
28
20
26
1d
14
21
30
22
10
ff
fe
04
03
fa
fa
fe
02
fd
02
fc
0e
0e
fe
0e
07
07
f5
0f
06
e6
db
ea
e1
e3
0c
11
01
f9
fa
fa
00
03
01
00
09
03
03
02
fb
f4
f7
f2
f4
ed
f1
ee
f9
f9
ee
ea
f6
f8
f6
fa
f0
05
00
05
07
fd
02
02
ff
01
07
f6
fb
f8
ff
02
f6
f1
f0
f6
f8
fe
f6
ec
ed
ed
f8
ea
ea
f3
06
fd
fc
f9
03
fb
01
06
0a
f7
ee
e9
ee
e6
e3
e5
e1
e3
e5
ed
e3
db
e6
ec
e3
f2
eb
e8
05
05
01
fa
fc
00
09
0a
00
e2
e9
dd
d9
d5
eb
e0
e4
00
f0
f5
f8
d4
cc
e0
d1
da
e4
df
ff
02
01
02
fd
06
05
07
17
01
08
ff
00
00
09
05
07
fb
0a
0c
05
04
f2
f6
eb
fb
e0
e6
e6
f0
ff
fe
06
02
0a
09
1d
0e
12
13
15
18
1a
06
06
03
04
08
0c
09
11
0a
f2
f5
e6
d6
ca
f6
fa
06
00
05
17
20
13
0a
02
20
1f
1e
0b
05
03
f3
f3
f7
07
11
24
0b
0d
01
fd
db
c1
d7
f1
fb
1a
0c
2b
07
0a
0a
1a
ff
0c
07
ff
f6
f9
fd
f3
01
1c
1b
2b
13
fe
02
00
e6
d0
d2
00
fc
09
1b
29
0f
06
0d
0c
08
01
f9
fd
06
ef
f4
03
0b
21
2f
1f
14
0a
08
fb
db
d6
d0
ed
08
13
1b
27
12
00
08
01
ed
f6
fd
f2
f1
fb
eb
ee
0a
1e
22
23
27
08
06
ef
d2
db
e4
fb
0e
0c
18
25
10
09
f4
ef
f1
ec
e8
f8
eb
fe
e6
e3
0f
2a
1c
1e
1d
0e
15
f6
db
d1
e3
ff
03
12
28
0f
f2
f4
ee
f8
f0
f3
01
fa
f9
eb
d5
df
ff
1e
1f
10
20
0c
00
e9
da
e2
de
f1
02
09
1d
18
ee
f1
f8
fa
00
0a
0b
0c
11
ea
c9
e5
12
1e
16
0e
0c
01
fc
eb
f9
f5
f9
f1
06
0a
27
08
f0
f3
02
f8
0a
14
15
10
f6
db
c6
e5
05
13
0f
02
fd
f3
e5
ea
f7
16
0e
fd
01
05
14
0d
ee
fe
fd
fe
13
09
0d
05
f2
da
d5
f0
05
1c
14
14
0b
fe
f5
ef
03
0f
10
03
04
11
22
fe
f9
07
fa
02
02
06
0c
f2
de
cc
df
01
0e
1b
10
13
11
04
07
07
05
e6
24
fd
01
04
24
f8
01
04
f3
04
04
0c
0d
f2
e6
f0
f0
0d
0a
21
17
1b
16
0b
fc
0c
fd
ed
17
0a
02
0b
21
06
1b
fc
f3
fe
03
09
fc
f7
fb
ea
01
0b
03
15
15
10
fc
f9
fa
03
f4
f5
fc
04
02
0a
1b
02
0e
0e
09
fb
0d
05
08
ee
fd
f9
02
01
08
15
0e
08
f7
f8
f7
ec
e8
df
f4
03
03
07
fe
28
0b
08
02
ff
ff
fc
f5
f1
fd
07
09
09
02
0d
09
fd
f8
03
e8
e0
fc
fc
f7
00
04
21
00
1d
04
0b
0b
fa
f5
fa
fb
02
0c
14
1f
06
02
ff
f2
fb
f6
f8
c9
de
f2
f0
f5
fc
fd
0c
06
1d
fd
05
f8
04
f5
f1
f1
09
0d
11
07
f6
fc
fb
fc
f2
ef
e5
e0
e0
e6
f7
fe
07
fe
03
0e
04
f4
01
06
04
09
0d
09
09
09
13
07
fc
f5
ff
fa
07
ed
e8
f6
f4
f2
fe
01
00
ff
fa
00
01
fe
fb
08
18
f4
fd
17
10
0c
05
00
fa
fb
f7
ff
e2
dd
dd
d2
e5
00
04
01
04
f9
fe
f3
14
24
1a
10
11
05
fa
05
0b
04
03
f3
e5
ea
e6
d5
d2
d1
e3
db
e0
f9
f2
fa
00
fe
04
03
f1
05
0c
ff
f4
0d
fe
f6
fe
f8
f0
f2
ee
f8
e5
dd
da
cf
eb
f2
de
f8
06
01
fd
05
07
ff
00
ed
d7
e8
ff
fd
f3
fd
f8
ea
f6
f6
f7
0c
0f
f9
f8
e3
ef
fb
ff
fe
fe
fe
03
04
fd
02
fb
00
ed
fd
ea
e3
f2
fa
f4
04
0c
05
f9
05
1d
0a
ea
ef
fa
f3
f9
fe
fb
00
01
02
ff
fd
04
08
fb
00
02
06
f8
f3
f8
00
01
fb
fa
f9
f8
f3
ee
f8
ea
f4
f7
fc
ff
fb
fe
02
fb
03
f7
f8
00
01
f7
eb
fc
05
f5
02
f0
e7
ee
f8
f4
f5
f5
01
05
fe
02
fd
f2
fd
03
00
fc
fc
ff
00
fb
09
fb
f6
f7
fd
fe
fd
e3
00
eb
07
f9
f5
f3
ea
fa
fe
f1
f4
e8
fe
03
f9
02
06
f5
f5
04
f5
02
04
f7
0a
0b
11
01
f2
f7
01
0a
0e
13
14
12
0d
0a
16
fe
fc
02
f9
00
eb
fa
fe
0a
f6
fd
0e
0a
16
08
03
f8
fa
f2
ff
01
0e
ff
fc
f7
ec
fd
01
ff
05
04
fa
fa
fe
04
16
04
06
01
00
06
0c
03
fc
e6
f2
eb
03
08
0f
0a
10
fd
00
06
09
24
22
fe
fb
03
0d
03
15
0a
16
10
05
0c
fa
03
fe
00
fe
0b
03
f5
ff
06
f3
fa
f3
ea
33
37
18
1a
fc
17
f7
09
1e
21
09
01
0b
f9
00
06
fc
ff
0d
10
0b
04
03
ff
fa
f2
f0
db
08
32
44
fb
fb
0f
0a
20
14
04
04
f4
ee
f6
fd
16
0c
0b
07
05
0e
0a
08
00
01
fe
01
fb
e8
23
35
10
03
0d
0f
0f
04
f9
e8
dc
df
ed
f5
e8
f0
e2
e5
e1
e8
f6
f3
03
03
08
11
fe
fb
54
2c
0b
04
fd
0a
11
f6
e5
e5
ce
d2
dc
cd
cf
c0
cd
e4
d5
f3
f3
fb
f5
fd
09
00
f2
0a
3f
40
04
ff
00
12
f9
ea
e2
d1
b4
c8
cb
cd
cd
e8
0c
1a
ff
f2
f0
ee
fd
e3
e5
e1
f4
fa
31
24
0e
fb
02
07
e4
cb
b9
c2
c1
cd
ce
eb
ef
1a
34
3e
1d
0b
fb
ea
e8
e2
e5
df
d3
e4
18
3a
14
fc
02
07
f0
d9
c8
cc
d5
e7
f2
02
1c
27
31
29
0e
08
ff
f8
e4
e0
e4
e2
ec
fc
0d
28
23
fb
08
fd
fa
d3
e6
fd
f9
05
1a
25
23
2e
14
1a
13
0f
01
09
02
fb
06
ee
fd
05
16
16
fe
fc
12
09
02
f9
11
1b
1a
1c
21
2a
1f
10
15
09
0c
0b
0f
0e
1d
0b
21
0b
0a
25
20
09
06
fd
04
1d
14
20
12
15
22
27
3e
38
24
0c
f8
f5
fd
02
17
13
2b
0c
1f
21
14
48
1f
1b
1c
03
ff
1a
23
34
1a
1e
3c
39
32
26
16
fc
df
e6
ff
0e
1a
1a
1e
16
12
1f
1d
17
f1
17
fd
fa
fc
0b
18
23
1b
12
14
2e
28
1a
07
f1
e3
f0
05
1a
12
0d
1a
1c
20
2d
2a
25
22
06
0f
01
fc
07
1f
1a
20
11
1c
1b
24
1d
04
ed
ea
f1
18
0c
0b
07
fd
02
0e
23
17
fa
fe
f5
f5
07
f0
01
0f
25
16
12
21
30
1f
0a
07
f6
ef
f4
04
00
01
fa
05
14
19
0b
05
ea
fb
e3
fb
03
fe
0c
06
05
01
0e
1a
20
10
0a
0b
f6
04
f5
ef
f1
fe
f4
0c
10
11
15
fa
c9
09
f2
04
02
fe
02
f9
0b
02
f9
03
0a
07
02
0f
08
fc
f9
01
ec
f5
e9
fa
07
04
06
e2
d8
f8
f7
fd
fc
02
fb
17
19
fb
f3
fa
f9
0e
09
0e
fc
fd
fb
ee
e6
da
f0
e4
f3
eb
fd
fa
e6
0a
e2
fc
04
ff
f9
16
00
f9
f5
fc
f6
06
fb
13
04
f6
f2
f8
fa
e6
eb
f0
df
01
dc
e3
f3
18
07
fd
fa
06
f8
f4
03
f5
f6
fd
0d
0f
1c
02
04
f7
f6
ed
f5
f1
d5
e1
f5
dd
00
09
f2
fe
f9
04
04
01
f6
00
f2
e7
e5
f2
f1
ff
0a
09
04
05
f6
f6
03
f3
f9
f5
01
f1
f2
f4
00
fe
05
03
f9
02
03
fc
fc
03
08
f9
00
fc
0e
0f
23
22
1e
15
06
f7
14
e6
f1
05
03
02
06
02
fd
00
fd
02
05
f9
ff
f8
12
0b
0a
08
19
19
04
01
f1
f5
f3
f7
f2
f0
e9
f2
14
17
00
00
03
00
06
00
fc
fa
08
0b
02
01
1a
12
0d
fc
f8
eb
e4
f3
f4
08
fd
ff
09
f7
05
20
18
17
05
01
fb
ff
05
f6
0d
00
12
0b
11
0c
0f
0b
0d
0b
02
ff
ee
16
23
31
25
16
19
1d
26
0e
fb
03
fa
ff
ff
fb
f4
e8
f1
09
10
18
08
f4
f7
0d
15
06
0e
21
29
2a
2a
2e
18
19
28
0e
00
06
f9
06
01
fb
02
e3
e3
06
02
08
fb
10
0c
08
07
16
0f
1d
22
1b
09
1f
16
1f
24
0e
05
fc
fc
fc
ff
f1
d4
e1
e3
f1
07
0f
1c
18
08
0a
0a
0a
00
10
0d
0b
08
19
15
0b
12
11
15
01
03
03
12
f6
e5
fb
e5
0f
04
fd
0a
12
18
07
05
0a
03
15
07
11
17
10
06
08
0e
25
19
fe
07
f7
fe
f4
d9
00
f4
06
12
1c
21
1c
19
0f
07
07
0e
0d
0b
09
07
09
00
fc
f7
17
18
fc
01
f3
0a
d8
e3
0a
02
fe
0f
1f
19
24
1b
01
f6
f0
f3
ea
e0
d4
da
e1
d9
ec
f2
13
0b
fe
fd
f4
03
dc
f1
ef
f9
00
1b
16
1d
24
0f
e7
cf
ce
d5
c7
b1
a5
b8
be
c1
c8
f6
0f
0c
08
05
f8
f1
de
f2
ed
ee
0b
12
27
1d
1a
0c
d6
c8
d5
e2
d8
c8
ba
b6
a2
a8
b0
ce
03
fa
f9
01
f4
f1
d7
e6
ff
25
1d
20
2d
18
12
02
de
df
fe
19
0f
03
f1
c7
b0
af
b1
c6
d9
f9
17
04
f7
f5
e9
f4
ff
22
1e
19
11
18
0f
f2
e7
e3
05
25
1d
2b
13
0f
eb
cd
d7
cf
cf
e4
19
03
fd
ea
ef
fe
16
0c
1d
07
04
0e
ff
f7
eb
eb
0d
17
14
11
1b
27
11
f7
ea
e9
cd
e0
eb
02
fd
03
f2
1c
0c
08
16
13
0e
06
fe
e5
dd
f4
06
13
0c
08
07
1a
fb
03
ea
ff
d4
e4
fe
02
ea
00
00
f8
ff
fb
18
1b
13
09
fd
e6
dd
e8
10
16
0d
08
01
01
f4
f0
ee
e2
e9
ef
f7
04
00
04
ed
e8
0d
fd
06
21
0c
fd
fe
e5
d6
00
21
1b
0b
03
ff
f9
f7
f6
e2
f2
fe
d9
f5
fc
03
01
ea
f8
07
15
05
16
12
0c
f2
e1
df
07
1e
22
0b
00
fc
f8
e4
ee
ea
06
f1
e2
01
fb
0b
ff
02
12
1d
19
fe
01
06
f5
ea
d2
e1
12
1c
0f
07
02
ec
f0
f4
e5
ea
f0
e6
ec
ec
02
03
17
09
20
1d
14
06
00
01
eb
e3
db
f0
1e
23
1a
fd
fd
f8
f5
ea
e7
e8
10
f8
e6
f7
fa
07
0b
16
23
1e
fc
f5
f9
f5
e5
da
e9
f6
10
1d
19
03
03
f2
f4
f9
fc
fd
09
0f
f6
ff
ff
08
0e
12
1e
25
0e
04
fd
04
f7
dc
f3
fe
0f
1d
14
13
fd
f3
00
f1
01
0c
19
09
01
05
05
f9
0a
0b
1c
16
f9
02
f9
ea
f1
f0
f3
ff
19
1a
0a
0e
fb
f9
f2
f8
f9
08
0d
05
f8
05
03
04
00
10
f6
04
f5
f0
f0
f2
ed
ea
f8
04
15
11
15
09
05
fe
fb
01
f0
00
01
0d
f9
fb
fc
fc
09
fc
f1
08
08
f2
ec
fe
f3
ef
02
fd
09
1d
05
14
04
01
00
e5
05
27
ff
e3
02
05
fe
03
fd
08
02
f5
fe
f5
d9
f4
e0
f2
fd
03
fc
18
0c
0a
01
f6
f8
04
16
29
15
06
06
fa
03
fb
f9
fe
f9
0a
f4
f8
07
0c
00
08
05
09
16
10
04
03
fe
ee
f3
e8
fa
f3
fd
06
02
01
fa
02
02
fa
ff
f9
fb
ef
f6
f2
0c
10
11
10
06
02
0e
14
02
f8
f2
e4
ed
fb
fa
ff
07
03
ff
fb
fc
ff
0b
09
00
fd
0d
0a
02
f6
ff
00
fa
fb
f8
f7
ed
f5
0e
00
fe
03
fa
fb
05
05
fb
02
fc
01
09
08
0a
0a
06
fc
06
fc
fc
0a
11
19
14
0d
04
00
f8
19
15
fe
f0
00
fc
00
fc
fa
05
06
06
10
04
fd
fe
13
fe
05
10
1d
21
18
1f
10
02
f5
f7
f1
11
ff
f3
ef
fa
00
05
00
04
05
ff
0c
08
05
fd
fa
fb
0c
04
0e
0f
ff
05
02
fa
e2
db
ef
17
0b
0a
e9
04
04
fa
fc
17
0b
0d
08
09
f3
ee
fc
ef
f0
e9
04
f5
01
f7
09
06
f7
fa
f2
f5
f3
d9
f4
00
00
05
05
01
f8
0d
f6
f3
f8
f0
fe
f7
fc
fa
fb
f0
ff
02
04
fe
ff
0a
1a
fd
e6
05
fc
ea
fd
fd
fb
04
09
fa
e9
fe
ef
ff
ec
f7
02
f3
fe
f7
0a
04
0f
05
0b
1d
12
13
03
f4
f6
e5
f9
ff
e6
09
f5
e3
eb
06
f6
e7
fb
fe
fd
fe
fb
f5
07
13
16
1e
17
11
16
0f
0c
00
e2
e0
01
01
04
f5
fb
e1
e9
f5
fe
0e
03
0b
ff
09
ff
ff
0e
1f
13
1d
11
10
0e
0b
15
11
ea
04
07
0c
0c
f7
f9
e1
ee
ed
03
16
10
0b
13
13
0e
fb
0f
15
13
19
16
0a
08
02
03
20
0f
01
ee
0b
15
17
fa
0e
ed
e8
ff
0a
0c
05
19
25
19
0a
04
03
0f
1e
05
08
07
0f
15
0c
ef
fe
0c
0b
1a
16
0b
f9
f1
00
08
fc
f5
fd
12
12
0c
0e
fd
01
f5
02
ee
07
16
14
28
1a
07
15
fc
01
19
16
1e
11
0e
0c
07
06
1a
07
1a
1f
14
fd
f8
fe
ff
07
f8
02
11
24
19
1f
09
14
f7
05
06
1f
ff
ee
fd
09
05
09
13
07
15
2d
08
f1
fd
04
f4
fa
fa
01
06
0b
25
1c
11
f3
fe
06
ff
23
e4
e3
01
0a
0e
05
05
15
23
28
10
f5
f8
01
f8
f1
f8
f7
02
00
ff
1d
0f
ec
05
fe
f9
00
d7
f2
ff
06
10
04
15
14
2a
33
13
de
eb
f2
fb
ff
f5
fe
ed
ef
fe
1c
02
d6
f8
03
fd
de
f1
fa
f1
12
13
18
19
1c
33
2d
f1
c4
dd
ed
ef
01
f7
f2
fd
ef
f8
f4
f7
f8
f2
03
f3
e1
e6
f9
fb
04
00
13
1d
1a
2f
1f
e6
bf
ce
ee
ff
fb
f9
f5
08
fa
f9
25
fa
01
07
00
f2
f6
e6
ee
ec
e9
08
1b
1d
1d
24
15
e8
c2
d7
f2
f7
fa
ed
fa
fd
ff
0b
10
05
02
f5
fd
fb
e6
d9
ea
e3
fa
05
17
18
24
1f
11
d5
ca
d1
ec
e9
ed
f7
fc
02
0a
01
f0
09
f9
ff
07
0e
f7
d7
e2
f1
fe
05
17
18
28
1e
0e
df
d2
d6
d8
d6
e9
f0
f1
07
06
e8
e3
ee
09
01
ff
fd
f2
e0
e3
f3
13
0d
10
1d
17
21
02
ed
e0
dd
d8
e1
f3
e8
f9
ef
ed
e0
f0
f6
fb
06
07
01
e5
cc
db
0d
14
13
0d
12
1f
14
11
fb
f6
e8
e6
e2
e9
e4
e0
f0
e6
ea
e0
0c
03
06
01
00
01
d8
f8
fc
f2
01
fe
14
1b
1b
1e
1b
06
f1
f2
f0
db
df
d9
e3
f8
f7
dd
e9
0f
01
fa
fd
13
de
d6
f4
d6
da
ee
06
17
19
18
13
06
f7
f8
db
e0
de
df
f2
f1
e4
fc
f1
fc
02
00
fd
fd
0a
fa
ca
db
d8
db
e9
de
fb
fb
f0
e3
e6
e3
dc
e5
e1
f5
f1
f5
f2
ff
00
fa
ff
fe
00
01
07
f9
d8
d7
eb
f1
f0
ef
f9
00
fd
f4
02
fe
fa
f5
e9
e8
07
10
f8
fb
fd
fe
fb
fa
00
fb
fe
01
f9
05
0d
0a
f5
14
e8
fd
12
12
01
01
04
ec
e8
e6
06
00
07
00
fd
fe
04
05
ff
fb
05
fd
00
04
ff
06
fa
f9
04
06
fe
03
fd
fe
fb
ff
03
01
04
05
06
01
fe
fa
05
fa
fc
05
01
01
02
05
02
02
03
fd
fe
06
ff
fd
fd
06
00
01
fc
00
05
ff
fd
06
02
ff
fc
fc
05
03
02
06
01
06
05
06
fc
05
05
fd
fe
05
fe
03
fb
ff
fc
06
02
ff
fc
02
03
fc
02
06
01
fc
03
fe
ff
02
04
02
03
fd
f9
fb
03
04
f8
fd
f9
fa
f9
fc
fa
07
f9
02
07
00
01
fa
05
07
ff
02
05
05
05
06
01
05
f9
03
02
fa
ff
00
fd
fe
05
03
fe
02
03
fb
f9
01
fd
04
fe
ff
04
06
ff
ff
fa
f9
f8
fd
fe
04
03
00
04
fa
03
01
fc
fb
07
fe
04
fe
05
fa
05
01
fd
03
02
03
ff
ff
fe
05
f8
fa
f9
02
f9
fc
00
05
fa
00
fa
fa
fc
fc
00
f9
04
fa
fe
02
fa
04
06
fb
05
f8
00
f7
ff
fd
02
ff
fd
fb
01
fd
f8
02
00
01
fb
00
fe
01
05
06
00
07
06
03
04
fc
01
04
01
05
f9
fc
fa
05
fc
fb
fc
03
02
fc
fc
fb
fd
fe
f9
01
ff
00
02
fd
fd
06
fb
05
fc
03
ff
fd
00
05
fe
03
ff
04
01
fa
00
06
ff
00
02
fe
fe
06
fd
02
fb
07
fd
fd
fb
01
ff
04
06
fd
00
fa
ff
fe
fb
f7
04
04
fb
fb
00
fe
fb
00
fd
04
02
04
03
ff
03
fd
05
01
08
03
02
fe
fa
fa
fa
fa
04
fa
f9
fd
02
fb
fc
f8
fa
00
00
00
fe
00
fb
03
fd
fb
fe
04
fd
f9
02
00
f8
03
f9
f8
fd
f9
00
fc
05
f9
05
f8
01
04
02
01
02
01
06
fc
fc
fc
fa
00
ff
fa
fa
fb
02
fe
fa
00
f9
00
fc
01
01
fe
f9
04
00
00
03
01
01
07
fb
03
00
07
00
fc
01
f8
f8
fd
fb
ff
fc
f7
05
fe
02
f9
fd
00
03
01
05
04
fa
ff
fb
01
06
fb
fe
04
00
fa
fb
fa
f9
fe
fc
f9
f8
00
fe
fa
04
02
fd
02
02
04
03
03
04
01
05
04
02
fb
07
fa
fc
fd
ff
fd
00
fd
fd
05
fa
03
02
fb
fd
fc
ff
f9
fc
02
fa
04
01
fd
f9
03
fe
fc
fd
05
05
ff
04
fe
f9
fd
05
f9
ff
f9
f8
00
02
04
fb
fc
f8
ff
02
ff
03
05
ff
fd
06
01
fd
fd
03
fc
fa
06
01
fa
fe
fc
02
fa
01
f8
fe
ff
fb
02
f8
f8
03
fb
03
fa
03
01
03
fc
06
06
02
01
f8
01
f9
00
fb
01
fc
ff
05
02
01
00
f9
fd
ff
fd
01
03
fd
04
ff
fb
03
fc
02
01
03
fd
02
f8
fa
fa
fc
fc
fe
01
05
fc
fe
04
03
fe
fd
02
fd
f9
fd
02
06
03
ff
04
01
fa
01
fa
04
03
fb
01
00
fd
fe
fe
02
04
f8
04
fa
fd
fe
ff
00
00
02
fa
06
00
fd
06
fb
05
ff
06
fe
fd
f8
02
fb
03
fb
fb
ff
ff
fc
04
02
fa
fc
fb
06
06
06
fb
04
fa
07
07
fb
fd
fe
02
fe
fb
01
01
fb
03
fe
fb
04
f8
03
fc
04
fc
ff
09
08
fe
05
fa
ff
05
04
06
fd
ff
fd
fb
02
04
02
ff
00
fb
fd
07
fe
fb
fb
fb
fd
fd
06
fa
04
ff
f9
04
02
fa
01
f9
04
03
fe
03
03
00
fc
05
fa
fc
ff
ff
06
fb
fc
fb
04
02
fc
fe
fc
fa
fc
fd
fb
06
fc
fd
fb
03
fb
ff
04
00
fe
fc
fd
05
ff
06
fc
08
08
05
02
03
ff
07
f9
04
f9
01
fc
ff
fc
fb
fc
fa
f9
fb
02
02
04
01
f9
f9
fe
f9
fe
fa
fc
ff
fb
04
06
02
fe
fb
01
fd
fd
01
fb
06
07
07
f7
f1
f0
f4
ef
f0
ea
fa
0d
01
03
06
08
f9
06
00
f6
e0
e8
fe
00
00
fd
04
04
01
fa
fe
f7
ef
e5
e0
ea
e7
02
03
00
0e
03
f8
ff
fd
03
f3
ee
00
ff
fd
07
0b
fd
05
04
fb
fa
fc
f5
f3
e3
d5
ea
ea
e6
0d
04
ff
fa
04
fd
0b
07
fa
02
fb
fe
01
ee
08
f3
fa
03
fa
05
ff
f9
ed
e7
d5
f5
02
fb
1a
11
1d
11
06
11
fe
01
01
06
02
f8
f3
fb
0b
f1
01
ff
fb
03
f7
f5
fe
ed
ea
00
fb
02
09
15
07
ff
ff
f8
fe
fb
01
f8
ed
f6
eb
fd
e3
f2
f8
f9
03
ff
04
fb
01
fd
07
f3
00
05
17
03
f4
f8
f0
fb
f8
fd
fc
06
03
f2
f2
f1
ff
02
14
04
fc
ff
fe
fa
13
08
f2
02
fb
01
f1
f0
e9
ef
df
e5
e3
e5
fc
f6
ef
fb
ff
f9
16
0b
03
07
01
1b
ef
f9
21
0e
e8
fc
f9
f1
e9
ee
d9
e0
f1
ef
ee
ef
ec
ef
f9
e4
e1
e6
17
0c
0a
02
fd
02
f2
f5
0c
03
ee
ed
ea
fe
e9
e7
f2
f9
03
ff
fe
fa
e8
e5
f1
ea
e4
d9
e4
09
f2
fb
f8
f6
f2
f7
11
12
f6
f7
f1
f4
f3
e4
ed
01
12
0f
00
ea
e6
ec
f2
f7
f5
e4
f2
eb
f4
f9
f0
ff
ee
f9
09
fb
0f
fe
f2
f8
e7
e3
ed
f5
00
05
07
01
fa
e7
fa
ee
f9
03
19
f8
11
ee
fb
f4
ea
e4
04
08
0e
fc
f8
fa
fd
ff
f5
09
01
f7
f4
03
02
fe
fd
f2
f4
06
1d
03
f3
12
03
f5
e2
db
f7
0e
21
18
08
0b
0d
10
1b
12
12
0d
0d
07
f9
ed
f8
ef
fa
0a
13
08
ea
14
04
f9
ea
05
fb
20
35
21
19
04
0f
0a
05
0e
14
18
11
ff
f1
ed
f6
05
05
1d
11
ee
d1
f2
05
f7
fa
11
f4
18
1f
13
10
0d
09
0c
03
f2
06
0c
0f
fd
04
fe
0c
16
18
0e
1e
f4
f7
01
fd
08
0a
ff
11
21
06
0c
f6
f3
ed
e6
e9
e6
01
04
02
06
10
14
19
15
17
20
1c
11
da
fa
04
fe
0b
fc
01
0b
f6
fe
f4
e9
db
e0
d2
de
ea
f3
f3
05
12
20
30
11
1d
1d
1d
fc
d9
f4
fb
fe
fc
04
02
0b
0a
0a
01
f5
f9
f4
e0
d5
e4
ed
fc
06
16
0f
0f
ff
18
14
f8
f1
e9
03
fc
00
f3
11
f9
fe
0c
0b
0d
14
0c
13
0b
03
05
05
10
0b
09
05
ea
f3
04
05
fb
0c
f5
f6
fa
fe
f9
1c
0c
06
08
02
08
1e
27
33
36
28
21
27
1c
0e
14
f0
f1
fc
f4
f4
fa
ed
e6
f6
fe
fb
f5
fa
06
02
10
17
15
29
25
29
35
29
28
26
1b
15
11
04
f6
ea
e8
fc
e1
ef
fd
04
00
f8
ef
fb
eb
ff
05
16
16
0e
20
25
26
23
1b
19
15
0c
04
03
f0
f5
ef
dc
d8
ee
f3
fe
fe
00
01
fa
eb
e7
fb
fd
04
04
0b
0e
18
15
13
15
09
fc
f9
f1
e9
e8
ee
d0
c4
e8
03
04
01
05
fd
03
f3
01
f8
f4
f8
0a
06
0a
03
f7
fa
f6
df
d5
ee
df
e8
de
d9
cf
dd
f7
0c
ff
02
07
f8
f6
03
f6
ef
f3
f1
f8
e7
e2
e8
e6
e9
e5
d5
e0
db
ca
d2
dc
d0
fa
fe
f8
04
fa
fa
fb
00
ff
03
f7
ef
ed
e5
e4
de
da
d8
d6
c8
c7
bc
d1
d0
c9
c9
e0
eb
ff
0f
fa
03
05
04
05
f8
f8
fc
f4
e3
ee
ed
fb
fb
e5
e8
f3
ec
ef
d9
cc
db
d8
e7
ff
fc
f9
ff
07
fc
fd
03
00
fa
f6
01
f8
03
fb
ff
0c
ff
03
fd
04
ff
04
e6
d4
ea
e4
f9
ef
fb
00
fe
06
03
04
06
04
03
fd
f6
f2
ed
f0
e8
df
e2
e3
e4
e3
ed
e7
f4
fd
07
03
fa
fe
fe
fc
02
fc
02
04
05
fd
fa
05
f9
e7
f1
dc
e8
ea
e8
e4
e7
dd
e4
f7
f7
f9
04
01
11
0d
05
0f
0b
0f
05
fc
f9
03
01
fc
ec
ed
ea
e7
e9
f1
e3
de
dd
de
f6
f9
fd
03
fe
0f
05
14
0c
04
12
0d
fe
03
fc
05
04
fc
fa
f8
f3
fc
f9
f2
f0
d3
e9
e7
ec
f1
f7
e4
f5
05
10
27
1e
19
09
03
fa
04
fb
fc
0c
f8
fb
fd
08
ff
0b
0c
f3
ef
f0
fb
fb
ec
f1
e7
f1
17
20
13
0d
16
0f
15
22
fe
fc
06
fa
fb
0b
12
11
1d
03
06
fc
f3
05
f0
ed
e6
f3
f0
0a
1d
25
30
2c
28
18
29
f9
06
00
01
e8
0d
03
1b
26
08
12
0d
f1
f3
ed
e6
da
d3
e1
eb
01
25
1b
1f
09
07
13
2b
22
1c
fd
16
10
07
25
22
17
13
10
f8
f9
f0
ea
e3
d3
d9
eb
fa
18
26
21
1d
f7
f1
e6
11
14
02
03
0b
1d
34
3f
0e
13
17
fe
00
fe
ff
03
f3
de
e2
f9
03
19
1a
13
fd
e4
ed
e0
0e
11
09
08
0d
24
26
17
1c
04
07
0f
fe
fb
00
f3
e5
d5
df
f7
0c
0a
19
05
ef
e4
d7
e1
0f
19
f0
0b
1a
18
27
13
fd
05
06
00
04
fd
01
e1
d4
e4
ef
03
0c
06
0a
ee
e2
d6
c7
de
05
0b
0d
fe
16
27
fb
08
f8
f5
f0
06
f9
ee
e6
de
f1
ff
f7
fc
fe
07
ff
d7
be
bf
df
fa
0f
23
15
fb
09
1a
f0
ed
df
dc
f0
f6
f1
ec
ec
ff
10
01
00
08
0a
ff
f3
dd
e1
d5
d5
05
0b
1c
12
fb
02
02
ea
e8
df
dc
d5
e0
e2
ed
ef
1d
26
17
0f
fe
06
fd
fa
e5
ea
ef
ea
13
0e
2a
1a
05
05
00
ea
f2
eb
d9
db
e1
f6
fb
0e
16
20
2c
19
04
fc
ea
ef
f5
f3
e9
f8
f8
16
1f
00
fb
ee
04
f8
02
04
fe
f2
e7
f9
00
05
01
1f
2e
0d
f8
f2
ed
ef
e9
13
f8
f0
fd
18
39
0b
01
fc
0e
06
13
1b
1b
04
07
0f
1d
08
0a
0c
1c
09
f8
f6
f6
04
ff
1b
1a
03
19
2f
32
12
04
06
28
12
13
1e
14
1f
16
18
10
fc
f9
0a
0e
08
07
05
08
0f
11
24
2a
0e
14
17
22
f9
01
0c
18
20
1d
1e
16
07
0f
10
fd
f1
f9
0a
11
18
1e
14
08
11
24
25
2c
1c
2f
25
1b
0e
05
08
1d
11
0d
10
1a
17
ff
08
0e
eb
f5
0c
1d
27
1b
21
1e
19
11
20
1c
0c
13
19
1b
0a
05
ec
1d
26
0c
e9
0d
0f
07
06
ff
f9
ea
04
16
1f
23
27
14
1e
1d
28
0c
0c
fd
04
0d
fc
fd
08
18
1d
0c
f1
f5
fe
00
fd
fb
f9
fe
02
13
1a
0f
25
1c
1b
14
1b
08
10
f1
ff
05
ff
ff
01
0d
f9
21
1a
fe
fc
f9
f8
05
01
ff
09
12
20
15
11
10
18
18
0c
fa
ec
f3
04
03
01
00
11
13
07
1c
00
fe
fd
fb
03
fd
ff
01
0a
0b
16
17
03
05
17
15
00
fe
00
f1
13
13
fa
fd
04
15
f7
07
f1
04
ff
01
ff
fc
04
ff
f6
0f
0c
14
f0
fa
ff
e1
e8
e5
dc
eb
09
fd
ff
fc
01
05
08
fc
e3
f4
f2
fb
f9
01
f4
f4
eb
ea
ef
f2
eb
de
dc
db
d1
e9
fd
f1
00
fc
01
fd
ff
01
fd
fb
f2
f2
f1
ed
f3
f7
f4
eb
de
d3
d7
d6
d8
df
e3
d1
d3
ee
fb
03
fa
04
04
04
ff
fe
03
00
00
09
05
09
11
0d
08
11
1d
17
1f
23
36
18
0f
05
fc
f6
fb
fc
03
fd
fd
fa
fa
04
fc
ff
fd
fe
00
e8
ef
ef
fa
eb
ed
ee
fc
f5
f2
f1
f4
f4
01
fc
fd
ff
02
fc
06
fc
ff
fc
fd
05
06
f4
f1
f7
f3
f1
f6
f7
f3
f1
fe
04
0c
ff
f6
0c
02
05
03
fd
fd
fe
00
05
07
01
08
06
06
f4
f3
ef
f1
f1
f0
f6
f5
fc
f7
f8
f5
0a
00
f8
f1
01
01
0c
03
04
fb
fe
fd
fc
03
01
f0
eb
e6
e6
f5
ef
f1
f5
07
01
fe
06
03
fd
f3
f5
f4
09
f8
fb
03
01
fa
fb
04
f9
fe
0c
02
e8
e9
f4
ef
f5
03
10
15
15
0c
0a
f8
fa
f1
f9
fe
ff
f9
d6
f9
fb
03
fb
ff
05
ff
15
f3
05
f8
15
0b
00
03
0a
0c
11
04
fe
e6
e5
ef
fc
f8
ef
f0
fd
e0
ee
ff
fd
ff
08
1b
1a
0c
0e
fe
11
0d
ff
0b
02
f3
e8
ec
e9
ec
e5
fb
f7
04
f2
ec
da
ea
ef
fd
ff
ff
12
29
1b
21
1c
23
fe
04
11
05
04
ee
e8
f3
e8
ef
ef
fc
f1
f0
ee
ec
e1
fe
fd
01
fd
12
1e
1c
33
2c
19
10
0e
22
1b
21
0f
f0
e8
e3
d5
f3
fb
ec
f6
f1
e6
04
e7
ef
e7
e4
08
0f
17
1c
3f
1c
18
16
07
13
15
09
0b
f1
e3
db
df
fd
fe
f9
04
f2
ef
ef
e5
df
f6
fb
07
0c
16
0b
26
23
0a
11
16
1e
1c
0e
04
e4
d4
de
fc
17
15
08
0c
05
02
e8
d1
ee
d4
fb
0d
1a
22
10
13
06
16
27
1f
23
26
1a
fd
d5
c6
ee
25
26
1e
11
16
13
fe
ec
e3
d4
df
18
01
16
22
24
05
09
08
32
34
2a
32
1e
e8
ba
c2
ee
24
24
1b
fd
fe
0c
05
f9
10
d5
ee
18
01
10
25
0c
08
1a
18
2f
2e
28
23
03
cd
ae
cc
0a
25
24
07
0a
02
12
03
0a
01
f2
f6
f0
07
05
19
0e
0b
20
0a
1e
26
1d
17
ec
c0
b7
e3
19
33
16
12
0e
19
0e
0e
05
f9
f4
ed
02
fa
e7
1b
1a
fd
09
17
1f
25
1c
02
d8
b3
af
ed
20
18
24
0b
0c
1c
19
13
02
ed
ef
ec
fa
04
05
08
04
04
1e
28
2c
23
0d
ed
d0
b0
c1
11
2f
1f
1a
0d
1c
18
25
fb
f3
ef
fd
e1
00
06
0b
fd
ec
1a
1c
07
21
0b
fb
f1
c7
bb
e8
2a
2b
22
09
15
0b
18
0a
fd
f4
fa
fa
e5
fd
fd
0f
06
fa
16
0a
00
0c
0d
05
dc
b4
ae
f7
29
20
1b
09
01
fd
01
07
e0
d9
dc
e8
fc
fa
06
0e
06
10
10
0c
fb
11
07
f8
c8
c8
c8
f4
28
1c
11
07
f0
f5
ed
f3
df
ce
f1
ed
f2
03
05
09
05
0e
05
02
fa
f7
f4
d6
cd
c7
e0
ff
1c
1f
06
06
e8
e5
d7
d6
c0
ce
e4
d0
01
ff
05
0a
10
06
fb
02
fb
e7
db
e0
d7
dd
fb
05
17
11
17
fd
e1
cf
e5
d9
be
cb
d9
d5
06
fa
ff
fa
0d
00
ef
f7
ef
ee
eb
f5
e9
ff
f7
05
0e
04
00
05
dc
e1
d4
ca
bd
c8
df
e4
02
fa
fe
ef
ef
eb
d9
dd
ea
f7
db
f9
06
00
f7
03
fe
02
f7
fa
eb
d5
de
dd
be
d3
d7
fe
fa
fb
07
07
ea
02
f4
f6
f9
f8
ff
14
18
09
0d
fc
f6
08
07
fb
df
db
e8
e2
f4
da
e3
f4
f9
ff
f9
fe
00
f4
e3
dd
e8
e7
fe
fe
fa
01
04
00
14
0a
f9
f6
f7
e0
d8
fa
f5
ca
e7
fd
06
fc
fd
fb
fb
f9
f4
e7
da
f2
f9
fe
fe
05
fd
0d
04
01
0c
0a
ed
00
e9
fb
01
00
ff
02
01
ff
fa
05
04
ff
f9
f6
f6
e7
dc
f7
0e
f2
08
1a
00
f0
05
1a
0a
f2
f4
05
f5
ff
02
fa
fd
07
00
06
fa
04
1a
1a
19
1b
09
06
ff
01
00
03
ff
01
08
09
11
0f
10
06
02
f6
06
03
05
fd
fb
07
fa
09
1e
23
26
20
13
0f
0c
05
13
0c
04
03
0c
05
00
0b
0f
14
14
01
f0
fe
03
05
00
fe
fe
06
12
30
38
2d
23
19
17
0c
0c
fe
0c
05
15
09
f9
f3
ff
05
12
fb
ed
05
06
fb
ff
05
fc
12
19
2e
2a
1a
2c
27
28
29
24
11
fc
f8
10
0b
01
0b
05
08
1f
16
10
03
03
05
ff
fc
16
11
13
2a
20
14
21
20
1d
16
07
00
fe
fa
fd
09
17
0e
19
12
02
f1
eb
f7
ff
fe
fb
03
04
0a
22
12
13
0b
06
0e
0a
07
10
08
09
01
04
02
00
06
13
13
16
f6
f1
f5
e7
02
f9
02
05
17
16
02
10
09
0f
1f
24
12
17
13
13
18
16
05
14
09
0c
0c
03
ef
f9
df
e5
e7
fe
19
16
24
10
0b
14
1d
2e
28
2b
21
29
25
1c
13
10
0e
09
11
1d
10
11
f0
00
d9
e6
fa
04
0d
1f
1c
1b
08
15
1e
20
25
2f
37
2e
28
35
17
0a
14
08
0e
11
01
1e
04
dc
e6
f1
fe
08
0b
11
23
1e
0d
02
16
22
20
1d
0c
16
04
0f
0c
01
0c
09
ff
ff
02
0d
06
db
df
03
18
01
09
11
14
fc
ff
01
f8
fb
ec
d9
cd
c9
c1
e1
e7
01
01
04
fb
08
09
ff
f2
f2
04
11
07
08
05
0d
f2
e7
df
d6
cc
bc
b9
a9
b0
a9
b2
d7
e1
f5
fd
ec
fa
f8
e8
07
07
f8
f9
f3
f9
03
fc
02
e9
c3
b9
a6
95
8d
8f
ad
b1
ce
e4
f9
f8
02
f6
f8
e4
00
e6
ea
fe
fa
12
12
ee
07
fb
03
d0
ac
a4
a3
94
a4
b8
cd
ef
0e
1e
10
fe
03
f7
f2
fb
ef
fd
f2
02
18
15
18
13
06
fa
1b
d0
c2
b3
c5
e1
e2
fc
0a
1d
32
1c
21
07
07
0f
0b
02
f9
ff
ff
08
0e
1e
21
fc
fe
f5
fd
e1
e0
f0
f8
12
14
27
24
23
1e
1c
13
0c
01
fd
09
02
f8
05
0b
08
1f
fe
0c
0c
07
01
0d
08
ff
0a
23
2d
27
22
22
12
10
14
05
fb
fe
03
fe
fa
fa
0a
08
1a
18
1e
17
1b
fa
fd
08
18
21
0f
11
1d
1e
18
0d
0a
0a
08
05
04
fd
f5
fa
fa
ee
e5
f9
02
fb
12
20
fa
fd
05
fe
1a
15
1b
0e
0a
ff
03
01
f9
00
08
02
fc
fe
f8
fe
ff
f5
eb
ff
fa
07
21
19
15
05
fe
ef
19
21
1c
0e
07
00
06
03
00
fc
03
05
04
ef
fa
f4
eb
f1
f2
05
f5
02
17
1e
0a
fc
04
f7
19
19
0b
0d
f7
f5
fc
f8
ff
fa
f4
05
fa
ed
eb
f1
ed
f2
f9
de
e7
08
03
05
01
f9
f8
0a
28
19
01
f8
f4
f4
ed
fc
f4
f0
f4
f0
ee
f5
f2
f1
f6
f4
f4
ef
fa
03
07
05
01
fe
00
07
02
17
0c
fb
fc
f2
ec
dd
e5
e9
ec
f8
f8
00
04
f7
fc
fd
ed
fb
ed
04
02
06
fa
f9
04
07
ff
05
03
06
fd
ef
f4
df
f1
ec
f8
fb
05
00
f8
fe
e6
f1
f8
f9
eb
fc
ed
11
02
02
05
02
0f
16
01
f5
f1
f1
f9
ed
f8
fa
06
fc
07
05
11
e1
e5
ff
10
f0
e2
10
18
06
03
01
02
03
f2
0d
f3
fd
08
11
13
04
05
08
02
03
0d
07
fb
02
fc
0c
0d
08
e7
f0
fa
fc
fa
04
fb
06
0d
f5
e1
f0
07
05
06
fb
f0
fd
fe
02
0c
04
09
01
0d
06
09
0c
00
05
05
ff
06
00
02
15
11
15
f6
ff
0a
06
fc
09
fc
10
06
0b
fd
02
0b
0c
03
0f
0e
f1
02
fd
fa
07
ff
fb
05
04
fd
06
04
12
11
0f
0c
18
04
12
0c
ee
ec
e5
e5
e2
d2
f2
eb
01
08
00
f9
ff
01
00
06
fb
01
09
07
0c
13
0f
0b
0c
1d
00
00
ed
e8
e8
ed
e1
e2
e6
ed
f9
08
04
f7
03
fb
fc
01
fe
03
08
ff
0f
24
17
09
1b
19
0e
fd
f3
f4
f4
eb
dc
d8
e2
eb
ed
ee
f6
f7
02
01
fb
03
07
ff
fc
f1
f1
1f
18
12
09
15
0b
05
01
e2
d4
cf
c2
d7
e0
e4
e3
eb
f9
0e
f9
f9
06
fe
04
f1
11
f3
ea
15
09
0f
15
17
06
ff
06
12
00
ec
e4
df
eb
f0
f3
07
02
fd
0f
00
04
00
05
06
ee
db
0c
02
fd
04
12
13
11
1a
22
1a
11
13
05
f8
10
fc
06
03
f6
0e
11
ff
f9
03
05
19
1d
fe
08
0a
0d
03
1a
10
23
27
33
34
2f
23
25
18
0d
0d
0c
0a
1e
1c
0b
07
05
0f
00
1b
08
0b
11
08
19
08
fe
0c
0e
11
25
27
27
25
29
27
17
1f
0b
fe
0b
0b
0a
05
05
0c
fb
06
f5
0c
04
fd
ff
fe
f9
fe
04
0b
1b
17
27
19
2c
30
2e
0f
0a
07
0d
14
08
11
01
0a
f6
08
06
f9
f2
09
ff
fd
f6
f9
f4
f4
f0
fd
0a
0c
22
17
1c
12
11
0c
0f
0d
f4
03
00
10
f9
1a
f9
fd
07
06
f9
ee
fa
fa
f3
e7
d6
dc
f4
f2
01
f8
12
0f
f9
01
f5
06
0c
10
fe
06
fb
f9
ff
f1
05
0a
0b
05
fd
fe
fa
ef
d0
d8
e9
eb
fd
ff
f4
f7
eb
f5
e9
01
23
ee
01
04
fc
fb
f2
e9
f3
ff
11
12
19
0d
01
e9
e4
eb
ed
e5
fa
f8
ff
fa
e9
ec
d1
18
0c
f4
fe
08
05
ef
e4
f0
f7
09
08
1d
18
06
f8
fd
fb
f3
e4
e9
f6
09
ff
f3
f0
dd
f8
f9
f4
ff
fd
06
09
00
f1
f5
f5
fe
01
03
fd
f5
fd
fd
f8
fa
d5
d3
ee
ee
fa
03
00
fc
13
f4
02
fb
fb
14
08
fc
f9
12
ff
0c
06
fc
04
08
19
04
f8
e9
cd
cc
dc
ef
fe
08
02
08
2d
f9
e8
f6
fb
02
0f
11
f6
f7
f9
f7
01
f7
fd
11
1c
18
fe
ef
da
d4
e1
06
05
11
18
0d
2a
ec
f8
fa
fa
fc
f1
1b
fd
ef
ec
e9
f2
e2
fe
17
16
f6
e8
e9
d2
e6
f0
0f
1e
23
19
18
09
e6
f4
06
fe
fd
f3
07
f7
ee
e6
e2
ee
c8
ee
ec
e6
d3
cf
e2
f9
fc
03
1e
1c
2a
2e
18
12
f7
f0
e8
fa
fb
fb
06
02
00
ee
ea
f1
dc
c7
ca
e2
d1
d3
ed
01
0c
1a
14
2b
12
0f
05
16
fd
fb
f9
fa
01
fe
f4
fa
0e
ef
f6
f2
e6
d9
dc
e8
f1
f3
03
19
1c
1e
15
0d
fa
ff
ff
e2
ed
f7
fb
fc
fa
e4
de
f0
f7
f6
f5
02
f1
f5
05
0a
1c
24
2c
2e
23
22
0a
07
f6
08
fe
d5
ed
fd
fe
fd
ff
00
ef
f4
ed
01
0a
12
0d
12
14
23
2d
37
42
45
34
16
11
09
fa
0e
ef
c7
e2
00
fb
f9
11
04
0c
0d
27
28
25
25
32
3d
3a
37
32
42
39
2f
22
13
00
02
f6
fc
e7
e5
e9
ed
04
fe
01
05
1a
2c
16
1f
28
19
28
29
2e
30
29
21
1d
0c
0d
0b
03
f0
f2
ff
fe
0c
fa
01
03
04
06
f5
01
0b
13
18
24
20
23
17
1a
20
1a
fc
07
ff
fc
f0
e6
f2
09
1f
0f
0b
fd
fe
f9
02
06
f2
f0
e9
ef
00
fe
13
11
09
1a
04
13
0e
04
f2
dd
d3
dd
fd
14
05
08
06
f9
06
fd
01
fb
f6
00
f7
e4
ee
fb
fa
fd
0a
10
0d
06
04
f6
d5
c9
e0
d4
dc
ef
ee
04
fe
00
06
f9
01
ff
00
0d
17
1e
0f
1d
0d
01
02
12
06
04
12
0c
0a
01
06
01
03
02
f5
f8
08
f9
ff
00
02
04
f9
10
21
28
27
26
15
0f
17
0c
22
0d
02
ff
f5
f5
f1
f6
09
f1
ff
fd
eb
fd
05
fd
ff
ff
ff
05
19
30
2f
1f
1e
27
20
1d
21
07
0b
f7
f3
fb
01
ff
0e
0e
0f
ff
09
fc
fe
ff
00
fc
03
0c
13
26
32
2a
31
26
2b
27
1e
0b
08
04
f9
fb
fa
06
14
10
09
08
19
e5
fd
07
fc
f9
f2
11
30
32
2d
14
18
15
16
06
1d
01
0e
f5
fc
ee
fa
00
00
03
04
f6
fc
06
ff
fa
fe
00
05
07
1d
18
0c
0b
05
02
fa
07
0c
0e
fe
f5
f5
f6
f3
f7
ea
e7
e5
f2
09
0e
0d
03
00
01
19
01
2d
f5
f8
fa
f5
fd
f5
01
10
0c
18
0b
03
08
0a
fa
fe
f0
ed
ec
f5
0d
f8
10
f9
19
08
13
10
01
fd
f0
fa
fb
f9
ff
0e
11
0b
25
1a
0c
11
00
fc
f7
ec
e5
fc
0a
fb
f8
06
0a
03
fa
0d
01
f6
ee
ff
f7
fb
07
fd
0e
0a
0e
18
0d
0b
fd
f8
fe
fd
e9
ff
f0
f7
02
00
08
07
14
09
fb
01
fb
00
07
05
00
02
00
09
07
04
02
fd
0f
10
06
fb
f2
ed
00
00
19
00
05
ea
05
fc
04
07
05
08
09
07
03
f7
f6
fc
fb
fe
f8
0b
19
18
04
05
09
e8
d9
f2
ef
08
0e
06
17
00
06
0b
01
09
10
22
12
07
f5
f6
02
07
10
08
0d
1f
0b
10
01
f5
e1
df
0d
03
04
03
0b
11
13
fb
0c
01
0b
17
14
f4
fe
05
07
08
0f
10
04
10
05
10
13
14
e8
ce
14
ff
ff
03
14
14
0e
01
12
0f
11
1a
06
02
18
18
1a
11
0c
13
0c
13
08
03
0d
0f
e1
cb
e6
04
04
00
0a
0e
0b
fa
00
04
12
14
0a
08
0d
10
15
12
11
15
19
12
10
02
fe
d7
f4
f8
01
fa
14
fb
ff
f7
f4
02
fe
02
0d
0f
07
0a
12
1b
12
0c
13
11
1b
1b
1b
0e
02
e4
fd
e9
fc
fd
fa
f9
e7
f3
01
fc
05
13
15
14
0a
02
0c
11
04
ff
15
0d
1d
11
f9
08
fc
e7
04
d1
ea
02
f3
f3
e8
f0
fa
f0
05
0f
17
1d
08
11
04
ff
02
05
07
12
1d
1b
0b
f8
ec
e4
f9
d8
fa
ff
f3
ec
f9
f4
ed
f3
12
0b
15
12
08
02
03
fd
02
fc
07
12
0d
09
fa
ea
df
d5
fb
f0
e6
fa
f5
eb
eb
f2
e5
eb
00
06
07
1c
0a
07
03
12
06
0e
03
04
0e
01
fb
ee
f2
da
d5
d8
fc
04
f0
f1
ff
01
f0
f2
f8
fc
0a
13
01
f9
03
0f
0a
04
03
07
02
02
ea
df
e0
f1
f3
e1
ff
f9
ff
0a
e8
ee
ea
eb
f3
fd
fc
13
07
11
12
0d
02
0a
03
f5
fb
f4
e4
e1
e7
fe
e4
f2
fc
fd
fe
01
fc
eb
e3
e2
f8
f7
00
00
03
07
0e
07
0a
0d
00
fa
f8
f3
e0
f1
00
00
f1
ef
03
f9
f2
f0
0c
05
f0
f4
02
08
fc
f9
01
03
06
fe
ff
f6
01
09
fe
02
fe
0e
0b
04
dc
e5
02
05
03
f2
0c
08
1a
08
1e
09
02
09
0c
05
09
fd
0b
16
19
ff
10
22
0e
1a
1d
fe
ea
02
fd
ff
03
04
fe
08
19
0d
11
0e
06
0a
08
fc
00
0f
0e
06
12
0f
0e
19
13
f4
01
02
01
00
fb
fd
00
fd
00
07
13
17
0d
11
fa
09
01
00
03
0f
0a
11
14
0e
06
1a
21
17
12
02
04
fe
01
05
fc
fe
02
01
0b
f5
06
0f
fc
01
fa
fc
f5
06
f2
fd
f8
0f
03
0a
0b
0e
fc
04
06
fc
fb
02
07
ff
06
ff
fb
06
10
00
00
e9
ef
e3
e0
de
ee
fb
fb
fb
0f
12
0c
08
0b
05
05
06
03
fd
fc
fd
00
03
fc
f3
e1
ee
f3
e8
e6
d2
da
eb
ec
f4
01
08
10
ff
ff
f4
11
05
0a
06
06
fb
02
06
fd
f9
f6
d3
c0
d1
c8
d1
c5
cb
e0
dd
e7
dc
e7
eb
f6
f0
ed
ec
fb
05
0f
fd
01
fc
fa
f9
05
02
e0
ba
ac
9d
98
b2
c8
bd
b6
d0
e0
d9
ed
da
ef
f8
e5
d4
d3
dc
05
fe
02
fc
03
09
fc
e9
dd
d2
c4
c4
c0
c0
e9
de
cb
cd
e0
e4
e0
ec
ea
e3
e4
dd
dd
fe
e8
f5
fa
04
fe
ff
fb
e4
f6
e6
e8
e6
d2
d5
d4
d5
cb
e7
ed
e6
e3
e0
d2
dd
de
f1
fd
ef
f1
f2
fd
04
02
f5
13
f9
16
0f
f1
e7
e0
e3
c4
cf
d1
d7
d5
d1
d7
cb
db
e4
f4
03
09
14
04
17
f1
02
fd
0f
18
eb
10
03
fe
e0
e7
e5
c2
c7
c9
dc
cd
de
e3
eb
f3
ee
0e
15
15
0f
19
10
00
fc
1c
23
09
ff
12
fe
f6
f3
e4
e6
dd
e2
e3
e0
ed
f1
07
08
16
1f
15
23
19
1c
37
03
fc
06
1a
29
10
0a
fb
ef
ef
ef
e3
f0
f1
06
15
16
18
18
22
28
19
21
17
16
18
2d
22
13
10
15
20
2f
fc
eb
f6
f3
f5
ed
ec
fa
0e
24
34
28
29
1a
17
1f
31
1e
20
10
11
23
4b
32
fd
07
22
34
e9
f3
fc
fe
fa
fb
0e
08
19
2d
25
0e
14
0c
10
14
14
04
0a
08
09
13
2f
20
f5
03
17
25
ff
ee
d6
f8
06
1d
15
12
10
18
03
09
01
0e
04
fc
fa
ef
f2
e9
c8
e1
1f
34
fd
fd
00
27
dc
f6
f7
0f
0e
19
0e
19
18
06
04
fc
fd
0f
10
00
fd
00
e8
f0
d6
f2
1c
17
12
01
0d
09
fe
13
11
13
1a
15
15
19
08
f9
f9
fa
ff
1b
1f
f9
09
0d
04
12
21
2b
20
ff
01
06
03
14
16
07
1c
2a
20
1d
0c
16
07
0e
03
04
1c
22
22
0d
0c
0e
23
13
11
22
0b
28
0d
01
03
0b
0a
11
27
26
15
1e
04
04
03
10
06
11
17
19
1c
08
07
12
27
20
13
1a
14
07
0e
04
08
19
f2
0a
28
2b
19
f6
08
ff
fc
ff
0e
1c
1a
18
04
00
ef
08
1a
06
13
02
fd
f7
07
00
0b
1d
0d
0f
24
2e
0a
02
fb
0b
05
fb
03
18
0c
0c
fc
fa
04
06
f1
ff
04
ef
de
f8
0b
f9
0a
16
16
18
18
0e
04
fa
f7
f1
f5
e5
f8
04
0d
10
02
fe
00
01
f4
ee
f2
f7
13
22
ff
fd
09
16
fc
f5
e7
fb
f0
f6
f1
e8
02
ec
f9
0f
12
02
ff
01
f4
f3
fe
ee
fa
16
f6
07
fd
ff
0d
1b
04
05
e7
db
de
e0
f6
dc
e5
f0
f6
0b
06
0a
04
f5
f7
ef
f9
fd
08
00
f4
01
ff
fd
fb
08
0b
fe
f1
e9
eb
fa
ef
f4
f7
fd
08
05
0c
04
0b
ef
01
00
03
fe
03
1a
12
fd
fb
00
03
03
fa
ff
0e
ff
04
f6
05
06
01
03
05
10
11
1e
13
03
14
11
0a
f2
fb
11
0b
06
01
01
04
00
ef
e8
f9
f3
fb
01
0d
0d
03
09
02
0d
1c
13
1f
0d
1c
13
19
0f
00
02
0c
fc
fd
04
02
f9
01
ff
fa
f5
e1
d9
dd
eb
ea
f7
fb
05
17
13
1d
19
10
01
0b
13
13
06
fa
00
ff
03
fa
03
fe
ee
e3
e3
db
e5
e7
d6
e8
e4
e9
e5
ff
f5
f6
ee
1b
ff
f0
f7
f2
06
03
fc
03
fc
ff
fb
fb
03
05
08
ee
ea
f6
10
ef
fc
0f
fb
03
1a
2b
17
1d
16
fa
f4
02
00
fd
02
02
03
f9
04
fa
eb
e3
e8
e2
f6
fb
00
05
0b
0d
0f
0a
03
0a
05
01
e9
ed
04
ff
f8
09
fd
06
fa
00
fb
ff
ee
e3
f3
e1
eb
0a
02
fe
11
fc
fe
fe
f6
f4
f3
fe
fb
f2
ee
0c
0a
0b
03
05
fc
ff
fe
f6
ed
ef
f2
f8
fc
f7
f8
fb
fe
e3
f5
eb
f1
ed
fc
fa
0b
05
fb
04
10
0d
fc
fc
fd
fb
ff
f2
f8
fe
fa
f8
fc
f1
ff
f9
f3
ea
f8
fd
fb
f4
fd
00
0c
07
f7
0a
0c
f0
fd
06
ff
ff
ef
ef
fb
fc
fc
ff
00
f4
fb
02
0a
02
0b
f8
01
02
f4
f8
f4
f7
f7
09
2c
23
0f
07
00
05
05
02
04
01
fe
0e
f3
00
fc
04
07
06
0c
03
0a
06
03
06
f8
f9
00
1f
1e
29
12
03
00
02
fd
ee
f3
04
01
fc
00
0f
02
f8
00
f9
ff
02
f4
fe
fa
fc
ef
ea
01
1b
32
33
35
17
06
12
fb
ed
15
05
0a
f9
12
fb
fe
f9
f3
f5
f2
ff
ee
ea
f8
f2
f0
fc
05
fe
16
50
37
01
05
f1
fb
0a
18
0d
07
06
f7
f9
f0
04
fc
0a
f1
f9
ef
fc
f7
fa
f1
f9
ef
f7
04
33
33
12
fd
f2
ff
f3
04
06
ec
f0
f3
fa
f6
f8
00
f4
f3
f3
e8
f6
fe
fb
00
0e
fa
14
01
1f
1d
ee
f8
f2
f1
01
f5
e9
ef
e8
ea
f2
fc
06
15
09
eb
eb
e7
f7
ed
f7
f3
ff
f3
e3
01
0e
0a
0b
fa
eb
e8
f7
f6
04
f4
e4
e9
ff
08
13
2c
1a
07
fb
f5
f7
f2
fb
eb
e1
e5
e9
04
08
0d
17
fa
f5
f2
e1
f0
ea
eb
ef
ee
00
10
16
1c
18
18
09
08
01
01
fc
f6
f5
ee
fe
04
05
ee
0c
fd
f4
e1
e6
e6
f4
f2
ef
fd
0c
0e
0e
0c
20
1f
09
03
05
0e
ff
fd
f6
f6
ff
02
00
24
0f
04
f7
fc
ee
fc
05
fc
00
fd
0b
12
0b
0f
1f
2d
1e
19
1a
09
ff
ff
fe
f0
f2
eb
fd
fe
06
fa
f2
fc
05
fc
00
04
f1
fa
09
06
05
0e
27
21
14
1a
1c
06
11
f5
ff
fc
f3
ee
17
25
0e
05
07
0c
08
f6
fe
08
ff
fc
07
08
0e
11
15
23
1a
13
11
0c
05
f7
fe
03
09
0f
24
0e
16
ff
0d
27
03
f7
08
f8
0f
13
09
04
05
0e
16
16
0d
19
0f
0f
10
0b
0e
00
07
fb
fc
0d
02
fc
04
1a
18
fe
0d
15
10
fe
08
fe
11
22
21
24
1c
1b
0a
0a
10
0f
0e
0b
0d
0d
0a
0a
13
fc
11
1c
0f
04
09
1a
18
11
fe
07
04
07
19
1d
1b
17
17
17
0b
03
21
14
11
f0
ed
13
07
00
f8
19
2e
14
09
0f
1f
01
06
02
fc
f5
ff
01
16
1c
14
16
15
1d
28
16
05
eb
f8
06
05
ff
0e
30
1e
07
01
ff
0e
04
05
04
ff
ff
0b
09
0f
0a
21
1a
19
1c
28
20
1d
ee
eb
00
00
03
07
1d
19
1e
00
fa
00
02
fd
01
06
06
0b
11
1e
06
12
20
1d
19
21
0e
06
05
f6
f4
fd
fd
f2
00
19
09
00
04
01
19
15
07
19
18
1a
16
17
14
0b
24
21
29
1c
11
1d
f9
16
ee
fa
fa
f9
03
0a
00
ed
01
0f
0f
18
08
1c
1d
18
1d
1b
1f
06
19
09
06
18
0f
f1
fb
0c
03
01
fe
02
f9
02
f8
f2
07
07
fe
fc
1b
07
02
06
14
13
12
05
f0
f1
f9
f6
02
fb
f0
03
00
00
fc
fb
00
f8
fc
fc
f9
e5
dc
e1
de
d5
ee
e1
d1
e0
ea
e0
e1
d8
f6
ec
f3
f0
05
fc
fb
01
fd
fb
ff
02
03
0c
07
04
0b
0b
f3
03
fd
03
fe
14
26
22
21
18
17
02
1b
04
06
fa
fa
f9
06
03
00
f4
e8
ec
db
e0
f7
01
f9
04
0f
0d
1a
15
1a
10
0d
05
0b
05
ff
f0
fe
04
fa
04
fc
06
fd
ef
e1
d6
e6
e5
e7
fb
04
06
07
13
28
27
29
1f
26
18
02
f6
eb
ed
ee
ff
02
ff
fc
03
04
f6
e2
f5
e5
e2
f2
01
f5
05
07
20
11
24
1d
1c
19
0d
07
02
ea
03
f6
fe
fb
fd
fa
fe
f8
f7
04
fc
f4
d8
e8
e0
f1
06
fd
0e
1f
1d
23
19
0d
0c
fa
ec
e6
f6
df
fc
04
07
fc
f9
1c
f0
f8
f5
05
dd
e8
ef
f2
fe
0b
21
16
18
25
0d
0f
07
04
e4
de
d0
f6
0f
15
03
01
03
04
fa
fe
15
09
12
ef
fc
fa
fe
06
02
0b
09
19
16
17
17
01
f7
f1
e9
ec
f8
ea
fe
01
fa
08
05
f3
0a
06
fe
01
06
fe
fe
f7
fd
06
06
0a
02
04
fc
0d
03
ef
ee
df
ea
e9
f0
00
0c
f5
f4
1b
fe
14
00
00
f7
f9
fb
f4
f4
f9
01
fe
01
02
0b
0a
f8
f6
f6
e3
e7
e8
02
f9
f1
f8
0b
16
fc
09
01
f7
fe
f6
f1
ef
fc
f4
fe
03
04
12
18
0e
03
f6
f8
e6
e1
ef
fd
f7
f6
01
06
ed
f5
f1
e4
ee
eb
f4
f9
f9
f8
ed
0c
0f
12
20
23
12
fe
f6
f1
da
e2
0a
ff
fa
f2
fb
05
eb
df
e4
e1
e9
e9
f7
ef
fc
fd
09
14
12
1c
22
22
04
e8
e6
d0
be
d4
f8
09
fc
f7
e9
04
e3
e2
ce
cd
d9
ec
f8
f6
01
03
27
1e
09
16
1c
11
f5
dd
e3
c0
e1
f0
0a
fd
fa
f9
f8
ec
e1
cb
d1
de
e7
f8
00
08
0a
20
35
28
20
20
10
0e
e7
d6
d3
e2
fb
02
02
ff
fa
f7
db
f1
f0
d7
e8
f4
fa
f5
f8
fd
00
1e
2f
1d
11
14
06
f0
df
ce
d8
e0
ed
02
1a
07
fd
fd
f3
f1
ff
f8
fa
f9
00
fc
f5
f6
fb
