00
14
a6
2f
ad
0d
11
fb
0b
9e
ff
1d
e4
f2
b1
ab
db
fe
de
fa
17
fa
0d
d5
ab
2c
16
27
ed
23
d0
f9
14
12
13
bc
15
dd
26
f0
fe
c7
ca
9c
e7
e4
24
0d
cf
fd
39
0a
11
22
0c
f1
eb
2c
0e
f3
28
26
f2
10
d8
51
1e
2d
56
f9
d7
1e
2f
53
1d
c2
d9
e9
aa
40
13
12
31
dd
14
c7
14
f7
20
26
60
f2
02
0c
f4
0a
40
fd
03
22
0d
fe
b8
cd
0d
f3
23
09
e2
ee
4b
e7
09
d5
12
d2
5a
c3
dc
cd
f6
d4
e9
b8
cc
de
1a
e0
16
de
1a
2c
0e
31
35
32
19
cb
03
1e
0d
c3
db
f1
20
30
2f
1f
0f
45
e3
1f
31
ca
ee
29
fd
02
18
ba
fe
05
fc
06
e7
2f
04
f6
14
0f
13
e4
d6
b9
d8
df
f0
21
2d
f1
11
19
0a
f3
e0
e3
e1
31
1c
e4
81
c5
c8
de
17
ae
22
2d
dc
f9
ae
0c
1d
23
e2
1e
31
18
f4
0d
d0
f7
e8
0b
bb
0c
dd
f7
1b
08
16
1e
1b
98
ad
f7
2f
09
b1
31
1f
08
d4
0f
15
2a
05
cf
d0
0d
1d
18
1b
35
db
f1
ff
f9
08
d7
1e
f2
e7
fd
ed
df
0b
47
da
25
a7
f9
f5
cd
d4
cf
d6
cb
04
1e
3a
18
1f
b6
09
12
c4
2c
c7
17
12
13
3f
b2
c0
19
f0
1a
c8
ff
d0
1b
26
96
91
02
23
1e
1b
13
f1
21
e1
f8
b1
9f
de
a2
33
07
dd
fb
03
00
19
ef
df
00
04
16
24
04
cf
df
3a
d4
06
27
e0
31
b7
13
ee
e1
29
da
2e
bd
f9
f8
d0
d3
37
03
f3
21
c4
1f
06
c8
13
3c
df
06
19
08
b8
e8
26
f4
3d
01
de
2f
de
2c
1c
10
25
2b
84
24
c8
0f
03
f2
05
e6
ef
e6
d4
19
4b
f4
16
09
e3
2c
a1
b3
d8
bc
31
19
08
15
1a
21
98
c2
15
ae
1a
0a
f8
ff
09
cf
b1
00
cd
05
e8
cd
15
28
f1
f6
28
13
3a
c1
ed
1b
a5
11
b8
9f
f0
0a
37
de
ff
b4
9a
f4
17
0d
1e
09
e8
1b
0b
2b
bf
e8
29
fc
b9
d1
2b
c1
ec
23
27
45
4f
e9
19
02
e6
0c
2b
25
a6
ff
cd
d5
da
14
c0
c0
35
27
df
dd
06
30
1e
0d
18
08
ba
0b
52
48
e6
11
3a
dd
df
c1
1e
13
c6
e5
23
21
07
2e
e8
05
e3
d7
f2
20
d9
f1
2a
12
05
01
14
e6
16
c7
99
d0
fe
90
e8
e0
21
03
0d
ea
ca
ff
e4
14
44
20
09
a7
03
20
0b
ae
c8
df
0c
e4
13
dd
24
06
e6
13
bb
dd
f2
0b
a5
15
26
fa
22
29
f7
f8
16
0e
f0
0f
b0
f3
11
09
16
1d
20
be
ee
0e
09
ee
06
a7
b9
0f
11
23
a9
0f
98
d6
e3
d8
18
1b
11
09
a2
20
91
fa
15
e7
3e
ef
14
da
ad
03
11
f1
87
00
de
06
d6
a0
e3
b3
e2
21
e9
f2
0e
3a
08
ee
c5
23
00
fa
3c
dd
35
0f
fe
02
23
01
f6
0c
1d
ff
fe
18
