fa
e2
06
d6
2e
c5
d7
04
11
10
e2
fa
a6
ec
24
e5
bf
15
11
f4
ff
ef
14
16
23
e6
f1
08
f6
ae
ff
dd
07
25
1f
1e
d7
95
09
03
13
ce
ac
d8
fb
07
13
c8
df
1e
bb
25
bc
12
1d
30
d1
12
fc
14
32
18
0a
ba
d8
13
ac
d6
1b
16
2a
3b
50
18
26
0f
22
13
29
f4
ea
d5
05
b6
20
ed
48
c4
10
df
18
0e
cc
d4
1c
30
d9
15
df
d9
45
23
eb
ee
00
04
27
13
cf
19
52
21
e9
f0
20
03
32
de
a8
e1
f2
03
cd
c9
20
af
f0
04
09
fc
e0
c8
03
b2
c6
04
d8
20
1c
eb
20
06
b2
d0
20
0a
29
1d
cc
1b
c5
1a
e7
c5
07
30
17
13
ac
16
ed
0b
e2
e3
0d
0a
18
0a
fe
11
f8
0d
0c
d7
fa
12
17
f9
df
0d
10
e6
f5
2a
11
dc
1e
27
18
07
25
47
18
16
25
0f
0b
1e
ec
de
9d
df
e2
e5
15
09
01
f9
10
f4
02
1a
c7
f7
d6
1c
1c
ea
1f
0a
f7
29
e0
fb
17
1c
df
eb
1b
22
bd
eb
1f
0b
0e
13
ef
b4
1f
d7
0d
a1
13
e3
1c
12
0a
fb
0c
1b
e3
22
d7
da
f8
f8
18
06
b4
28
2a
3c
fd
04
1f
fd
10
25
27
12
a8
17
b0
f5
0b
0c
19
d7
2b
21
ac
01
ce
ae
1f
30
10
01
d8
e1
ed
0c
50
20
0e
10
bc
f4
09
e3
fc
0c
04
fe
81
29
1e
ec
cd
1d
01
a0
c7
d3
fc
c2
b2
03
0f
fe
eb
e0
30
01
06
17
07
06
0d
14
b7
fc
c7
f2
33
06
36
06
2f
2c
30
fb
dc
e1
19
1b
dd
1b
c9
25
21
ee
f4
b2
09
11
c3
22
d9
1d
0e
1b
19
05
e2
02
c9
04
2c
06
03
ba
28
e6
09
fb
28
ff
e7
2c
ef
1e
1a
c7
0a
0b
25
06
c9
b6
3f
15
21
19
12
15
d2
e9
33
fa
09
11
1e
15
37
29
1c
06
de
18
c8
c2
04
ae
dd
24
02
f7
19
ee
b2
a1
09
e3
12
db
13
de
f8
36
da
cf
f0
26
c8
f6
cb
20
d1
c3
c6
e6
16
c7
df
23
ea
f1
e5
dd
c7
1b
f3
06
10
d7
00
cd
30
dd
10
ed
07
11
58
d7
c0
e6
ca
d1
12
31
10
1b
12
21
1a
2a
11
ea
10
10
03
fa
05
fd
30
24
fa
cb
d0
ec
dd
d3
0d
25
06
19
0e
23
0e
e6
2b
2b
20
18
c6
9f
46
0b
c9
26
06
16
fa
17
94
dc
be
14
c6
0d
e4
12
1f
19
c1
17
c5
02
b9
07
e2
20
05
d4
ee
11
0d
ce
06
a7
10
ef
14
fb
11
11
07
b3
00
0f
0e
07
01
17
17
ea
bd
09
1d
1d
f5
fd
cb
ff
df
ed
15
17
0b
ff
af
e4
19
24
fa
1a
d9
f3
05
28
0a
b8
17
d3
a4
fe
be
1a
de
12
a1
1c
cf
de
d5
ed
ad
e7
15
0e
bf
01
10
1c
23
fe
fa
26
e7
0e
ca
0a
09
e5
ef
ea
ed
16
1c
27
d7
fd
ff
cd
1c
11
da
0b
09
0d
16
10
1c
08
c9
1e
ed
8b
